{
  "version": "1.0",
  "truncation": null,
  "padding": null,
  "added_tokens": [
    {
      "id": 0,
      "content": "<pad>",
      "single_word": false,
      "lstrip": false,
      "rstrip": false,
      "normalized": false,
      "special": true
    },
    {
      "id": 1,
      "content": "<s>",
      "single_word": false,
      "lstrip": false,
      "rstrip": false,
      "normalized": false,
      "special": true
    },
    {
      "id": 2,
      "content": "</s>",
      "single_word": false,
      "lstrip": false,
      "rstrip": false,
      "normalized": false,
      "special": true
    },
    {
      "id": 3,
      "content": "<unk>",
      "single_word": false,
      "lstrip": false,
      "rstrip": false,
      "normalized": false,
      "special": true
    }
  ],
  "normalizer": null,
  "pre_tokenizer": {
    "type": "ByteLevel",
    "add_prefix_space": false,
    "trim_offsets": true,
    "use_regex": true
  },
  "post_processor": null,
  "decoder": {
    "type": "ByteLevel",
    "add_prefix_space": true,
    "trim_offsets": true,
    "use_regex": true
  },
  "model": {
    "type": "BPE",
    "dropout": null,
    "unk_token": null,
    "continuing_subword_prefix": null,
    "end_of_word_suffix": null,
    "fuse_unk": false,
    "byte_fallback": false,
    "ignore_merges": false,
    "vocab": {
      "<pad>": 0,
      "<s>": 1,
      "</s>": 2,
      "<unk>": 3,
      "!": 4,
      "\"": 5,
      "#": 6,
      "$": 7,
      "%": 8,
      "&": 9,
      "'": 10,
      "(": 11,
      ")": 12,
      "*": 13,
      "+": 14,
      ",": 15,
      "-": 16,
      ".": 17,
      "/": 18,
      "0": 19,
      "1": 20,
      "2": 21,
      "3": 22,
      "4": 23,
      "5": 24,
      "6": 25,
      "7": 26,
      "8": 27,
      "9": 28,
      ":": 29,
      ";": 30,
      "<": 31,
      "=": 32,
      ">": 33,
      "?": 34,
      "@": 35,
      "A": 36,
      "B": 37,
      "C": 38,
      "D": 39,
      "E": 40,
      "F": 41,
      "G": 42,
      "H": 43,
      "I": 44,
      "J": 45,
      "K": 46,
      "L": 47,
      "M": 48,
      "N": 49,
      "O": 50,
      "P": 51,
      "Q": 52,
      "R": 53,
      "S": 54,
      "T": 55,
      "U": 56,
      "V": 57,
      "W": 58,
      "X": 59,
      "Y": 60,
      "Z": 61,
      "[": 62,
      "\\": 63,
      "]": 64,
      "^": 65,
      "_": 66,
      "`": 67,
      "a": 68,
      "b": 69,
      "c": 70,
      "d": 71,
      "e": 72,
      "f": 73,
      "g": 74,
      "h": 75,
      "i": 76,
      "j": 77,
      "k": 78,
      "l": 79,
      "m": 80,
      "n": 81,
      "o": 82,
      "p": 83,
      "q": 84,
      "r": 85,
      "s": 86,
      "t": 87,
      "u": 88,
      "v": 89,
      "w": 90,
      "x": 91,
      "y": 92,
      "z": 93,
      "{": 94,
      "|": 95,
      "}": 96,
      "~": 97,
      "¡": 98,
      "¢": 99,
      "£": 100,
      "¤": 101,
      "¥": 102,
      "¦": 103,
      "§": 104,
      "¨": 105,
      "©": 106,
      "ª": 107,
      "«": 108,
      "¬": 109,
      "®": 110,
      "¯": 111,
      "°": 112,
      "±": 113,
      "²": 114,
      "³": 115,
      "´": 116,
      "µ": 117,
      "¶": 118,
      "·": 119,
      "¸": 120,
      "¹": 121,
      "º": 122,
      "»": 123,
      "¼": 124,
      "½": 125,
      "¾": 126,
      "¿": 127,
      "À": 128,
      "Á": 129,
      "Â": 130,
      "Ã": 131,
      "Ä": 132,
      "Å": 133,
      "Æ": 134,
      "Ç": 135,
      "È": 136,
      "É": 137,
      "Ê": 138,
      "Ë": 139,
      "Ì": 140,
      "Í": 141,
      "Î": 142,
      "Ï": 143,
      "Ð": 144,
      "Ñ": 145,
      "Ò": 146,
      "Ó": 147,
      "Ô": 148,
      "Õ": 149,
      "Ö": 150,
      "×": 151,
      "Ø": 152,
      "Ù": 153,
      "Ú": 154,
      "Û": 155,
      "Ü": 156,
      "Ý": 157,
      "Þ": 158,
      "ß": 159,
      "à": 160,
      "á": 161,
      "â": 162,
      "ã": 163,
      "ä": 164,
      "å": 165,
      "æ": 166,
      "ç": 167,
      "è": 168,
      "é": 169,
      "ê": 170,
      "ë": 171,
      "ì": 172,
      "í": 173,
      "î": 174,
      "ï": 175,
      "ð": 176,
      "ñ": 177,
      "ò": 178,
      "ó": 179,
      "ô": 180,
      "õ": 181,
      "ö": 182,
      "÷": 183,
      "ø": 184,
      "ù": 185,
      "ú": 186,
      "û": 187,
      "ü": 188,
      "ý": 189,
      "þ": 190,
      "ÿ": 191,
      "Ā": 192,
      "ā": 193,
      "Ă": 194,
      "ă": 195,
      "Ą": 196,
      "ą": 197,
      "Ć": 198,
      "ć": 199,
      "Ĉ": 200,
      "ĉ": 201,
      "Ċ": 202,
      "ċ": 203,
      "Č": 204,
      "č": 205,
      "Ď": 206,
      "ď": 207,
      "Đ": 208,
      "đ": 209,
      "Ē": 210,
      "ē": 211,
      "Ĕ": 212,
      "ĕ": 213,
      "Ė": 214,
      "ė": 215,
      "Ę": 216,
      "ę": 217,
      "Ě": 218,
      "ě": 219,
      "Ĝ": 220,
      "ĝ": 221,
      "Ğ": 222,
      "ğ": 223,
      "Ġ": 224,
      "ġ": 225,
      "Ģ": 226,
      "ģ": 227,
      "Ĥ": 228,
      "ĥ": 229,
      "Ħ": 230,
      "ħ": 231,
      "Ĩ": 232,
      "ĩ": 233,
      "Ī": 234,
      "ī": 235,
      "Ĭ": 236,
      "ĭ": 237,
      "Į": 238,
      "į": 239,
      "İ": 240,
      "ı": 241,
      "Ĳ": 242,
      "ĳ": 243,
      "Ĵ": 244,
      "ĵ": 245,
      "Ķ": 246,
      "ķ": 247,
      "ĸ": 248,
      "Ĺ": 249,
      "ĺ": 250,
      "Ļ": 251,
      "ļ": 252,
      "Ľ": 253,
      "ľ": 254,
      "Ŀ": 255,
      "ŀ": 256,
      "Ł": 257,
      "ł": 258,
      "Ń": 259,
      "Ġt": 260,
      "he": 261,
      "in": 262,
      "Ġa": 263,
      "er": 264,
      "on": 265,
      "Ġthe": 266,
      "or": 267,
      "an": 268,
      "en": 269,
      "es": 270,
      "ed": 271,
      "Ġs": 272,
      "at": 273,
      "Ġo": 274,
      "is": 275,
      "it": 276,
      "ar": 277,
      "al": 278,
      "Ġw": 279,
      "Ġof": 280,
      "ic": 281,
      "Ġin": 282,
      "nd": 283,
      "Ġf": 284,
      "re": 285,
      "Ġc": 286,
      "le": 287,
      "Ġb": 288,
      "as": 289,
      "ou": 290,
      "Ġp": 291,
      "ing": 292,
      "Ġand": 293,
      "ion": 294,
      "ĠS": 295,
      "ro": 296,
      "ĠC": 297,
      "Ġto": 298,
      "Ġm": 299,
      "Ġd": 300,
      "ĠA": 301,
      "il": 302,
      "ent": 303,
      "Ġ1": 304,
      "ĠT": 305,
      "Ġh": 306,
      "ĠM": 307,
      "am": 308,
      "el": 309,
      "ol": 310,
      "om": 311,
      "Ġ(": 312,
      "st": 313,
      "ce": 314,
      "ĠB": 315,
      "ct": 316,
      "Ġl": 317,
      "ur": 318,
      "ĠP": 319,
      "ad": 320,
      "ch": 321,
      "et": 322,
      "ĠH": 323,
      "ation": 324,
      "iv": 325,
      "ers": 326,
      "ir": 327,
      "Ġre": 328,
      "Ġn": 329,
      "ĠI": 330,
      "ig": 331,
      "Ġ2": 332,
      "ĠR": 333,
      "Ġwas": 334,
      "ot": 335,
      "id": 336,
      "Ġth": 337,
      "us": 338,
      "ay": 339,
      "ĠD": 340,
      "Ġfor": 341,
      "Ġ19": 342,
      "ĠL": 343,
      "Ġe": 344,
      "Ġon": 345,
      "ly": 346,
      "im": 347,
      "ist": 348,
      "ĠF": 349,
      "our": 350,
      "ter": 351,
      "ĠG": 352,
      "Ġg": 353,
      "ra": 354,
      "Ġis": 355,
      "ĠN": 356,
      "ut": 357,
      "ow": 358,
      "ĠW": 359,
      "ont": 360,
      "Ġas": 361,
      "un": 362,
      "ĠThe": 363,
      "ue": 364,
      "em": 365,
      "ith": 366,
      "00": 367,
      "and": 368,
      "th": 369,
      "Ġst": 370,
      "her": 371,
      "Ġbe": 372,
      "âĢ": 373,
      "ĠJ": 374,
      "ul": 375,
      "ĠE": 376,
      "Ġwith": 377,
      "ag": 378,
      "Ġr": 379,
      "Ġte": 380,
      "Ġal": 381,
      "Ġby": 382,
      "um": 383,
      "est": 384,
      "os": 385,
      "rom": 386,
      "'s": 387,
      "tic": 388,
      "ac": 389,
      "ver": 390,
      "xt": 391,
      "op": 392,
      "Ġat": 393,
      "âĢĵ": 394,
      "ĠO": 395,
      "ian": 396,
      "oc": 397,
      "Ġwh": 398,
      "Ġan": 399,
      "ontin": 400,
      "Ġfrom": 401,
      "ri": 402,
      "ĠK": 403,
      "Ġtit": 404,
      "ess": 405,
      "Ar": 406,
      "Ġhe": 407,
      "ource": 408,
      "Ġtitle": 409,
      "od": 410,
      "all": 411,
      "Ġde": 412,
      "Ġv": 413,
      "ain": 414,
      "Ġtext": 415,
      "ticle": 416,
      "ia": 417,
      "Ġsource": 418,
      "ĠU": 419,
      "ontinue": 420,
      "av": 421,
      "Article": 422,
      "Ġthat": 423,
      "Continue": 424,
      "Ġ\"": 425,
      "ity": 426,
      "ab": 427,
      "ies": 428,
      "ber": 429,
      "ate": 430,
      "ill": 431,
      "ew": 432,
      "Ġcom": 433,
      "if": 434,
      "Ġpro": 435,
      "ĠSt": 436,
      "ort": 437,
      "ard": 438,
      "Ġse": 439,
      "art": 440,
      "ud": 441,
      "19": 442,
      "Ġpl": 443,
      "Ġit": 444,
      "igh": 445,
      "pe": 446,
      "ak": 447,
      "ub": 448,
      "ip": 449,
      "Ġ200": 450,
      "Ġhis": 451,
      "ich": 452,
      "ap": 453,
      "ld": 454,
      "ment": 455,
      "ish": 456,
      "ov": 457,
      "up": 458,
      "Ġor": 459,
      "ated": 460,
      "ĠIn": 461,
      "ant": 462,
      "ary": 463,
      "ĠCh": 464,
      "The": 465,
      "Ġ20": 466,
      "mer": 467,
      "ge": 468,
      "Ġcon": 469,
      "oun": 470,
      "se": 471,
      "ĠV": 472,
      "end": 473,
      "ive": 474,
      "ong": 475,
      "og": 476,
      "Ġare": 477,
      "ial": 478,
      "ear": 479,
      "Ġch": 480,
      "qu": 481,
      "ks": 482,
      "ine": 483,
      "fer": 484,
      "ell": 485,
      "ast": 486,
      "ust": 487,
      "rou": 488,
      "ord": 489,
      "ep": 490,
      "ame": 491,
      "ere": 492,
      "uc": 493,
      "gh": 494,
      "so": 495,
      "ore": 496,
      "ction": 497,
      "ran": 498,
      "ces": 499,
      "),": 500,
      "ost": 501,
      "ie": 502,
      "Ġle": 503,
      "tern": 504,
      "Ġex": 505,
      "ĠâĢĵ": 506,
      "ight": 507,
      "Ġwere": 508,
      "ĠUn": 509,
      "ical": 510,
      "Ġalso": 511,
      "ĊĊ": 512,
      "ign": 513,
      "ĠHe": 514,
      "Ġwhich": 515,
      "ric": 516,
      "ther": 517,
      "Ġy": 518,
      "ff": 519,
      "Ġplay": 520,
      "Ġcomp": 521,
      "cl": 522,
      "ry": 523,
      "rit": 524,
      "Ġsh": 525,
      "ass": 526,
      "Ġ201": 527,
      "ure": 528,
      "port": 529,
      "age": 530,
      "Ġk": 531,
      "man": 532,
      "irst": 533,
      "ount": 534,
      "ire": 535,
      "ous": 536,
      "Ġ18": 537,
      "Ġun": 538,
      "ĠY": 539,
      "land": 540,
      "res": 541,
      "ĠĊ": 542,
      "ions": 543,
      "ack": 544,
      "te": 545,
      "ations": 546,
      "ational": 547,
      "erv": 548,
      "ond": 549,
      "ory": 550,
      "ts": 551,
      "ork": 552,
      "ide": 553,
      "Ġ3": 554,
      "per": 555,
      "own": 556,
      "Ġar": 557,
      "ok": 558,
      "hed": 559,
      "ice": 560,
      "iz": 561,
      "Ġ|": 562,
      "ican": 563,
      "Ġcl": 564,
      "orn": 565,
      "Ġhad": 566,
      "pl": 567,
      "Ġnot": 568,
      "Ġ199": 569,
      "ave": 570,
      "ang": 571,
      "Ġfirst": 572,
      "Ġhas": 573,
      "ec": 574,
      "feren": 575,
      "fter": 576,
      "ru": 577,
      "ey": 578,
      "ool": 579,
      "ĠAl": 580,
      "ater": 581,
      "ach": 582,
      "Ġres": 583,
      "ound": 584,
      "Ġwhe": 585,
      "ome": 586,
      "ĠIt": 587,
      "Ġus": 588,
      "Ġ||": 589,
      "ect": 590,
      "ĠTh": 591,
      "In": 592,
      "ib": 593,
      "amp": 594,
      "und": 595,
      "ited": 596,
      "wo": 597,
      "ĠAr": 598,
      "ates": 599,
      "ree": 600,
      "ph": 601,
      "Re": 602,
      "ition": 603,
      "Ġad": 604,
      "ens": 605,
      "Ġint": 606,
      "aw": 607,
      "ime": 608,
      "Ġap": 609,
      "ult": 610,
      "merican": 611,
      "Ġtheir": 612,
      "Ġits": 613,
      "ĠMar": 614,
      "Ġj": 615,
      "ik": 616,
      "ath": 617,
      "20": 618,
      "out": 619,
      "ilm": 620,
      "chool": 621,
      "Ġwho": 622,
      "ee": 623,
      ").": 624,
      "ferences": 625,
      "ubl": 626,
      "ball": 627,
      "ild": 628,
      "ivers": 629,
      "cc": 630,
      "Ġbut": 631,
      "ug": 632,
      "ite": 633,
      "Ġab": 634,
      "Ġ-": 635,
      "ors": 636,
      "ĠNew": 637,
      "Ġone": 638,
      "ence": 639,
      "ents": 640,
      "inal": 641,
      "over": 642,
      "iss": 643,
      "ng": 644,
      "low": 645,
      "Ġyear": 646,
      "for": 647,
      "clud": 648,
      "ace": 649,
      "pt": 650,
      "act": 651,
      "References": 652,
      "ould": 653,
      "ember": 654,
      "ople": 655,
      "Ġrec": 656,
      "Ġman": 657,
      "hip": 658,
      "Ġher": 659,
      "io": 660,
      "ile": 661,
      "Ġ4": 662,
      "wn": 663,
      "are": 664,
      "ress": 665,
      "oot": 666,
      "eg": 667,
      "ark": 668,
      "Ġag": 669,
      "ual": 670,
      "oy": 671,
      "Ġ198": 672,
      "Ġper": 673,
      "Ġhave": 674,
      "ons": 675,
      "ade": 676,
      "les": 677,
      "old": 678,
      "ob": 679,
      "Ġcont": 680,
      "Ġtwo": 681,
      "Ġbec": 682,
      "uring": 683,
      "ton": 684,
      "vel": 685,
      "Ġinclud": 686,
      "Ġsc": 687,
      "ail": 688,
      "ase": 689,
      "ased": 690,
      "Ġthis": 691,
      "ĠCom": 692,
      "Ġen": 693,
      "Ġro": 694,
      "ward": 695,
      "oin": 696,
      "ss": 697,
      "eople": 698,
      "ings": 699,
      "ind": 700,
      "ied": 701,
      "eb": 702,
      "Ġbeen": 703,
      "Ġother": 704,
      "Ġcomm": 705,
      "Ġpart": 706,
      "Ġdis": 707,
      "way": 708,
      "ely": 709,
      "ft": 710,
      "Ġafter": 711,
      "outh": 712,
      "ral": 713,
      "Ġdes": 714,
      "oh": 715,
      "200": 716,
      "Ġ5": 717,
      "we": 718,
      "ood": 719,
      "Ġ197": 720,
      "Ġlin": 721,
      "ance": 722,
      "able": 723,
      "ah": 724,
      "ĠLe": 725,
      "ished": 726,
      "Ġfilm": 727,
      "ĠAmerican": 728,
      "Ġim": 729,
      "ury": 730,
      "ĠĠ": 731,
      "ted": 732,
      "ĠDe": 733,
      "urn": 734,
      "Ġoff": 735,
      "ans": 736,
      "uch": 737,
      "orld": 738,
      "Ġsp": 739,
      "ne": 740,
      "Ġup": 741,
      "ics": 742,
      "ision": 743,
      "ough": 744,
      "gan": 745,
      "Ġover": 746,
      "Ġserv": 747,
      "Ġtra": 748,
      "cent": 749,
      "iversity": 750,
      "red": 751,
      "ames": 752,
      "Ġnew": 753,
      "18": 754,
      "one": 755,
      "orth": 756,
      "ĠAn": 757,
      "Ġout": 758,
      "ren": 759,
      "ĠUnited": 760,
      "olle": 761,
      "ram": 762,
      "Ġinto": 763,
      "Ex": 764,
      "ock": 765,
      "ĠSh": 766,
      "Âł": 767,
      "Ġthey": 768,
      "ason": 769,
      "olog": 770,
      "che": 771,
      "ternal": 772,
      "cted": 773,
      "Ġev": 774,
      "Ġall": 775,
      "ick": 776,
      "Ġra": 777,
      "Ġund": 778,
      "ootball": 779,
      "Ġ196": 780,
      "Ġloc": 781,
      "als": 782,
      "ict": 783,
      "Ġcan": 784,
      "Ġact": 785,
      "Ġatt": 786,
      "ose": 787,
      "az": 788,
      "iel": 789,
      "rans": 790,
      "ake": 791,
      "rough": 792,
      "pec": 793,
      "Ġtime": 794,
      "Ġpre": 795,
      "att": 796,
      "ins": 797,
      "form": 798,
      "eral": 799,
      "ists": 800,
      "Ġbu": 801,
      "Ġlinks": 802,
      "au": 803,
      "round": 804,
      "Ġwork": 805,
      "Ġele": 806,
      "du": 807,
      "ale": 808,
      "ince": 809,
      "ious": 810,
      "Ġsec": 811,
      "Ġpeople": 812,
      "External": 813,
      "Ġshe": 814,
      "rib": 815,
      "ll": 816,
      "ck": 817,
      "ĠZ": 818,
      "reat": 819,
      "ever": 820,
      "rad": 821,
      "duc": 822,
      "Ġkn": 823,
      "pr": 824,
      "Ġpol": 825,
      "Ġ6": 826,
      "Ġhim": 827,
      "ĠPro": 828,
      "Ġpr": 829,
      "bum": 830,
      "Ġunder": 831,
      "Ġreg": 832,
      "Ã©": 833,
      "ĠUniversity": 834,
      "ities": 835,
      "inn": 836,
      "ĠInd": 837,
      "oci": 838,
      "aj": 839,
      "Ġteam": 840,
      "Ġbet": 841,
      "Ġest": 842,
      "Ġpar": 843,
      "Ġwhen": 844,
      "ier": 845,
      "usic": 846,
      "ann": 847,
      "ars": 848,
      "abl": 849,
      "ife": 850,
      "oth": 851,
      "Ġop": 852,
      "ĠStates": 853,
      "ix": 854,
      "use": 855,
      "Ġcent": 856,
      "Ġco": 857,
      "Ġpubl": 858,
      "Ġplayers": 859,
      "Ġwould": 860,
      "Ġ194": 861,
      "Ġbo": 862,
      "roup": 863,
      "Ġass": 864,
      "emb": 865,
      "ĠCl": 866,
      "der": 867,
      "ohn": 868,
      "ĠSc": 869,
      "air": 870,
      "ev": 871,
      "ident": 872,
      "Ġonly": 873,
      "ollow": 874,
      "ĠEng": 875,
      "Ġform": 876,
      "eat": 877,
      "Ġret": 878,
      "Ġcons": 879,
      "ween": 880,
      "Ġmore": 881,
      "ily": 882,
      "any": 883,
      "Ġyears": 884,
      "istory": 885,
      "ular": 886,
      "Ġsup": 887,
      "ouse": 888,
      "Ġstud": 889,
      "yst": 890,
      "Ġagain": 891,
      "ĠCount": 892,
      "eries": 893,
      "Ġduring": 894,
      "Ġ7": 895,
      "ague": 896,
      "ative": 897,
      "Ġind": 898,
      "ash": 899,
      "raph": 900,
      "enn": 901,
      "ina": 902,
      "resent": 903,
      "Ġwhere": 904,
      "Ġsub": 905,
      "ober": 906,
      "Ġme": 907,
      "Ġ195": 908,
      "ional": 909,
      "Ġrel": 910,
      "overn": 911,
      "ced": 912,
      "ley": 913,
      "..": 914,
      "Ġalbum": 915,
      "iam": 916,
      "Ġschool": 917,
      "Ġmost": 918,
      "pro": 919,
      "cess": 920,
      "Ġbetween": 921,
      "Ġear": 922,
      "istric": 923,
      "ield": 924,
      "Ġrele": 925,
      "ĠIs": 926,
      "iver": 927,
      "hen": 928,
      "Ġinter": 929,
      "Ġthree": 930,
      "Ġqu": 931,
      "Ġfound": 932,
      "Ġseason": 933,
      "Ġacc": 934,
      "erman": 935,
      "ron": 936,
      "ĠSchool": 937,
      "son": 938,
      "Ġthrough": 939,
      "Ġrem": 940,
      "Ġused": 941,
      "Ġed": 942,
      "ific": 943,
      "Ġabout": 944,
      "Ġnum": 945,
      "fore": 946,
      "Ġgen": 947,
      "ĠWar": 948,
      "ĠJohn": 949,
      "ank": 950,
      "\",": 951,
      "Ġsing": 952,
      "Ġfootball": 953,
      "Ġ8": 954,
      "Ġac": 955,
      "Ġlater": 956,
      "erm": 957,
      "ten": 958,
      "Ġthen": 959,
      "199": 960,
      "ĠCar": 961,
      "Ġ17": 962,
      "Ġend": 963,
      "ĠNational": 964,
      "ĠThis": 965,
      "Ġfollow": 966,
      "ern": 967,
      "ating": 968,
      "ĠAust": 969,
      "erson": 970,
      "Ġthem": 971,
      "ĠTe": 972,
      "Ġne": 973,
      "Ġmov": 974,
      "Ġso": 975,
      "ĠFor": 976,
      "Ġrecord": 977,
      "ĠFran": 978,
      "Ġestabl": 979,
      "Ġthere": 980,
      "ĠWorld": 981,
      "ctor": 982,
      "ĠCounty": 983,
      "ĠBl": 984,
      "oss": 985,
      "Ġtrans": 986,
      "ĠCon": 987,
      "Ġsecond": 988,
      "Ġwrit": 989,
      "ert": 990,
      "\".": 991,
      "arg": 992,
      "ĠAs": 993,
      "ograph": 994,
      "velop": 995,
      "Ġprov": 996,
      "ese": 997,
      "ement": 998,
      "uss": 999,
      "Ġmade": 1000,
      "ĠQ": 1001,
      "ĠComm": 1002,
      "Ġam": 1003,
      "Ġsuch": 1004,
      "une": 1005,
      ".\"": 1006,
      "Ġdef": 1007,
      "ject": 1008,
      "Ġ9": 1009,
      "ures": 1010,
      "ett": 1011,
      "inist": 1012,
      "ystem": 1013,
      "istrict": 1014,
      "stit": 1015,
      "Ġknown": 1016,
      "ments": 1017,
      "iving": 1018,
      "ĠSp": 1019,
      "Ġspec": 1020,
      "ism": 1021,
      "Ġinv": 1022,
      "ĠBrit": 1023,
      "its": 1024,
      "ĠCan": 1025,
      "ike": 1026,
      "ve": 1027,
      "Ġthan": 1028,
      "Ġdire": 1029,
      "ĠOn": 1030,
      "Ġent": 1031,
      "Ġ10": 1032,
      "Ġbecame": 1033,
      "ĠBr": 1034,
      "ower": 1035,
      "ĠPh": 1036,
      "cy": 1037,
      "els": 1038,
      "iew": 1039,
      "eth": 1040,
      "ived": 1041,
      "mp": 1042,
      "ĠOr": 1043,
      "Ġbir": 1044,
      "urch": 1045,
      "ise": 1046,
      "ĠShe": 1047,
      "ĠYork": 1048,
      "uro": 1049,
      "Ġsome": 1050,
      "ĠMay": 1051,
      "Ġfl": 1052,
      "Ġpop": 1053,
      "Ġ15": 1054,
      "ĠPl": 1055,
      "Ġph": 1056,
      "Ġfour": 1057,
      "Ġbeing": 1058,
      "Ġcall": 1059,
      "Ġsong": 1060,
      "til": 1061,
      "Ġfam": 1062,
      "Ġappe": 1063,
      "ays": 1064,
      "ai": 1065,
      "Ġwell": 1066,
      "Ġ193": 1067,
      "Ġdo": 1068,
      "ĠAt": 1069,
      "pos": 1070,
      "by": 1071,
      "Ġseries": 1072,
      "ept": 1073,
      "ternational": 1074,
      "other": 1075,
      "Ġbl": 1076,
      "ĠJan": 1077,
      "ets": 1078,
      "ians": 1079,
      "ĠAd": 1080,
      "Ġ16": 1081,
      "my": 1082,
      "Ġlead": 1083,
      "ax": 1084,
      "Ġgroup": 1085,
      "Ġ&": 1086,
      "ull": 1087,
      "ather": 1088,
      "Ġoper": 1089,
      "Ġinc": 1090,
      "Ġincluding": 1091,
      "ural": 1092,
      "Ġmed": 1093,
      "ĠSouth": 1094,
      "Ġcount": 1095,
      "ĠGerman": 1096,
      "000": 1097,
      "born": 1098,
      "very": 1099,
      "Ġbefore": 1100,
      "ives": 1101,
      "21": 1102,
      "stitut": 1103,
      "oll": 1104,
      "yn": 1105,
      "ampions": 1106,
      "Ġhigh": 1107,
      "rist": 1108,
      "owever": 1109,
      "Ġbirth": 1110,
      "ke": 1111,
      "ctions": 1112,
      "Ġagainst": 1113,
      "10": 1114,
      "Ġadd": 1115,
      "amed": 1116,
      "ty": 1117,
      "Ġchar": 1118,
      "Ġbro": 1119,
      "ollege": 1120,
      "Ġorig": 1121,
      "Ġgo": 1122,
      "Ġmany": 1123,
      "Ġsign": 1124,
      "Ġuntil": 1125,
      "âĢĶ": 1126,
      "elf": 1127,
      "Ġdec": 1128,
      "Ġmod": 1129,
      "ĠCent": 1130,
      "Ġsur": 1131,
      "Ġdeath": 1132,
      "ĠAustral": 1133,
      "ott": 1134,
      "Ġown": 1135,
      "ys": 1136,
      "eng": 1137,
      "lish": 1138,
      "Ġgu": 1139,
      "Ġoffic": 1140,
      "Ġwhile": 1141,
      "Ġdevelop": 1142,
      "Ġmay": 1143,
      "row": 1144,
      "Ġback": 1145,
      "ered": 1146,
      "ology": 1147,
      "ĠJu": 1148,
      "Ġbuild": 1149,
      "Ġshow": 1150,
      "Ġmusic": 1151,
      "17": 1152,
      "ĠPar": 1153,
      "ium": 1154,
      "Ġnumber": 1155,
      "ĠGe": 1156,
      "Ġname": 1157,
      "198": 1158,
      "gram": 1159,
      "lev": 1160,
      "Ġmain": 1161,
      "oman": 1162,
      "Ġart": 1163,
      "ired": 1164,
      "Ġplayed": 1165,
      "Ġno": 1166,
      "arri": 1167,
      "ugust": 1168,
      "uth": 1169,
      "areer": 1170,
      "Ġboth": 1171,
      "ĠPr": 1172,
      "ross": 1173,
      "ĠPol": 1174,
      "uary": 1175,
      "ract": 1176,
      "ants": 1177,
      "embers": 1178,
      "ĠWh": 1179,
      "istor": 1180,
      "Ġcap": 1181,
      "ajor": 1182,
      "cept": 1183,
      "ourn": 1184,
      "overnment": 1185,
      "ĠLeague": 1186,
      "ently": 1187,
      "Ġarea": 1188,
      "rid": 1189,
      "ple": 1190,
      "aid": 1191,
      "Ġformer": 1192,
      "Ġexp": 1193,
      "ĠBritish": 1194,
      "sh": 1195,
      "ĠMan": 1196,
      "por": 1197,
      "ĠNov": 1198,
      "amb": 1199,
      "Ġcomple": 1200,
      "isc": 1201,
      "eter": 1202,
      "Ġstation": 1203,
      "ines": 1204,
      "ized": 1205,
      "ĠBar": 1206,
      "ior": 1207,
      "ĠMarch": 1208,
      "ues": 1209,
      "ĠNorth": 1210,
      "ica": 1211,
      "ĠMe": 1212,
      "omen": 1213,
      "pril": 1214,
      "Ġ12": 1215,
      "Ġsever": 1216,
      "Ġopen": 1217,
      "See": 1218,
      "eptember": 1219,
      "Ġ2008": 1220,
      "fess": 1221,
      "ission": 1222,
      "St": 1223,
      "ient": 1224,
      "ports": 1225,
      "Ġpolit": 1226,
      "ĠReg": 1227,
      "ĠCity": 1228,
      "Ġem": 1229,
      "ĠRe": 1230,
      "ĠAugust": 1231,
      "ook": 1232,
      "led": 1233,
      "ĠBro": 1234,
      "itt": 1235,
      "imes": 1236,
      "ained": 1237,
      "ĠCol": 1238,
      "ven": 1239,
      "Ġdif": 1240,
      "ages": 1241,
      "Ch": 1242,
      "Ġgame": 1243,
      "Ġreleased": 1244,
      "Ġrun": 1245,
      "rand": 1246,
      "ually": 1247,
      "ctober": 1248,
      "the": 1249,
      "ĠGu": 1250,
      "ved": 1251,
      "ĠCal": 1252,
      "ĠEd": 1253,
      "urr": 1254,
      "ask": 1255,
      "Ġdesign": 1256,
      "ĠAss": 1257,
      "yl": 1258,
      "wards": 1259,
      "Ġ2006": 1260,
      "Ġ2007": 1261,
      "mber": 1262,
      "ĠJune": 1263,
      "ird": 1264,
      "Ġcre": 1265,
      "ital": 1266,
      "ove": 1267,
      "Ġstart": 1268,
      "Ġfeat": 1269,
      "tt": 1270,
      "ym": 1271,
      "Ġvar": 1272,
      "Ġair": 1273,
      "apan": 1274,
      "ared": 1275,
      "ĠEuro": 1276,
      "ĠII": 1277,
      "ĠAll": 1278,
      "Ġstate": 1279,
      "ĠBe": 1280,
      "ĠWill": 1281,
      "ĠState": 1282,
      "Ġext": 1283,
      "ĠCanad": 1284,
      "vent": 1285,
      "com": 1286,
      "ris": 1287,
      "Ġwon": 1288,
      "ĠKing": 1289,
      "ĠRep": 1290,
      "arm": 1291,
      "ful": 1292,
      "Ġsystem": 1293,
      "ety": 1294,
      "ĠSeptember": 1295,
      "American": 1296,
      "ĠApril": 1297,
      "ner": 1298,
      "197": 1299,
      "Ġorgan": 1300,
      "ampionship": 1301,
      "Ġsm": 1302,
      "Ġrep": 1303,
      "ause": 1304,
      "Ġproduc": 1305,
      "15": 1306,
      "ange": 1307,
      "ĠSe": 1308,
      "ĠJanuary": 1309,
      "anc": 1310,
      "cember": 1311,
      "ĠJuly": 1312,
      "ĠAir": 1313,
      "century": 1314,
      "Ġmat": 1315,
      "16": 1316,
      "ilt": 1317,
      "Ġcalled": 1318,
      "Ġprodu": 1319,
      "ĠOctober": 1320,
      "ility": 1321,
      "ography": 1322,
      "Ġrece": 1323,
      "Ġreturn": 1324,
      "inc": 1325,
      "ĠAm": 1326,
      "af": 1327,
      "Ġlong": 1328,
      "Ġfinal": 1329,
      "Ġ'": 1330,
      "ilit": 1331,
      "Ġseveral": 1332,
      "12": 1333,
      "ĊĠ": 1334,
      "Ġob": 1335,
      "Ġ.": 1336,
      "lor": 1337,
      "Ġsuc": 1338,
      "ible": 1339,
      "|-": 1340,
      "ble": 1341,
      "rop": 1342,
      "levision": 1343,
      "ille": 1344,
      "oint": 1345,
      "Ġoriginal": 1346,
      "Ġnear": 1347,
      "ung": 1348,
      "Ġlife": 1349,
      "aking": 1350,
      "Ġ14": 1351,
      "ally": 1352,
      "Ġsame": 1353,
      "chn": 1354,
      "ĠCo": 1355,
      "ham": 1356,
      "reen": 1357,
      "Ġann": 1358,
      "Ġpublic": 1359,
      "Ġcommun": 1360,
      "ped": 1361,
      "ulation": 1362,
      "Ġprogram": 1363,
      "Ġtown": 1364,
      "Ġearly": 1365,
      "Ġwill": 1366,
      "ains": 1367,
      "stru": 1368,
      "ĠHigh": 1369,
      "ĠUS": 1370,
      "ially": 1371,
      "Ġmin": 1372,
      "=\"": 1373,
      "ribut": 1374,
      "Ġbirths": 1375,
      "Ġ13": 1376,
      "Ġfin": 1377,
      "ĠAf": 1378,
      "ices": 1379,
      "Ġclub": 1380,
      "ode": 1381,
      "Ġuse": 1382,
      "ington": 1383,
      "hes": 1384,
      "ĠWest": 1385,
      "ator": 1386,
      "ĠDecember": 1387,
      "ĠNovember": 1388,
      "resident": 1389,
      "Ġfollowing": 1390,
      "Ġdep": 1391,
      "Ġcareer": 1392,
      "Ġdisc": 1393,
      "On": 1394,
      "Ã¡": 1395,
      "fl": 1396,
      "Ġtr": 1397,
      "angu": 1398,
      "Ġband": 1399,
      "ane": 1400,
      "ided": 1401,
      "Ġfamily": 1402,
      "Ġestablished": 1403,
      "ĠEurope": 1404,
      "que": 1405,
      "Ġany": 1406,
      "Ġthese": 1407,
      "ĠHar": 1408,
      "ef": 1409,
      "ebru": 1410,
      "ret": 1411,
      "ebruary": 1412,
      "ĠChrist": 1413,
      "Ġfilms": 1414,
      "Ġpass": 1415,
      "orks": 1416,
      "Ġcharact": 1417,
      "Ġlist": 1418,
      "con": 1419,
      "ued": 1420,
      "Ġsince": 1421,
      "Ġmembers": 1422,
      "ĠGeor": 1423,
      "ĠJapan": 1424,
      "ival": 1425,
      "ĠMc": 1426,
      "Ġhead": 1427,
      "ience": 1428,
      "Ġsupport": 1429,
      "ae": 1430,
      "uck": 1431,
      "ivision": 1432,
      "ery": 1433,
      "ino": 1434,
      "ĠEnglish": 1435,
      "14": 1436,
      "ended": 1437,
      "Ġbel": 1438,
      "ford": 1439,
      "Ġdr": 1440,
      "Ġcity": 1441,
      "Ġchild": 1442,
      "ox": 1443,
      "Ġmen": 1444,
      "13": 1445,
      "rench": 1446,
      "Ġvill": 1447,
      "ured": 1448,
      "ourt": 1449,
      "Ġ192": 1450,
      "ĠCollege": 1451,
      "orm": 1452,
      "ĠAnd": 1453,
      "Ġbased": 1454,
      "ised": 1455,
      "Ġeff": 1456,
      "Ġclass": 1457,
      "sp": 1458,
      "ĠThey": 1459,
      "rem": 1460,
      "Ġland": 1461,
      "par": 1462,
      "ony": 1463,
      "Ġlocated": 1464,
      "Ġlaw": 1465,
      "ales": 1466,
      "Ġbegan": 1467,
      "Ġgames": 1468,
      "ats": 1469,
      "Ġalong": 1470,
      "He": 1471,
      "Ġnamed": 1472,
      "Ġwe": 1473,
      "ĠAfter": 1474,
      "augh": 1475,
      "erg": 1476,
      "ze": 1477,
      "ights": 1478,
      "196": 1479,
      "Ġplace": 1480,
      "aster": 1481,
      "ĠFebruary": 1482,
      "Ġprom": 1483,
      "iness": 1484,
      "ster": 1485,
      "ĠNo": 1486,
      "urg": 1487,
      "Ġmajor": 1488,
      "ĠRec": 1489,
      "ords": 1490,
      "Ġeng": 1491,
      "Ġmanag": 1492,
      "ality": 1493,
      "Ġdist": 1494,
      "Ġsim": 1495,
      "pect": 1496,
      "ĠEl": 1497,
      "Ġocc": 1498,
      "yle": 1499,
      "uk": 1500,
      "aced": 1501,
      "aul": 1502,
      "raft": 1503,
      "ĠĠĠĠ": 1504,
      "aving": 1505,
      "ĠSw": 1506,
      "Ġdid": 1507,
      "Ġcontin": 1508,
      "Ġdesc": 1509,
      "adem": 1510,
      "Ġ2005": 1511,
      "Ġeach": 1512,
      "ien": 1513,
      "ards": 1514,
      "ĠWilliam": 1515,
      "ĠHis": 1516,
      "ĠAb": 1517,
      "Ġsmall": 1518,
      "ĠRo": 1519,
      "ĠPark": 1520,
      "ĠEx": 1521,
      "Ġinst": 1522,
      "ounc": 1523,
      "alth": 1524,
      "ondon": 1525,
      "Ġmember": 1526,
      "Ġset": 1527,
      "Ġpartic": 1528,
      "Ġmon": 1529,
      "ĠGen": 1530,
      "rew": 1531,
      "atic": 1532,
      "ically": 1533,
      "ata": 1534,
      "Ġgovernment": 1535,
      "ĠCup": 1536,
      "itions": 1537,
      "Ġbus": 1538,
      "Ġvers": 1539,
      "oung": 1540,
      "Ġserved": 1541,
      "aint": 1542,
      "Ġmet": 1543,
      "ps": 1544,
      "ored": 1545,
      "ĠChar": 1546,
      "Ġcentury": 1547,
      "view": 1548,
      "ublic": 1549,
      "Ġnational": 1550,
      "ociation": 1551,
      "Ġcompet": 1552,
      "iet": 1553,
      "Ġhome": 1554,
      "11": 1555,
      "ches": 1556,
      "ĠDav": 1557,
      "Ġlast": 1558,
      "ĠList": 1559,
      "ined": 1560,
      "arn": 1561,
      "Ġ2009": 1562,
      "unic": 1563,
      "Ġsingle": 1564,
      "ĠPart": 1565,
      "ĠSup": 1566,
      "estern": 1567,
      "Ġterm": 1568,
      "Ġcompany": 1569,
      "Ġworld": 1570,
      "Ġheld": 1571,
      "Ġappro": 1572,
      "Ġsuccess": 1573,
      "reet": 1574,
      "ring": 1575,
      "Ġdown": 1576,
      "Ġnorth": 1577,
      "ĠX": 1578,
      "aces": 1579,
      "Ġline": 1580,
      "ffic": 1581,
      "ling": 1582,
      "Ġ2010": 1583,
      "Ġperson": 1584,
      "side": 1585,
      "Ġpos": 1586,
      "int": 1587,
      "ĠEn": 1588,
      "lymp": 1589,
      "Ġ2004": 1590,
      "artment": 1591,
      "22": 1592,
      "ĠHouse": 1593,
      "Ġplayer": 1594,
      "ately": 1595,
      "ilitary": 1596,
      "aur": 1597,
      "rol": 1598,
      "Ġcould": 1599,
      "Th": 1600,
      "Ġnow": 1601,
      "arge": 1602,
      "illion": 1603,
      "ĠMed": 1604,
      "Ġlocal": 1605,
      "Ġrest": 1606,
      "ides": 1607,
      "ana": 1608,
      "oo": 1609,
      "Ġcar": 1610,
      "Ġbuilt": 1611,
      "uthor": 1612,
      "rick": 1613,
      "vers": 1614,
      "ature": 1615,
      "med": 1616,
      "Ġcol": 1617,
      "idd": 1618,
      "ison": 1619,
      "Ġtook": 1620,
      "Al": 1621,
      "ĠLondon": 1622,
      "Ġhel": 1623,
      "ration": 1624,
      "ĠComp": 1625,
      "adio": 1626,
      "Ġcolle": 1627,
      "Ġpublished": 1628,
      "ĠAng": 1629,
      "Ġaround": 1630,
      "Ġ11": 1631,
      "âĢĻ": 1632,
      "sc": 1633,
      "Ġtelevision": 1634,
      "Ġ190": 1635,
      "ĠHowever": 1636,
      "ĠDistrict": 1637,
      "Ġleg": 1638,
      "Ġhistory": 1639,
      "ĠAfric": 1640,
      "ara": 1641,
      "day": 1642,
      "Ġprofess": 1643,
      "Ġgeneral": 1644,
      "ĠRuss": 1645,
      "iforn": 1646,
      "ified": 1647,
      "attle": 1648,
      "ĠCor": 1649,
      "omin": 1650,
      "hem": 1651,
      "ĠSec": 1652,
      "Ġpo": 1653,
      "ĠFrench": 1654,
      "aus": 1655,
      "50": 1656,
      "ief": 1657,
      "ink": 1658,
      "Ġborn": 1659,
      "ifornia": 1660,
      "Ġdue": 1661,
      "ĠTr": 1662,
      "iod": 1663,
      "Ġeduc": 1664,
      "yp": 1665,
      "ĠDep": 1666,
      "ĠRiver": 1667,
      "ization": 1668,
      "Ġep": 1669,
      "Ġleft": 1670,
      "ruct": 1671,
      "Ġjoin": 1672,
      "Ġold": 1673,
      "umb": 1674,
      "Ġred": 1675,
      "Ġcamp": 1676,
      "Ġevent": 1677,
      "ideo": 1678,
      "aim": 1679,
      "akes": 1680,
      "ĠChampionship": 1681,
      "ouncil": 1682,
      "ĠPhil": 1683,
      "to": 1684,
      "ones": 1685,
      "iven": 1686,
      "ording": 1687,
      "Ġshort": 1688,
      "ĠHer": 1689,
      "alk": 1690,
      "Ã³": 1691,
      "ution": 1692,
      "ĠâĢĶ": 1693,
      "Ġwithin": 1694,
      "though": 1695,
      "Un": 1696,
      "Ġpresent": 1697,
      "History": 1698,
      "umn": 1699,
      "Ġ2011": 1700,
      "ĠItal": 1701,
      "Ġfive": 1702,
      "Ġ2000": 1703,
      "Ġdiffer": 1704,
      "Ġbuilding": 1705,
      "Ġalign": 1706,
      "sk": 1707,
      "ĠCalifornia": 1708,
      "ĠEngland": 1709,
      "Ġinclude": 1710,
      "194": 1711,
      "Ġ2003": 1712,
      "uf": 1713,
      "anguage": 1714,
      "van": 1715,
      "Ġday": 1716,
      "earch": 1717,
      "Ġtop": 1718,
      "ĠSan": 1719,
      "ĠRes": 1720,
      "Ġapp": 1721,
      "Ġbook": 1722,
      "reg": 1723,
      "ald": 1724,
      "ours": 1725,
      "Ġbecause": 1726,
      "omb": 1727,
      "Ġdet": 1728,
      "let": 1729,
      "Ġrequ": 1730,
      "Ġlike": 1731,
      "ummer": 1732,
      "Ġorder": 1733,
      "Ġwomen": 1734,
      "Ġref": 1735,
      "Ġvillage": 1736,
      "ĠMich": 1737,
      "hern": 1738,
      "Ġdeb": 1739,
      "Ġdied": 1740,
      "Ġsouth": 1741,
      "Ġ189": 1742,
      "Ġstand": 1743,
      "Ġreceived": 1744,
      "ument": 1745,
      "inning": 1746,
      "Ġdistrict": 1747,
      "Ġadm": 1748,
      "urther": 1749,
      "Ġav": 1750,
      "Ġjust": 1751,
      "Ġlarge": 1752,
      "ĠIndian": 1753,
      "Ã¼": 1754,
      "ene": 1755,
      "ĠIsland": 1756,
      "ĠĊĠĊ": 1757,
      "ler": 1758,
      "ference": 1759,
      "Ġconsid": 1760,
      "ries": 1761,
      "Ġ30": 1762,
      "Ġsk": 1763,
      "ÃŃ": 1764,
      "ĠInternational": 1765,
      "Ġpower": 1766,
      ".,": 1767,
      "Ġincluded": 1768,
      "eek": 1769,
      "yd": 1770,
      "arried": 1771,
      "ining": 1772,
      "Ġmark": 1773,
      "tain": 1774,
      "ases": 1775,
      "riend": 1776,
      "Ġsl": 1777,
      "co": 1778,
      "ether": 1779,
      "olic": 1780,
      "ively": 1781,
      "Ġthird": 1782,
      "Ġallow": 1783,
      "dom": 1784,
      "Ġpopulation": 1785,
      "ĠGl": 1786,
      "ody": 1787,
      "ves": 1788,
      "Ġla": 1789,
      "Ġ$": 1790,
      "ĠAustralia": 1791,
      "Ġresult": 1792,
      "oyal": 1793,
      "Ġstr": 1794,
      "uman": 1795,
      "ĠAg": 1796,
      "Ġcurr": 1797,
      "Ġsix": 1798,
      "vious": 1799,
      "oon": 1800,
      "oph": 1801,
      "Ġappear": 1802,
      "orthern": 1803,
      "lin": 1804,
      "Ġrepl": 1805,
      "onth": 1806,
      "Ġwar": 1807,
      "ering": 1808,
      "ama": 1809,
      "Ġwater": 1810,
      "Ġlarg": 1811,
      "itar": 1812,
      "useum": 1813,
      "Ġpost": 1814,
      "Ġ2001": 1815,
      "ocial": 1816,
      "field": 1817,
      "ency": 1818,
      "Ġdifferent": 1819,
      "tal": 1820,
      "Ġ2002": 1821,
      "ele": 1822,
      "Ġdem": 1823,
      "Ġsaid": 1824,
      "ĠChurch": 1825,
      "aff": 1826,
      "Ġson": 1827,
      "Ġiss": 1828,
      "Ġcor": 1829,
      "ĠThere": 1830,
      "Ġperiod": 1831,
      "Ġservice": 1832,
      "23": 1833,
      "Ġtrad": 1834,
      "Ġrefer": 1835,
      "ĠEast": 1836,
      "Ġ2012": 1837,
      "Ġstill": 1838,
      "ĠArmy": 1839,
      "195": 1840,
      "Ġperform": 1841,
      "Ġ,": 1842,
      "Ġaddition": 1843,
      "conom": 1844,
      "Ġarr": 1845,
      "Ġ25": 1846,
      "cer": 1847,
      "osp": 1848,
      "ĠOlymp": 1849,
      "An": 1850,
      "Ġcr": 1851,
      "ĠPer": 1852,
      "ĠSch": 1853,
      "ĠAc": 1854,
      "ship": 1855,
      "ael": 1856,
      "arch": 1857,
      "Ġstat": 1858,
      "Ġestablish": 1859,
      "Ġrepresent": 1860,
      "Ġdescrib": 1861,
      "Ġincre": 1862,
      "Ġanother": 1863,
      "ociety": 1864,
      "Ġvis": 1865,
      "ense": 1866,
      "Ġhouse": 1867,
      "gin": 1868,
      "unicip": 1869,
      "Ġresp": 1870,
      "iter": 1871,
      "Ġif": 1872,
      "Ġarch": 1873,
      "Ġequ": 1874,
      "ĠTra": 1875,
      "Ġcountry": 1876,
      "alt": 1877,
      "Ġkill": 1878,
      "Ġ0": 1879,
      "193": 1880,
      "Ġmoved": 1881,
      "Ġfield": 1882,
      "cast": 1883,
      "ront": 1884,
      "Ġchildren": 1885,
      "People": 1886,
      "ridge": 1887,
      "bert": 1888,
      "alf": 1889,
      "ĠSm": 1890,
      "oard": 1891,
      "ĠRoman": 1892,
      "Ġvery": 1893,
      "Ġfac": 1894,
      "Ġauthor": 1895,
      "Ġcharacter": 1896,
      "line": 1897,
      "Ġ24": 1898,
      "Ġweb": 1899,
      "epend": 1900,
      "Ġnon": 1901,
      "ched": 1902,
      "Ġrail": 1903,
      "Ġexpl": 1904,
      "Ġside": 1905,
      "Ġled": 1906,
      "Ġreport": 1907,
      "ops": 1908,
      "Ġhand": 1909,
      "Ġbest": 1910,
      "work": 1911,
      "ander": 1912,
      "ĠArt": 1913,
      "Ġsold": 1914,
      "ister": 1915,
      "Ġ188": 1916,
      "ĠAct": 1917,
      "na": 1918,
      "urs": 1919,
      "Ġcompos": 1920,
      "ush": 1921,
      "oe": 1922,
      "Ġnov": 1923,
      "ivil": 1924,
      "Ġbusiness": 1925,
      "center": 1926,
      "ady": 1927,
      "ĠAward": 1928,
      "avy": 1929,
      "ness": 1930,
      "ĠDivision": 1931,
      "ĠStreet": 1932,
      "lex": 1933,
      "astern": 1934,
      "Ġmale": 1935,
      "ested": 1936,
      "ĠPort": 1937,
      "ex": 1938,
      "ville": 1939,
      "ges": 1940,
      "ĠCanada": 1941,
      "Ġconstru": 1942,
      "acks": 1943,
      "irl": 1944,
      "uel": 1945,
      "off": 1946,
      "era": 1947,
      "Ġhistor": 1948,
      "Ġoften": 1949,
      "ius": 1950,
      "ms": 1951,
      "ĠMor": 1952,
      "site": 1953,
      "ĠAp": 1954,
      "Ġdeaths": 1955,
      "ĠParty": 1956,
      "ote": 1957,
      "ĠQu": 1958,
      "of": 1959,
      "Ġlevel": 1960,
      "Ġthough": 1961,
      "ĠAmer": 1962,
      "Ġexper": 1963,
      "ĠRober": 1964,
      "ĠThom": 1965,
      "formation": 1966,
      "ipp": 1967,
      "otes": 1968,
      "iment": 1969,
      "Ġwin": 1970,
      "app": 1971,
      "Ġcrit": 1972,
      "Ġel": 1973,
      "ĠJames": 1974,
      "eal": 1975,
      "ests": 1976,
      "Ġmag": 1977,
      "Ġactiv": 1978,
      "Ġ2013": 1979,
      "Ġsite": 1980,
      "Ġthose": 1981,
      "Ġtri": 1982,
      "Ġdel": 1983,
      "Ġclos": 1984,
      "ĠGeorge": 1985,
      "Ġproduced": 1986,
      "ĠRed": 1987,
      "Ġproject": 1988,
      "Ġfather": 1989,
      "Ġtechn": 1990,
      "Ġpat": 1991,
      "ney": 1992,
      "irc": 1993,
      "Ġlate": 1994,
      "ico": 1995,
      "right": 1996,
      "Ġversion": 1997,
      "ament": 1998,
      "Ġeven": 1999,
      "Ġport": 2000,
      "Ġaff": 2001,
      "Ġturn": 2002,
      "Ġcult": 2003,
      "Ġsett": 2004,
      "Ġcover": 2005,
      "ĠLou": 2006,
      "Ġamong": 2007,
      "ĠEm": 2008,
      "ĠAustralian": 2009,
      "ories": 2010,
      "ĠNor": 2011,
      "ilar": 2012,
      "ĠBel": 2013,
      "anish": 2014,
      "ĠPaul": 2015,
      "Ġstyle": 2016,
      "ĠVal": 2017,
      "ĠBra": 2018,
      "Ġprevious": 2019,
      "ĠDavid": 2020,
      "oute": 2021,
      "Ġwritten": 2022,
      "ize": 2023,
      "ĠLa": 2024,
      "Ġspe": 2025,
      "Ġinternational": 2026,
      "ploy": 2027,
      "ape": 2028,
      "Living": 2029,
      "Ġepis": 2030,
      "Ġmake": 2031,
      "Ġcame": 2032,
      "Ġposs": 2033,
      "thern": 2034,
      "ript": 2035,
      "Ġchang": 2036,
      "Ġes": 2037,
      "Ġmonth": 2038,
      "ĠPal": 2039,
      "Ġimport": 2040,
      "ĠFrance": 2041,
      "Ġround": 2042,
      "Ġ2014": 2043,
      "Ġinvol": 2044,
      "ĠOne": 2045,
      "ged": 2046,
      "col": 2047,
      "Ġsol": 2048,
      "ĠHol": 2049,
      "ĠAssociation": 2050,
      "Ġ1999": 2051,
      "ĠTown": 2052,
      "omm": 2053,
      "Ġeffect": 2054,
      "Ġwhat": 2055,
      "outhern": 2056,
      "Ġstruct": 2057,
      "reek": 2058,
      "Ġopened": 2059,
      "ournal": 2060,
      "ground": 2061,
      "omet": 2062,
      "lect": 2063,
      "Ġstudents": 2064,
      "Ġrole": 2065,
      "ago": 2066,
      "ounced": 2067,
      "Ġofficial": 2068,
      "forman": 2069,
      "iber": 2070,
      "ĠRich": 2071,
      "Ġwent": 2072,
      "Ġengine": 2073,
      "bor": 2074,
      "ean": 2075,
      "Ġbre": 2076,
      "Ġvoc": 2077,
      "ĠCath": 2078,
      "ots": 2079,
      "Ã¶": 2080,
      "BC": 2081,
      "Ġval": 2082,
      "Ġ186": 2083,
      "Ġsw": 2084,
      "Ġcommon": 2085,
      "Ġship": 2086,
      "itor": 2087,
      "ning": 2088,
      "ĠQue": 2089,
      "stitute": 2090,
      "Ġgiven": 2091,
      "Ġmuch": 2092,
      "rote": 2093,
      "ole": 2094,
      "'t": 2095,
      "abor": 2096,
      "odes": 2097,
      "ĠMon": 2098,
      "asket": 2099,
      "Ġalbums": 2100,
      "urb": 2101,
      "ĠIndia": 2102,
      "ĠAmerica": 2103,
      "iron": 2104,
      "Ġprocess": 2105,
      "Ġaward": 2106,
      "ĠCourt": 2107,
      "Ġworks": 2108,
      "Ġfe": 2109,
      "Ġ21": 2110,
      "ĠRoad": 2111,
      "ĠBy": 2112,
      "ĠDepartment": 2113,
      "eration": 2114,
      "Ġyoung": 2115,
      "Ġneed": 2116,
      "ari": 2117,
      "Ġage": 2118,
      "val": 2119,
      "Ġconc": 2120,
      "Ġfact": 2121,
      "Ġcommunity": 2122,
      "ĠâĢ": 2123,
      "ĠGr": 2124,
      "Ġpe": 2125,
      "Ġpres": 2126,
      "ĠRecords": 2127,
      "Ġbecome": 2128,
      "men": 2129,
      "Ġfre": 2130,
      "Ġ2015": 2131,
      "iol": 2132,
      "Ġ23": 2133,
      "ashington": 2134,
      "Ġmillion": 2135,
      "hers": 2136,
      "Ġspecies": 2137,
      "iction": 2138,
      "ittle": 2139,
      "Ġ1990": 2140,
      "ope": 2141,
      "Ġinit": 2142,
      "Ġstarted": 2143,
      "ĠGermany": 2144,
      "ached": 2145,
      ",\"": 2146,
      "Ġvarious": 2147,
      "ĠRail": 2148,
      "ĠCouncil": 2149,
      "Ġgrad": 2150,
      "Ġdevelopment": 2151,
      "ĠHall": 2152,
      "ĠVir": 2153,
      "ĠGeneral": 2154,
      "ĠEuropean": 2155,
      "Ġpolitic": 2156,
      "Ġ187": 2157,
      "Ġprote": 2158,
      "ators": 2159,
      "ĠRoyal": 2160,
      "Ġ1998": 2161,
      "ĠDes": 2162,
      "Ġ22": 2163,
      "Ġtw": 2164,
      "ream": 2165,
      "rack": 2166,
      "Ġintro": 2167,
      "Ġgr": 2168,
      "ming": 2169,
      "Ġvol": 2170,
      "self": 2171,
      "Ġhaving": 2172,
      "ĠMal": 2173,
      "posed": 2174,
      "hel": 2175,
      "ĠNe": 2176,
      "ena": 2177,
      "rag": 2178,
      "ĠRev": 2179,
      "Ġsit": 2180,
      "Ġadv": 2181,
      "ĠMary": 2182,
      "oor": 2183,
      "gy": 2184,
      "Ġstations": 2185,
      "ti": 2186,
      "erb": 2187,
      "Ġspecial": 2188,
      "ĠMinist": 2189,
      "Ġvideo": 2190,
      "ellow": 2191,
      "ida": 2192,
      "itect": 2193,
      "Ġmilitary": 2194,
      "ological": 2195,
      "rap": 2196,
      "ij": 2197,
      "Ġusing": 2198,
      "Ġdirect": 2199,
      "Ġelect": 2200,
      "ĠDr": 2201,
      "ĠFl": 2202,
      "ĠUnion": 2203,
      "Ġnext": 2204,
      "Ġproduction": 2205,
      "Ġread": 2206,
      "ha": 2207,
      "Ġclaim": 2208,
      "arl": 2209,
      "Ġcreated": 2210,
      "Ġreturned": 2211,
      "Ġ2016": 2212,
      "ĠSen": 2213,
      "Ġevery": 2214,
      "ĠMont": 2215,
      "Ġhost": 2216,
      "ĠKingdom": 2217,
      "Ġbeg": 2218,
      "Ġfew": 2219,
      "Ġyou": 2220,
      "quad": 2221,
      "\":": 2222,
      "Ġcoach": 2223,
      "asketball": 2224,
      "uation": 2225,
      "ination": 2226,
      "ead": 2227,
      "eh": 2228,
      "Ġ26": 2229,
      "ston": 2230,
      "Ġtem": 2231,
      "Ġdebut": 2232,
      "As": 2233,
      "aken": 2234,
      "Ġpopular": 2235,
      "ĠJos": 2236,
      "wood": 2237,
      "Ġsent": 2238,
      "ĠStud": 2239,
      "30": 2240,
      "raw": 2241,
      "Ġsongs": 2242,
      "ĠÃ": 2243,
      "Ġtake": 2244,
      "Ġway": 2245,
      "ĠProv": 2246,
      "Ġprim": 2247,
      "ya": 2248,
      "umni": 2249,
      "nect": 2250,
      "ogn": 2251,
      "ute": 2252,
      "ivid": 2253,
      "Ġpract": 2254,
      "lands": 2255,
      "Pl": 2256,
      "ills": 2257,
      "ĠMusic": 2258,
      "ointed": 2259,
      "ĠPat": 2260,
      "ĠCompany": 2261,
      "arly": 2262,
      "Ġhowever": 2263,
      "ĠBer": 2264,
      "ĠClub": 2265,
      "olution": 2266,
      "Ġbroad": 2267,
      "ources": 2268,
      "After": 2269,
      "Ġconf": 2270,
      "Ġpolitical": 2271,
      "berg": 2272,
      "Ġschools": 2273,
      "Ġfun": 2274,
      "iers": 2275,
      "ention": 2276,
      "Ġgreat": 2277,
      "Ġannounced": 2278,
      "sequ": 2279,
      "Ġpri": 2280,
      "iddle": 2281,
      "itz": 2282,
      "Ġtotal": 2283,
      "ances": 2284,
      "Ġtimes": 2285,
      "Ġprofessional": 2286,
      "aseball": 2287,
      "Ġhig": 2288,
      "Ġ27": 2289,
      "ĠMart": 2290,
      "ma": 2291,
      "li": 2292,
      "Ġinf": 2293,
      "ibr": 2294,
      "ĠMag": 2295,
      "Ġstory": 2296,
      "Ġguitar": 2297,
      "atch": 2298,
      "iles": 2299,
      "unt": 2300,
      "Ġ28": 2301,
      "ĠWashington": 2302,
      "anies": 2303,
      "Ġ1980": 2304,
      "Ġleague": 2305,
      "ĠLaw": 2306,
      "ĠBlack": 2307,
      "Ġbeh": 2308,
      "ĠAcadem": 2309,
      "rug": 2310,
      "ĠHen": 2311,
      "align": 2312,
      "Ġroad": 2313,
      "Ġposition": 2314,
      "Ġter": 2315,
      "Ġareas": 2316,
      "Ġcomb": 2317,
      "itte": 2318,
      "Ġren": 2319,
      "Ġ[": 2320,
      "ĠGroup": 2321,
      "Ġjoined": 2322,
      "Ġ2017": 2323,
      "Ġsimilar": 2324,
      "ĠDuring": 2325,
      "ĠWhen": 2326,
      "ĠFootball": 2327,
      "Ġelection": 2328,
      "uit": 2329,
      "CA": 2330,
      "ults": 2331,
      "Ġwebsite": 2332,
      "Ġfull": 2333,
      "Ġadminist": 2334,
      "ample": 2335,
      "flu": 2336,
      "reland": 2337,
      "ĠHistor": 2338,
      "Ġfriend": 2339,
      "Ġperforman": 2340,
      "Ġmarried": 2341,
      "ĠArch": 2342,
      "ĠCatholic": 2343,
      "Ġgl": 2344,
      "ishing": 2345,
      "rab": 2346,
      "ĠBu": 2347,
      "rated": 2348,
      "ĠPress": 2349,
      "istan": 2350,
      "Ġteams": 2351,
      "ĠPresident": 2352,
      "ĠCanadian": 2353,
      "Ġwithout": 2354,
      "ĠThese": 2355,
      "craft": 2356,
      "rain": 2357,
      "now": 2358,
      "ĠMount": 2359,
      "Ġsee": 2360,
      "aining": 2361,
      "Ġcontrol": 2362,
      "ĠFirst": 2363,
      "ĠCenter": 2364,
      "Ġfind": 2365,
      "ĠFlor": 2366,
      "year": 2367,
      "Ġworked": 2368,
      "oints": 2369,
      "Ġattem": 2370,
      "Ġgroups": 2371,
      "Ġimp": 2372,
      "ĠAngel": 2373,
      "nel": 2374,
      "Ġregion": 2375,
      "atter": 2376,
      "Ġ2018": 2377,
      "ĠRobert": 2378,
      "etwork": 2379,
      "Ġbrother": 2380,
      "Ġpresident": 2381,
      "ĠDem": 2382,
      "Ġtour": 2383,
      "eph": 2384,
      "ĠGreat": 2385,
      "rd": 2386,
      "ecut": 2387,
      "ways": 2388,
      "Ġcontinued": 2389,
      "25": 2390,
      "ule": 2391,
      "Pro": 2392,
      "ising": 2393,
      "Ġmult": 2394,
      "Ġlim": 2395,
      "oks": 2396,
      "olit": 2397,
      "Ġbas": 2398,
      "Ġdest": 2399,
      "ĠSociety": 2400,
      "Ġpoint": 2401,
      "Ġdirector": 2402,
      "burg": 2403,
      "Ġchurch": 2404,
      "back": 2405,
      "Ġdescribed": 2406,
      "Ġ1996": 2407,
      "ĠServ": 2408,
      "Ġattack": 2409,
      "ype": 2410,
      "Ġwrote": 2411,
      "ĠDon": 2412,
      "ĠMiss": 2413,
      "Ġ1997": 2414,
      "aughter": 2415,
      "ĠLouis": 2416,
      "ĠBay": 2417,
      "Ġlost": 2418,
      "Ġright": 2419,
      "ĠTV": 2420,
      "ĠThomas": 2421,
      "apt": 2422,
      "Ġmatch": 2423,
      "Ġtrack": 2424,
      "Ġfounded": 2425,
      "Ġeducation": 2426,
      "Ġindust": 2427,
      "ĠSk": 2428,
      "Ġproper": 2429,
      "less": 2430,
      "ona": 2431,
      "Ġpriv": 2432,
      "ells": 2433,
      "Ġhalf": 2434,
      "Ġhon": 2435,
      "mar": 2436,
      "ying": 2437,
      "ĠSl": 2438,
      "acy": 2439,
      "Ġrelations": 2440,
      "Ġ100": 2441,
      "Ġmunicip": 2442,
      "ending": 2443,
      "ĠCong": 2444,
      "Ġeast": 2445,
      "ugg": 2446,
      "ĠGreen": 2447,
      "Ġrecorded": 2448,
      "ividual": 2449,
      "Ġmiss": 2450,
      "wh": 2451,
      "ĠScott": 2452,
      "ĠPri": 2453,
      "asons": 2454,
      "de": 2455,
      "ensive": 2456,
      "ĠTex": 2457,
      "ĠWe": 2458,
      "ĠChe": 2459,
      "Ġconsidered": 2460,
      "ĠVirgin": 2461,
      "ĠSal": 2462,
      "ĠKh": 2463,
      "Ġident": 2464,
      "atural": 2465,
      "Ġ2019": 2466,
      "It": 2467,
      "ocr": 2468,
      "Ġappeared": 2469,
      "ka": 2470,
      "hib": 2471,
      "idence": 2472,
      "oul": 2473,
      "cks": 2474,
      "aign": 2475,
      "ili": 2476,
      "used": 2477,
      "Ġ1970": 2478,
      "Ġcompleted": 2479,
      "urk": 2480,
      "duced": 2481,
      "Ġreal": 2482,
      "Ġeconom": 2483,
      "me": 2484,
      "Ġcaus": 2485,
      "Cl": 2486,
      "aper": 2487,
      "Ġhelp": 2488,
      "ĠMex": 2489,
      "ĠMad": 2490,
      "estival": 2491,
      "Ġ=": 2492,
      "ĠJew": 2493,
      "ĠWith": 2494,
      "Ġradio": 2495,
      "Ġevents": 2496,
      "Ġmid": 2497,
      "ĠAcc": 2498,
      "ĠIr": 2499,
      "ictor": 2500,
      "Film": 2501,
      "ĠCharles": 2502,
      "ĠSam": 2503,
      "ume": 2504,
      "ĠCentral": 2505,
      "usical": 2506,
      "Ġelected": 2507,
      "atre": 2508,
      "Ġ29": 2509,
      "ĠMy": 2510,
      "ĠYou": 2511,
      "iament": 2512,
      "ĠFranc": 2513,
      "Ġparticip": 2514,
      "Ġdays": 2515,
      "...": 2516,
      "Ġsigned": 2517,
      "ĠAcademy": 2518,
      "Ġoffer": 2519,
      "ĠAlex": 2520,
      "ĠWestern": 2521,
      "ĠZeal": 2522,
      "lear": 2523,
      "ĠMass": 2524,
      "Ġavail": 2525,
      "Ġservices": 2526,
      "ĠChina": 2527,
      "Ġimportant": 2528,
      "lo": 2529,
      "Ġfurther": 2530,
      "Ġformed": 2531,
      "Ġten": 2532,
      "ĠOrder": 2533,
      "24": 2534,
      "imately": 2535,
      "ĠChristian": 2536,
      "Ġrock": 2537,
      "Ġsurv": 2538,
      "ĠWil": 2539,
      "gar": 2540,
      "Ġwest": 2541,
      "ĠMichael": 2542,
      "ĠZealand": 2543,
      "Ġhold": 2544,
      "ĠTrans": 2545,
      "ither": 2546,
      "Ġcase": 2547,
      "ĠJapanese": 2548,
      "ĠIreland": 2549,
      "ĠHistory": 2550,
      "):": 2551,
      "iff": 2552,
      "Ġdeveloped": 2553,
      "roll": 2554,
      "Ġnovel": 2555,
      "ĠOp": 2556,
      "ĠBen": 2557,
      "Ġlanguage": 2558,
      "ĠBest": 2559,
      "olf": 2560,
      "Ġlive": 2561,
      "ĠGrand": 2562,
      "ades": 2563,
      "atives": 2564,
      "ification": 2565,
      "arter": 2566,
      "enc": 2567,
      "Ġresearch": 2568,
      "Ġdi": 2569,
      "Ġdiv": 2570,
      "Ġ1995": 2571,
      "ĠPe": 2572,
      "Ġ2020": 2573,
      "Ġassist": 2574,
      "ably": 2575,
      "ittee": 2576,
      "here": 2577,
      "ĠInstitute": 2578,
      "alls": 2579,
      "ership": 2580,
      "ederal": 2581,
      "Ġappointed": 2582,
      "Ġdoes": 2583,
      "Ġins": 2584,
      "liament": 2585,
      "Ġwife": 2586,
      "Ġcross": 2587,
      "bour": 2588,
      "udd": 2589,
      "time": 2590,
      "Ġgood": 2591,
      "Ġ1994": 2592,
      "Ġinvest": 2593,
      "itional": 2594,
      "Ġ#": 2595,
      "ĠSing": 2596,
      "New": 2597,
      "ĠMark": 2598,
      "Ġaut": 2599,
      "omp": 2600,
      "ota": 2601,
      "ĠSim": 2602,
      "Ġview": 2603,
      "ockey": 2604,
      "ertain": 2605,
      "Ġsports": 2606,
      "ishop": 2607,
      "Ġalumni": 2608,
      "aker": 2609,
      "Ġpoints": 2610,
      "itted": 2611,
      "Ġvict": 2612,
      "Eng": 2613,
      "Ġplaying": 2614,
      "uter": 2615,
      "Ġcond": 2616,
      "Ġfem": 2617,
      "ĠGold": 2618,
      "Ġappl": 2619,
      "isl": 2620,
      "Ġshould": 2621,
      "ĠTexas": 2622,
      "azine": 2623,
      "iting": 2624,
      "ini": 2625,
      "ĠCarol": 2626,
      "Ġless": 2627,
      "Ġtyp": 2628,
      "ateg": 2629,
      "rael": 2630,
      "aries": 2631,
      "ĠCap": 2632,
      "Ġhimself": 2633,
      "Ġrelease": 2634,
      "oted": 2635,
      "40": 2636,
      "viron": 2637,
      "ump": 2638,
      "ĠMet": 2639,
      "Ġfail": 2640,
      "Ġinflu": 2641,
      "Ġparticular": 2642,
      "Ġweek": 2643,
      "Ġground": 2644,
      "be": 2645,
      "leg": 2646,
      "Ġsocial": 2647,
      "Ġestablishments": 2648,
      "ĠTer": 2649,
      "rig": 2650,
      "Ġmeet": 2651,
      "aged": 2652,
      "Ġ1992": 2653,
      "Ġz": 2654,
      "west": 2655,
      "Sh": 2656,
      "Ġindepend": 2657,
      "ĠYear": 2658,
      "color": 2659,
      "âĢĿ": 2660,
      "Ġmaking": 2661,
      "ĠVol": 2662,
      "ĠMer": 2663,
      "ĠItalian": 2664,
      "Ġfree": 2665,
      "Ġrul": 2666,
      "Ġdeg": 2667,
      "ĠFilm": 2668,
      "ĠOlympics": 2669,
      "ĠUK": 2670,
      "Ġcoll": 2671,
      "Ġgrow": 2672,
      "anding": 2673,
      "inese": 2674,
      "ĠTor": 2675,
      "Ġ()": 2676,
      "ger": 2677,
      "Ġexample": 2678,
      "Ġavailable": 2679,
      "Ġmater": 2680,
      "most": 2681,
      "ĠMuseum": 2682,
      "\"|": 2683,
      "ĠIll": 2684,
      "go": 2685,
      "yr": 2686,
      "itive": 2687,
      "Ġanim": 2688,
      "aying": 2689,
      "ĠMac": 2690,
      "Ġmodern": 2691,
      "Ġbecom": 2692,
      "Ġoffice": 2693,
      "Ġcompanies": 2694,
      "Ġdoc": 2695,
      "ĠDan": 2696,
      "Ġ/": 2697,
      "Ġothers": 2698,
      "Ġnever": 2699,
      "ilities": 2700,
      "ĠAfrican": 2701,
      "ĠPeter": 2702,
      "Ġexist": 2703,
      "rown": 2704,
      "ĠFrank": 2705,
      "ĠTom": 2706,
      "Ġrev": 2707,
      "Ġhuman": 2708,
      "ĠIm": 2709,
      "atri": 2710,
      "itch": 2711,
      "pite": 2712,
      "ĠBill": 2713,
      "cle": 2714,
      "ado": 2715,
      "Ġtog": 2716,
      "Ġfund": 2717,
      "Ġet": 2718,
      "Ġbody": 2719,
      "rey": 2720,
      "Ġdirected": 2721,
      "anted": 2722,
      "oice": 2723,
      "Ġsepar": 2724,
      "edy": 2725,
      "Ġstar": 2726,
      "Ġtogether": 2727,
      "Ġ1993": 2728,
      "ceed": 2729,
      "Ġmot": 2730,
      "Ġdecl": 2731,
      "ĠRepublic": 2732,
      "ĠUp": 2733,
      "Ġindividual": 2734,
      "ethod": 2735,
      "roy": 2736,
      "Ġhous": 2737,
      "Ġemploy": 2738,
      "ude": 2739,
      "Ġacross": 2740,
      "ducation": 2741,
      "Ġcour": 2742,
      "unk": 2743,
      "ula": 2744,
      "ique": 2745,
      "Ġrecogn": 2746,
      "Ġinformation": 2747,
      "istic": 2748,
      "Ġvocals": 2749,
      "Ġcast": 2750,
      "....": 2751,
      "Ġlow": 2752,
      "ĠLu": 2753,
      "Ġ1960": 2754,
      "aut": 2755,
      "Ġsuccessful": 2756,
      "Ġ185": 2757,
      "Ġworking": 2758,
      "ulated": 2759,
      "Ġ50": 2760,
      "ĠGames": 2761,
      "ements": 2762,
      "Ġphys": 2763,
      "ĠRock": 2764,
      "Ġrace": 2765,
      "ros": 2766,
      "ada": 2767,
      "Ġalthough": 2768,
      "iding": 2769,
      "Ġreview": 2770,
      "ĠFrom": 2771,
      "ĠForce": 2772,
      "ĠLake": 2773,
      "Ġfire": 2774,
      "gress": 2775,
      "Ġlo": 2776,
      "Ġbelie": 2777,
      "icago": 2778,
      "Ġphot": 2779,
      "ĠAfrica": 2780,
      "ranch": 2781,
      "Ġbi": 2782,
      "band": 2783,
      "atory": 2784,
      "Ġarchitect": 2785,
      "ĠRichard": 2786,
      "igned": 2787,
      "Ġcontribut": 2788,
      "aves": 2789,
      "rest": 2790,
      "ĠOh": 2791,
      "hood": 2792,
      "ani": 2793,
      "ids": 2794,
      "ĠMel": 2795,
      "ournament": 2796,
      "Ġ1991": 2797,
      "Åį": 2798,
      "De": 2799,
      "Ġmother": 2800,
      "Ġacqu": 2801,
      "cial": 2802,
      "FL": 2803,
      "writ": 2804,
      "Ġcondu": 2805,
      "ĠDay": 2806,
      "emor": 2807,
      "ĠPenn": 2808,
      "fficial": 2809,
      "ĠInter": 2810,
      "Ġepisode": 2811,
      "tar": 2812,
      "Ġbooks": 2813,
      "Ġaver": 2814,
      "Ġviol": 2815,
      "ĠRussian": 2816,
      "II": 2817,
      "ĠHam": 2818,
      "vironment": 2819,
      "For": 2820,
      "rel": 2821,
      "Ġeight": 2822,
      "oys": 2823,
      "Ġlaun": 2824,
      "Ġperformed": 2825,
      "Ġhow": 2826,
      "ĠDel": 2827,
      "ĠHill": 2828,
      "Ġbuildings": 2829,
      "Ġlight": 2830,
      "ential": 2831,
      "hi": 2832,
      "Ġder": 2833,
      "anta": 2834,
      "head": 2835,
      "Ġblack": 2836,
      "ought": 2837,
      "Ġoriginally": 2838,
      "ĠSmith": 2839,
      "Ġcurrent": 2840,
      "ĠLos": 2841,
      "ala": 2842,
      "ĠPet": 2843,
      "ibrary": 2844,
      "ospital": 2845,
      "Ġconstruction": 2846,
      "27": 2847,
      "eck": 2848,
      "Ġonce": 2849,
      "26": 2850,
      "uated": 2851,
      "Ġbar": 2852,
      "Ġstrong": 2853,
      "Ġassoci": 2854,
      "ĠWhite": 2855,
      "overnor": 2856,
      "TV": 2857,
      "chie": 2858,
      "aches": 2859,
      "Ġdaughter": 2860,
      "Ġparty": 2861,
      "ĠVirginia": 2862,
      "Ġmedal": 2863,
      "Ġcontract": 2864,
      "Ġreported": 2865,
      "ĠHenry": 2866,
      "ĠLeg": 2867,
      "List": 2868,
      "ĠBrown": 2869,
      "utch": 2870,
      "28": 2871,
      "sy": 2872,
      "aval": 2873,
      "ĠRh": 2874,
      "Ġrailway": 2875,
      "Ġmar": 2876,
      "Ġaway": 2877,
      "Ġfootballers": 2878,
      "Ġplan": 2879,
      "Ġtaken": 2880,
      "Ġrelig": 2881,
      "Ġdev": 2882,
      "ees": 2883,
      "Sc": 2884,
      "oviet": 2885,
      "gen": 2886,
      "uff": 2887,
      "ria": 2888,
      "Ã¤": 2889,
      "oms": 2890,
      "ĠRob": 2891,
      "ror": 2892,
      "Ġincludes": 2893,
      "Ġaccess": 2894,
      "ĠSpanish": 2895,
      "Ġplaces": 2896,
      "Ġcost": 2897,
      "Ġfight": 2898,
      "elling": 2899,
      "Ġsound": 2900,
      "ĠCamp": 2901,
      "road": 2902,
      "ams": 2903,
      "ĠSuper": 2904,
      "Ġmonths": 2905,
      "ĠVictor": 2906,
      "iation": 2907,
      "ĠâĢľ": 2908,
      "Ġfollowed": 2909,
      "Ġ2021": 2910,
      "lement": 2911,
      "Ġlab": 2912,
      "imate": 2913,
      "oz": 2914,
      "Ġcampaign": 2915,
      "aps": 2916,
      "Ġfront": 2917,
      "ificant": 2918,
      "This": 2919,
      "Ġput": 2920,
      "ĠSummer": 2921,
      "incip": 2922,
      "airs": 2923,
      "At": 2924,
      "Ġinj": 2925,
      "Ġgoal": 2926,
      "ayer": 2927,
      "Ġmarket": 2928,
      "Ġaircraft": 2929,
      "eep": 2930,
      "ein": 2931,
      "ender": 2932,
      "Ġagre": 2933,
      "Ġcharacters": 2934,
      "och": 2935,
      "Ġattempt": 2936,
      "erous": 2937,
      "ception": 2938,
      "Ġmust": 2939,
      "Ġmaterial": 2940,
      "Ġfeatures": 2941,
      "igan": 2942,
      "aching": 2943,
      "Ġpolitician": 2944,
      "cts": 2945,
      "ĠWin": 2946,
      "29": 2947,
      "ĠKn": 2948,
      "Ġbasketball": 2949,
      "Ġkilled": 2950,
      "oma": 2951,
      "duction": 2952,
      "asc": 2953,
      "sec": 2954,
      "Ġtraining": 2955,
      "Ġimpro": 2956,
      "atin": 2957,
      "Ġregular": 2958,
      "olk": 2959,
      "bb": 2960,
      "iÄ": 2961,
      "ened": 2962,
      "ĠSecond": 2963,
      "Ġcirc": 2964,
      "idents": 2965,
      "Ġcapt": 2966,
      "ĠGeorg": 2967,
      "Ġfinished": 2968,
      "Ġ184": 2969,
      "190": 2970,
      "ĠGod": 2971,
      "annel": 2972,
      "ny": 2973,
      "ĠScot": 2974,
      "ĊĠĊ": 2975,
      "serv": 2976,
      "Ġseven": 2977,
      "Ġjud": 2978,
      "ĠĊĊ": 2979,
      "Ġproble": 2980,
      "hest": 2981,
      "ugby": 2982,
      "ĠKore": 2983,
      "Ġide": 2984,
      "Ġthroughout": 2985,
      "Ġkey": 2986,
      "Ġshows": 2987,
      "Ġcourt": 2988,
      "ĠGra": 2989,
      "Ġ1988": 2990,
      "Ġlargest": 2991,
      "ĠCons": 2992,
      "ĠTo": 2993,
      "inois": 2994,
      "ĠCongress": 2995,
      "Ġperformance": 2996,
      "ano": 2997,
      "Wh": 2998,
      "Ġ31": 2999,
      "Ġfoc": 3000,
      "Ġmodel": 3001,
      "Ġmount": 3002,
      "Ġ1989": 3003,
      "ios": 3004,
      "ows": 3005,
      "Ġforces": 3006,
      "ĠDire": 3007,
      "Ġdesigned": 3008,
      "ĠAngeles": 3009,
      "reme": 3010,
      "Ġseen": 3011,
      "ĠFlorida": 3012,
      "arts": 3013,
      "Ġremained": 3014,
      "ĠPre": 3015,
      "ĠEmp": 3016,
      "ication": 3017,
      "str": 3018,
      "gcolor": 3019,
      "icy": 3020,
      "Ġfeatured": 3021,
      "ores": 3022,
      "ĠDo": 3023,
      "Con": 3024,
      "Ġsignificant": 3025,
      "Ġbroadcast": 3026,
      "ĠCont": 3027,
      "ĠChicago": 3028,
      "2000": 3029,
      "ĠMinister": 3030,
      "aught": 3031,
      "iano": 3032,
      "Ġwinn": 3033,
      "order": 3034,
      "rim": 3035,
      "uns": 3036,
      "umm": 3037,
      "ware": 3038,
      "Ġchampionship": 3039,
      "urity": 3040,
      "ems": 3041,
      "etts": 3042,
      "Ġstage": 3043,
      "ĠChinese": 3044,
      "Ġrange": 3045,
      "Ġ40": 3046,
      "Ġboard": 3047,
      "shire": 3048,
      "ĠGo": 3049,
      "istics": 3050,
      "ĠIsrael": 3051,
      "Ġeventually": 3052,
      "adium": 3053,
      "uz": 3054,
      "ita": 3055,
      "Ge": 3056,
      "Ġentire": 3057,
      "Ġprivate": 3058,
      "Ġanal": 3059,
      "ĠBut": 3060,
      "Ġintroduced": 3061,
      "Ġgave": 3062,
      "ayed": 3063,
      "Ġpark": 3064,
      "Ġconsist": 3065,
      "ĠParis": 3066,
      "cher": 3067,
      "Ġreplaced": 3068,
      "Ġill": 3069,
      "Ġrank": 3070,
      "Ġpress": 3071,
      "icated": 3072,
      "lan": 3073,
      "Ġsele": 3074,
      "Ġtransl": 3075,
      "ĠOhio": 3076,
      "kn": 3077,
      "Ġqual": 3078,
      "ta": 3079,
      "Ġtest": 3080,
      "Ġenc": 3081,
      "ĠCast": 3082,
      ");": 3083,
      "Ġ1987": 3084,
      "thle": 3085,
      "ĠOff": 3086,
      "ylvan": 3087,
      "SA": 3088,
      "Ġbgcolor": 3089,
      "Ġcollege": 3090,
      "ĠWales": 3091,
      "2007": 3092,
      "Ġsugg": 3093,
      "stra": 3094,
      "ĠNorthern": 3095,
      "arth": 3096,
      "ving": 3097,
      "ooks": 3098,
      "left": 3099,
      "ilver": 3100,
      "Ġdou": 3101,
      "ola": 3102,
      "Ġcivil": 3103,
      "Ġstri": 3104,
      "Ġrespons": 3105,
      "Ġ(\"": 3106,
      "arian": 3107,
      "Ġsinger": 3108,
      "Ġstudy": 3109,
      "2006": 3110,
      "Notes": 3111,
      "Ġleading": 3112,
      "Ġscored": 3113,
      "ting": 3114,
      "ĠHistoric": 3115,
      "English": 3116,
      "Ġreb": 3117,
      "ĠJust": 3118,
      "Ġtransfer": 3119,
      "ufact": 3120,
      "Ġexecut": 3121,
      "Ġtreat": 3122,
      "Ġdam": 3123,
      "achus": 3124,
      "ĠLand": 3125,
      "Ġ:": 3126,
      "Ġdram": 3127,
      "Ġdata": 3128,
      "iana": 3129,
      "Ġpast": 3130,
      "Ġ2022": 3131,
      "Ġsubsequ": 3132,
      "Ġsen": 3133,
      "Ġjournal": 3134,
      "unity": 3135,
      "Te": 3136,
      "quadron": 3137,
      "ĠIllinois": 3138,
      "Ġable": 3139,
      "ersey": 3140,
      "Ġartists": 3141,
      "Ġgold": 3142,
      "Ġsem": 3143,
      "ĠOper": 3144,
      "Ġ1986": 3145,
      "Ind": 3146,
      "Ġcountries": 3147,
      "ras": 3148,
      "ura": 3149,
      "ĠMus": 3150,
      "Ġrights": 3151,
      "Ġchange": 3152,
      "ĠCommission": 3153,
      "ites": 3154,
      "60": 3155,
      "ĠSwed": 3156,
      "ĠSaint": 3157,
      "ĠMil": 3158,
      "Ġ1984": 3159,
      "Ġabove": 3160,
      "ĠLove": 3161,
      "Ġclose": 3162,
      "inals": 3163,
      "Ġaud": 3164,
      "Ġeither": 3165,
      "Ġawarded": 3166,
      "Ġapprox": 3167,
      "achusetts": 3168,
      "Ġliter": 3169,
      "Ġvia": 3170,
      "erve": 3171,
      "Ġhealth": 3172,
      "Ġser": 3173,
      "Early": 3174,
      "ĠDu": 3175,
      "FA": 3176,
      "FC": 3177,
      "urt": 3178,
      "mercial": 3179,
      "ĠStev": 3180,
      "Ġwid": 3181,
      "ĠMill": 3182,
      "Ġget": 3183,
      "Ġaverage": 3184,
      "Ġinvolved": 3185,
      "Ġmy": 3186,
      "ĠColumb": 3187,
      "ylvania": 3188,
      "uture": 3189,
      "Ad": 3190,
      "zil": 3191,
      "asing": 3192,
      "ability": 3193,
      "Ġinstitut": 3194,
      "azz": 3195,
      "ĠProvince": 3196,
      "atal": 3197,
      "min": 3198,
      "ply": 3199,
      "Ġpaint": 3200,
      "gent": 3201,
      "Ġ1985": 3202,
      "Ġadded": 3203,
      "ricket": 3204,
      "ki": 3205,
      "people": 3206,
      "rought": 3207,
      "2008": 3208,
      "Ġupon": 3209,
      "ĠArts": 3210,
      "rial": 3211,
      "Ġcentral": 3212,
      "erry": 3213,
      "ĠPublic": 3214,
      "ĠOb": 3215,
      "Ġseasons": 3216,
      "Ġspace": 3217,
      "stant": 3218,
      "medi": 3219,
      "ette": 3220,
      "idge": 3221,
      "Ġsaw": 3222,
      "ĠOl": 3223,
      "Ġflow": 3224,
      "Ġcurrently": 3225,
      "Ġusually": 3226,
      "ĠÂ": 3227,
      "189": 3228,
      "Ġstaff": 3229,
      "ĠCarolina": 3230,
      "rian": 3231,
      "Ġwriter": 3232,
      "ĠMin": 3233,
      "sel": 3234,
      "Ġstates": 3235,
      "Ġcommand": 3236,
      "Ã³n": 3237,
      "anks": 3238,
      "Ġresults": 3239,
      "\")": 3240,
      "ĠLine": 3241,
      "ĠSir": 3242,
      "ĠAnn": 3243,
      "Ġneigh": 3244,
      "Ġprovided": 3245,
      "ĠRailway": 3246,
      "Ġtravel": 3247,
      "ixed": 3248,
      "embly": 3249,
      "ĠBattle": 3250,
      "ĠClass": 3251,
      "eated": 3252,
      "ĠMa": 3253,
      "Ġconnect": 3254,
      "ergy": 3255,
      "Ġche": 3256,
      "Ġmedia": 3257,
      "BA": 3258,
      "Ġ183": 3259,
      "ĠMassachusetts": 3260,
      "ua": 3261,
      "Ġactress": 3262,
      "ĠTurk": 3263,
      "Ġlearn": 3264,
      "ĠMexico": 3265,
      "ĠJun": 3266,
      "ĠJoseph": 3267,
      "ĠStar": 3268,
      "80": 3269,
      "Ġprot": 3270,
      "Ġcenter": 3271,
      "ends": 3272,
      "Ġwind": 3273,
      "iences": 3274,
      "Ġsubject": 3275,
      "Ġ1950": 3276,
      "Ġpolice": 3277,
      "ength": 3278,
      "Am": 3279,
      "read": 3280,
      "andid": 3281,
      "face": 3282,
      "Ġleast": 3283,
      "ĠPolice": 3284,
      ".)": 3285,
      "ises": 3286,
      "ĠSoviet": 3287,
      "Ġhom": 3288,
      "ĠOld": 3289,
      "orpor": 3290,
      "Ġreached": 3291,
      "Ġwriters": 3292,
      "ĠDemocr": 3293,
      "ĠBo": 3294,
      "ĠIrish": 3295,
      "board": 3296,
      "porary": 3297,
      "ĠDen": 3298,
      "arily": 3299,
      "ĠItaly": 3300,
      "hab": 3301,
      "lam": 3302,
      "chol": 3303,
      "ehic": 3304,
      "Ġ1983": 3305,
      "ĠMr": 3306,
      "Ġdiscover": 3307,
      "Ġparts": 3308,
      "||": 3309,
      "Ġwhite": 3310,
      "ĠWhile": 3311,
      "Ġnight": 3312,
      "atriate": 3313,
      "ĠSome": 3314,
      "ensus": 3315,
      "km": 3316,
      "ias": 3317,
      "ĠTechn": 3318,
      "Ġfig": 3319,
      "Ġmean": 3320,
      "Ã¨": 3321,
      "Ġcop": 3322,
      "ato": 3323,
      "lim": 3324,
      "uments": 3325,
      "ĠNavy": 3326,
      "ĠĠĠĠĠĠĠĠ": 3327,
      "Ġachie": 3328,
      "ĠFestival": 3329,
      "Ġplant": 3330,
      "eds": 3331,
      "Ġrespect": 3332,
      "ĠAv": 3333,
      "Ġfourth": 3334,
      "ĠJim": 3335,
      "ned": 3336,
      "Ġloss": 3337,
      "za": 3338,
      "ection": 3339,
      "NA": 3340,
      "ĠBur": 3341,
      "ĠStation": 3342,
      "rative": 3343,
      "utes": 3344,
      "Ġfar": 3345,
      "ulations": 3346,
      "Ġsection": 3347,
      "rup": 3348,
      "Ġhit": 3349,
      "Ġ1982": 3350,
      "Ġriver": 3351,
      "fic": 3352,
      "ongs": 3353,
      "sych": 3354,
      "sylvania": 3355,
      "Ġoccup": 3356,
      "ĠFort": 3357,
      "Ġconv": 3358,
      "Ġclosed": 3359,
      "ĠEv": 3360,
      "ĠService": 3361,
      "known": 3362,
      "Ġpur": 3363,
      "Ġmass": 3364,
      "Ġdocument": 3365,
      "iqu": 3366,
      "ux": 3367,
      "Ġtournament": 3368,
      "Ġ1979": 3369,
      "ĠHow": 3370,
      "bur": 3371,
      "Ġfarm": 3372,
      "ansas": 3373,
      "chan": 3374,
      "ĠWood": 3375,
      "ĠParliament": 3376,
      "ye": 3377,
      "Ġpot": 3378,
      "Ġinterest": 3379,
      "ental": 3380,
      "Ġtype": 3381,
      "Ġunits": 3382,
      "otel": 3383,
      "ils": 3384,
      "Ġprovide": 3385,
      "ĠEmpire": 3386,
      "Ġdecided": 3387,
      "well": 3388,
      "Ġknow": 3389,
      "ked": 3390,
      "uan": 3391,
      "ultural": 3392,
      "ĠAwards": 3393,
      "ĠPoland": 3394,
      "ĠIts": 3395,
      "Ph": 3396,
      "pts": 3397,
      "ky": 3398,
      "Ġaction": 3399,
      "Ġtro": 3400,
      "den": 3401,
      "ĠScience": 3402,
      "ĠMos": 3403,
      "Ġmusical": 3404,
      "Ġmanager": 3405,
      "Ġcompetition": 3406,
      "isco": 3407,
      "eleb": 3408,
      "ĠRepresent": 3409,
      "Ġartist": 3410,
      "Ġcy": 3411,
      "ero": 3412,
      "ati": 3413,
      "ĠSur": 3414,
      "Äģ": 3415,
      "Ġplaced": 3416,
      "Ġlook": 3417,
      "nder": 3418,
      "hold": 3419,
      "ĠOther": 3420,
      "Ġcritic": 3421,
      "ulture": 3422,
      "Ġfav": 3423,
      "Ġcur": 3424,
      "Ġmethod": 3425,
      "ĠArab": 3426,
      "ĠEr": 3427,
      "akistan": 3428,
      "Ġruns": 3429,
      "ĠSun": 3430,
      "Ġchanged": 3431,
      "Ġinstead": 3432,
      "Ġexpress": 3433,
      "Ġminor": 3434,
      "ĠTwo": 3435,
      "ella": 3436,
      "Ġlisted": 3437,
      "based": 3438,
      "oring": 3439,
      "ĠPan": 3440,
      "ĠMod": 3441,
      "ĠDi": 3442,
      "Ġnetwork": 3443,
      "Ġwinning": 3444,
      "ients": 3445,
      "Ġsyn": 3446,
      "Ġroute": 3447,
      "heast": 3448,
      "aine": 3449,
      "Ġpurch": 3450,
      "Ġdivision": 3451,
      "ension": 3452,
      "ĠCamb": 3453,
      "Ġwhose": 3454,
      "Ġplann": 3455,
      "Ġproducer": 3456,
      "Le": 3457,
      "ĠValley": 3458,
      "dis": 3459,
      "Ġoperations": 3460,
      "Ġgirl": 3461,
      "There": 3462,
      "Ġfood": 3463,
      "ĠHon": 3464,
      "Ġcapital": 3465,
      "fect": 3466,
      "Ġsouthern": 3467,
      "enth": 3468,
      "imb": 3469,
      "Ġfif": 3470,
      "la": 3471,
      "ca": 3472,
      "ĠChampionships": 3473,
      "ĠTour": 3474,
      "thletic": 3475,
      "ometimes": 3476,
      "Ġdistribut": 3477,
      "Ġnorthern": 3478,
      "awa": 3479,
      "Ġtax": 3480,
      "ĠEducation": 3481,
      "Ġste": 3482,
      "ulty": 3483,
      "ĠOut": 3484,
      "Ġmeas": 3485,
      "ĠRos": 3486,
      "Ġlower": 3487,
      "ĠPennsylvania": 3488,
      "oston": 3489,
      "orse": 3490,
      "ription": 3491,
      "Ġfall": 3492,
      "Ġnatural": 3493,
      "Ġstated": 3494,
      "iÄĩ": 3495,
      "Ġ1981": 3496,
      "Ġpreviously": 3497,
      "iro": 3498,
      "ĠMartin": 3499,
      "Films": 3500,
      "Ġsystems": 3501,
      "ples": 3502,
      "ĠGovernment": 3503,
      "Ġactor": 3504,
      "During": 3505,
      "Ġbrought": 3506,
      "Ġapproximately": 3507,
      "Ġmur": 3508,
      "ĠJersey": 3509,
      "ww": 3510,
      "ĠSeries": 3511,
      "2005": 3512,
      "illa": 3513,
      "Ġprem": 3514,
      "ĠJack": 3515,
      "Ġculture": 3516,
      "izations": 3517,
      "Ġarg": 3518,
      "gl": 3519,
      "ÅĤ": 3520,
      "Ġ1976": 3521,
      "mond": 3522,
      "Ġmanufact": 3523,
      "Ġmultip": 3524,
      "ĠRadio": 3525,
      "Ġowned": 3526,
      "Ġrather": 3527,
      "isions": 3528,
      "Ġprison": 3529,
      "AR": 3530,
      "Ġsex": 3531,
      "Ġanc": 3532,
      "Ġimm": 3533,
      "ĠFound": 3534,
      "ĠCommittee": 3535,
      "Ġtrain": 3536,
      "oir": 3537,
      "Ġsingles": 3538,
      "Ġdefeated": 3539,
      "ĠGar": 3540,
      "venue": 3541,
      "Ġattended": 3542,
      "Ġgoals": 3543,
      "Ġrelationship": 3544,
      "Ġforce": 3545,
      "Ġcred": 3546,
      "ĠFre": 3547,
      "Ġhard": 3548,
      "oke": 3549,
      "Ġpred": 3550,
      "Ġeffort": 3551,
      "teg": 3552,
      "Ġfrequ": 3553,
      "clus": 3554,
      "Ġdeal": 3555,
      "Ġactive": 3556,
      "ollowing": 3557,
      "Ġbass": 3558,
      "ĠKent": 3559,
      "Ġstop": 3560,
      "eff": 3561,
      "pecially": 3562,
      "Mar": 3563,
      "Ġfir": 3564,
      "Ġsym": 3565,
      "ingu": 3566,
      "uty": 3567,
      "Ġ1978": 3568,
      "Sp": 3569,
      "ĠCD": 3570,
      "Ġtre": 3571,
      "ĠTimes": 3572,
      "Ġking": 3573,
      "Ġcut": 3574,
      "Ġalmost": 3575,
      "John": 3576,
      "ĠYoung": 3577,
      "Ġ1972": 3578,
      "like": 3579,
      "mark": 3580,
      "Ġaccount": 3581,
      "Ġbeginning": 3582,
      "ancial": 3583,
      "Ġcandid": 3584,
      "Ġdegree": 3585,
      "ĠFin": 3586,
      "Ġstructure": 3587,
      "Ġcreat": 3588,
      "Ġgrand": 3589,
      "Ġpossible": 3590,
      "ĠGreek": 3591,
      "hire": 3592,
      "Ġstudio": 3593,
      "ounter": 3594,
      "ĠPac": 3595,
      "Person": 3596,
      "Ġdu": 3597,
      "Ġver": 3598,
      "Ġoutside": 3599,
      "Ġisland": 3600,
      "Ġaccept": 3601,
      "ĠRussia": 3602,
      "ublican": 3603,
      "ĠBow": 3604,
      "ĠAccording": 3605,
      "Ġprincip": 3606,
      "Ġminist": 3607,
      "bo": 3608,
      "ronic": 3609,
      "Ġterrit": 3610,
      "Ġbank": 3611,
      "ĠFred": 3612,
      "war": 3613,
      "retary": 3614,
      "ĠBob": 3615,
      "Ġpoet": 3616,
      "ums": 3617,
      "Ġnewsp": 3618,
      "eign": 3619,
      "Ġesc": 3620,
      "Ġbehind": 3621,
      "alled": 3622,
      "ĠSa": 3623,
      "Ġfemale": 3624,
      "elled": 3625,
      "amily": 3626,
      "ĠDou": 3627,
      "Ġedition": 3628,
      "Ġ1974": 3629,
      "Ġlik": 3630,
      "ĠKar": 3631,
      "overs": 3632,
      "Ġreve": 3633,
      "ĠHaw": 3634,
      "Ġmagazine": 3635,
      "70": 3636,
      "nes": 3637,
      "ĠCarl": 3638,
      "Ġended": 3639,
      "aled": 3640,
      "lying": 3641,
      "Ġnomin": 3642,
      "ampion": 3643,
      "Ġregard": 3644,
      "Ġtransport": 3645,
      "Ġpractice": 3646,
      "Ġnames": 3647,
      "wer": 3648,
      "ĠCross": 3649,
      "Ġorganization": 3650,
      "ider": 3651,
      "ĠAlb": 3652,
      "Ġcoast": 3653,
      "Ġben": 3654,
      "ands": 3655,
      "Ġobject": 3656,
      "bon": 3657,
      "vention": 3658,
      "atform": 3659,
      "Ġpers": 3660,
      "Ġmovement": 3661,
      "Ġneg": 3662,
      "change": 3663,
      "inary": 3664,
      "Ġ1945": 3665,
      "Ġpain": 3666,
      "Ġitself": 3667,
      "Ġprimary": 3668,
      "ĠBal": 3669,
      "iga": 3670,
      "ĠPrince": 3671,
      "ift": 3672,
      "iography": 3673,
      "Ġever": 3674,
      "Ġleader": 3675,
      "kins": 3676,
      "pecial": 3677,
      "Ġcomplex": 3678,
      "ora": 3679,
      "Ġ1975": 3680,
      "itiz": 3681,
      "Ġbox": 3682,
      "Ġacadem": 3683,
      "Ġallowed": 3684,
      "cel": 3685,
      "Ġindustry": 3686,
      "Ġsupported": 3687,
      "ping": 3688,
      "Ġ1977": 3689,
      "ĠSub": 3690,
      "ecess": 3691,
      "ĠBank": 3692,
      "Ġreading": 3693,
      "igg": 3694,
      "Ġmunicipality": 3695,
      "ĠLife": 3696,
      "ĠAre": 3697,
      "ĠBus": 3698,
      "ĠCivil": 3699,
      "Ġsus": 3700,
      "ĠBoard": 3701,
      "Ġdefeat": 3702,
      "Ġbattle": 3703,
      "ĠTownship": 3704,
      "ĠIII": 3705,
      "arden": 3706,
      "icro": 3707,
      "state": 3708,
      "45": 3709,
      "ĠInc": 3710,
      "ĠTheatre": 3711,
      "Ġindependent": 3712,
      "house": 3713,
      "ĠRoute": 3714,
      "bury": 3715,
      "aka": 3716,
      "ĠCro": 3717,
      "Ġcommercial": 3718,
      "ĠBritain": 3719,
      "anda": 3720,
      "ĠJones": 3721,
      "Ġliving": 3722,
      "oid": 3723,
      "Ġcollection": 3724,
      "ĠBul": 3725,
      "Ġ1973": 3726,
      "Ġfunction": 3727,
      "acing": 3728,
      "Ġshot": 3729,
      "Ġvehic": 3730,
      "35": 3731,
      "Ġwood": 3732,
      "Ġsuper": 3733,
      "Ġball": 3734,
      "ĠLee": 3735,
      "2004": 3736,
      "Ġmission": 3737,
      "action": 3738,
      "with": 3739,
      "Ġsummer": 3740,
      "cing": 3741,
      "ĠJud": 3742,
      "ĠSouthern": 3743,
      "Ġscient": 3744,
      "Ġoperated": 3745,
      "ĠScotland": 3746,
      "ĠDef": 3747,
      "All": 3748,
      "Ġsoon": 3749,
      "Ġdestroy": 3750,
      "Ġmer": 3751,
      "wan": 3752,
      "Ġschol": 3753,
      "ih": 3754,
      "ĠHel": 3755,
      "Ġbase": 3756,
      "Ġ1968": 3757,
      "ĠBook": 3758,
      "ĠBrazil": 3759,
      "omer": 3760,
      "win": 3761,
      "Ġunit": 3762,
      "Bl": 3763,
      "itors": 3764,
      "igital": 3765,
      "Ġbreak": 3766,
      "ĠMo": 3767,
      "90": 3768,
      "adel": 3769,
      "Ġhighest": 3770,
      "Ġaccording": 3771,
      "Ġremov": 3772,
      "Ġcou": 3773,
      "Ġwhom": 3774,
      "National": 3775,
      "Ġ1971": 3776,
      "Ġlocation": 3777,
      "Ġtoo": 3778,
      "Ġanti": 3779,
      "yan": 3780,
      "ĠLong": 3781,
      "Ġlittle": 3782,
      "ibility": 3783,
      "position": 3784,
      "igr": 3785,
      "Ġmeans": 3786,
      "Ġscience": 3787,
      "Ġcentre": 3788,
      "org": 3789,
      "Ġge": 3790,
      "uffer": 3791,
      "ĠHa": 3792,
      "Ġassociation": 3793,
      "lier": 3794,
      "enced": 3795,
      "Ġrequired": 3796,
      "\":\"": 3797,
      "Ġtaking": 3798,
      "ĠSpr": 3799,
      "Can": 3800,
      "ĠCr": 3801,
      "Ġespecially": 3802,
      "ila": 3803,
      "inated": 3804,
      "ĠPakistan": 3805,
      "quare": 3806,
      "ĠSer": 3807,
      "Other": 3808,
      "rang": 3809,
      "Ġadditional": 3810,
      "Ġdeterm": 3811,
      "Ġobserv": 3812,
      "Ġwriting": 3813,
      "ĠNews": 3814,
      "ĠEngine": 3815,
      "ĠPrem": 3816,
      "ĠGall": 3817,
      "Ġstudent": 3818,
      "ences": 3819,
      "Ġspent": 3820,
      "ĠSpain": 3821,
      "standing": 3822,
      "Ġden": 3823,
      "Ġissues": 3824,
      "ĠColumbia": 3825,
      "velopment": 3826,
      "Ġgener": 3827,
      "ĠCam": 3828,
      "Ġcare": 3829,
      "Ġ1969": 3830,
      "attal": 3831,
      "Ġhigher": 3832,
      "Ġcases": 3833,
      "Ã§": 3834,
      "ĠBig": 3835,
      "Ġdispl": 3836,
      "Ġnar": 3837,
      "ĠMost": 3838,
      "Ġcal": 3839,
      "Aust": 3840,
      "ĠTim": 3841,
      "ĠOk": 3842,
      "ĠBelg": 3843,
      "ĠAlthough": 3844,
      "ĠDutch": 3845,
      "Ġpay": 3846,
      "ĠOx": 3847,
      "Ġbur": 3848,
      "antry": 3849,
      "Ġpersonal": 3850,
      "Ġtowards": 3851,
      "Ġinvestig": 3852,
      "ĠJo": 3853,
      "ready": 3854,
      "ĠEdward": 3855,
      "ĠLiber": 3856,
      "ĠWilliams": 3857,
      "Ġfootballer": 3858,
      "Ġmatches": 3859,
      "Ġdraw": 3860,
      "Ġbaseball": 3861,
      "Ġfuture": 3862,
      "Ġtraditional": 3863,
      "Ġconcern": 3864,
      "Ġ1940": 3865,
      "Ġcome": 3866,
      "vert": 3867,
      "source": 3868,
      "ko": 3869,
      "Ġstudies": 3870,
      "user": 3871,
      "burgh": 3872,
      "ĠMichigan": 3873,
      "itation": 3874,
      "Ġself": 3875,
      "ackson": 3876,
      "Ġstandard": 3877,
      "Ġran": 3878,
      "Ġceleb": 3879,
      "ambig": 3880,
      "ĠJul": 3881,
      "Ġvictory": 3882,
      "Ġquest": 3883,
      "iger": 3884,
      "aters": 3885,
      "Ġchair": 3886,
      "Ġcertain": 3887,
      "Career": 3888,
      "ĠBoston": 3889,
      "Ġscreen": 3890,
      "Ġrunning": 3891,
      "RA": 3892,
      "Ġenvironment": 3893,
      "Ġexhib": 3894,
      "Ġkeep": 3895,
      "rice": 3896,
      "tion": 3897,
      "Ġofficer": 3898,
      "Ġrelated": 3899,
      "ĠProfess": 3900,
      "Ġuses": 3901,
      "ĠSystem": 3902,
      "Ġ1967": 3903,
      "ĠInf": 3904,
      "Ġoccur": 3905,
      "Ġarmy": 3906,
      "ĠJewish": 3907,
      "Ġphil": 3908,
      "Ġmanagement": 3909,
      "ĠBroad": 3910,
      "Brit": 3911,
      "Ġstructures": 3912,
      "ĠRegister": 3913,
      "Ġsurround": 3914,
      "Ġthus": 3915,
      "aring": 3916,
      "anded": 3917,
      "Ġsoft": 3918,
      "ify": 3919,
      "ĠWeb": 3920,
      "Ġprograms": 3921,
      "pected": 3922,
      "Ġlet": 3923,
      "iy": 3924,
      "down": 3925,
      "ighter": 3926,
      "United": 3927,
      "Ġprof": 3928,
      "ipl": 3929,
      "Ġretired": 3930,
      "va": 3931,
      "ĠFrancisco": 3932,
      "Ġopening": 3933,
      "ken": 3934,
      "Ġpromot": 3935,
      "ambiguation": 3936,
      "Ġcontains": 3937,
      "Ġvari": 3938,
      "Ġmoney": 3939,
      "ĠResearch": 3940,
      "Ġdon": 3941,
      "ĠThat": 3942,
      "Ġactivities": 3943,
      "Ġunion": 3944,
      "Ġchief": 3945,
      "Ġclubs": 3946,
      "2003": 3947,
      "ima": 3948,
      "etic": 3949,
      "Ġdate": 3950,
      "188": 3951,
      "Ġearlier": 3952,
      "Ġmove": 3953,
      "ĠTeam": 3954,
      "AS": 3955,
      "Ġsat": 3956,
      "uild": 3957,
      "riz": 3958,
      "ĠBlue": 3959,
      "han": 3960,
      "Ġdise": 3961,
      "ervation": 3962,
      "ĠBas": 3963,
      "Ġequip": 3964,
      "ĠSol": 3965,
      "ĠLord": 3966,
      "oper": 3967,
      "ĠChief": 3968,
      "rying": 3969,
      "ications": 3970,
      "acher": 3971,
      "ĠQueen": 3972,
      "Ġassociated": 3973,
      "Ġappearance": 3974,
      "ĠOtt": 3975,
      "ĠWomen": 3976,
      "ĠCard": 3977,
      "ĠMatt": 3978,
      "Ġ1964": 3979,
      "Ġer": 3980,
      "ĠTri": 3981,
      "king": 3982,
      "ulf": 3983,
      "ĠSar": 3984,
      "ols": 3985,
      "Ġnoted": 3986,
      "ĠGeorgia": 3987,
      "Ġsometimes": 3988,
      "rief": 3989,
      "track": 3990,
      "Ġlength": 3991,
      "disambiguation": 3992,
      "aya": 3993,
      "ĠScottish": 3994,
      "istricts": 3995,
      "ĠCentre": 3996,
      "Ġopt": 3997,
      "Ġproperty": 3998,
      "Ġvir": 3999,
      "Ġcommission": 4000,
      "asy": 4001,
      "astic": 4002,
      "ĠWal": 4003,
      "wa": 4004,
      "ira": 4005,
      "ouch": 4006,
      "Ġnumerous": 4007,
      "obal": 4008,
      "Ġpasseng": 4009,
      "ĠDev": 4010,
      "Ġenergy": 4011,
      "Ġsuffer": 4012,
      "Ġsaf": 4013,
      "Ġprior": 4014,
      "Ġabs": 4015,
      "irit": 4016,
      "ĠGood": 4017,
      "not": 4018,
      "ĠAdm": 4019,
      "ĠBre": 4020,
      "Ġcomplete": 4021,
      "Ġhockey": 4022,
      "Ġgenerally": 4023,
      "ĠNot": 4024,
      "press": 4025,
      "ĠOffice": 4026,
      "ĠMiddle": 4027,
      "ĠSupreme": 4028,
      "Ġdom": 4029,
      "Å¡": 4030,
      "ĠMot": 4031,
      "unc": 4032,
      "Ġmuseum": 4033,
      "Ġ1944": 4034,
      "Ġ1966": 4035,
      "esh": 4036,
      "ĠEastern": 4037,
      "ĠHealth": 4038,
      "Ġinstr": 4039,
      "ĠAssembly": 4040,
      "isation": 4041,
      "Ġtrade": 4042,
      "ĠAlbert": 4043,
      "emporary": 4044,
      "ĠMen": 4045,
      "ĠMah": 4046,
      "ĠWind": 4047,
      "illy": 4048,
      "iled": 4049,
      "Ġquarter": 4050,
      "ĠJr": 4051,
      "Ġ1965": 4052,
      "een": 4053,
      "ĠMat": 4054,
      "ĠWild": 4055,
      "Ġserving": 4056,
      "Ġtracks": 4057,
      "Acc": 4058,
      "Ġlimited": 4059,
      "Ġcourse": 4060,
      "Ġadop": 4061,
      "Ġwoman": 4062,
      "2002": 4063,
      "ĠLibrary": 4064,
      "Ġwestern": 4065,
      "level": 4066,
      "arters": 4067,
      "emorial": 4068,
      "Ġnews": 4069,
      "Ġens": 4070,
      "Ġlove": 4071,
      "ĠFC": 4072,
      "ocal": 4073,
      "Ġpen": 4074,
      "elt": 4075,
      "stitution": 4076,
      "ĠDis": 4077,
      "esc": 4078,
      "Ġissue": 4079,
      "Ġdiffic": 4080,
      "Ġactors": 4081,
      "occer": 4082,
      "ĠCharl": 4083,
      "Ġdecision": 4084,
      "Ġbecoming": 4085,
      "ds": 4086,
      "Ġincreased": 4087,
      "Ġreligious": 4088,
      "Ġut": 4089,
      "ao": 4090,
      "75": 4091,
      "ĠField": 4092,
      "Ġterms": 4093,
      "Ġchanges": 4094,
      "Ġarm": 4095,
      "Ġlaunched": 4096,
      "Ġfocus": 4097,
      "chester": 4098,
      "ĠWater": 4099,
      "Ġexam": 4100,
      "ĠTw": 4101,
      "ĠMcC": 4102,
      "ennis": 4103,
      "language": 4104,
      "iant": 4105,
      "umber": 4106,
      "inem": 4107,
      "Ġemer": 4108,
      "Ġnine": 4109,
      "Ġalready": 4110,
      "ocese": 4111,
      "Ġfederal": 4112,
      "33": 4113,
      "rich": 4114,
      "uate": 4115,
      "chestra": 4116,
      "ĠMid": 4117,
      "Ġcust": 4118,
      "ucky": 4119,
      "Ġinterview": 4120,
      "onse": 4121,
      "Gen": 4122,
      "Ġpie": 4123,
      "ĠPlay": 4124,
      "Rec": 4125,
      "ela": 4126,
      "British": 4127,
      "Ġdrop": 4128,
      "Ġcaused": 4129,
      "ĠMur": 4130,
      "Pop": 4131,
      "ĠOs": 4132,
      "ĠCreek": 4133,
      "Ġlived": 4134,
      "ĠVer": 4135,
      "aily": 4136,
      "ĠPortug": 4137,
      "Ġrad": 4138,
      "Ġremains": 4139,
      "Ġgra": 4140,
      "ĠSat": 4141,
      "add": 4142,
      "ĠSo": 4143,
      "Ġmurder": 4144,
      "isher": 4145,
      "Ġmajority": 4146,
      "ĠMu": 4147,
      "2009": 4148,
      "Ġemb": 4149,
      "Ġfeature": 4150,
      "erem": 4151,
      "arriage": 4152,
      "ĠArm": 4153,
      "amm": 4154,
      "ĠPacific": 4155,
      "Ġstatus": 4156,
      "Ġfamous": 4157,
      "izing": 4158,
      "ĠGal": 4159,
      "Ġplatform": 4160,
      "Ġbomb": 4161,
      "Ġsu": 4162,
      "Ġ1930": 4163,
      "ĠGirl": 4164,
      "Ġord": 4165,
      "ja": 4166,
      "Ġeditor": 4167,
      "ĠOver": 4168,
      "ski": 4169,
      "Ġaltern": 4170,
      "Ġlines": 4171,
      "ysis": 4172,
      "inger": 4173,
      "Ġcolon": 4174,
      "2001": 4175,
      "ĠAirport": 4176,
      "ĠHung": 4177,
      "Ġcell": 4178,
      "ĠTime": 4179,
      "ĠNight": 4180,
      "eeks": 4181,
      "Ġsenior": 4182,
      "ĠSince": 4183,
      "ĠLuc": 4184,
      "Ġwide": 4185,
      "ĠCorps": 4186,
      "inct": 4187,
      "ĠDet": 4188,
      "iance": 4189,
      "ĠConference": 4190,
      "Ġrecording": 4191,
      "ĠSocial": 4192,
      "Ġlic": 4193,
      "ĠDie": 4194,
      "ĠStep": 4195,
      "Ġbetter": 4196,
      "ĠLittle": 4197,
      "onia": 4198,
      "Ġoccas": 4199,
      "uge": 4200,
      "Ġselected": 4201,
      "no": 4202,
      "reater": 4203,
      "ĠÅ": 4204,
      "2010": 4205,
      "ĠColle": 4206,
      "Ġprob": 4207,
      "ĠLab": 4208,
      "ĠRegiment": 4209,
      "Ġi": 4210,
      "Ġven": 4211,
      "Ġappears": 4212,
      "tained": 4213,
      "ĠPlaces": 4214,
      "bers": 4215,
      "Ġlegal": 4216,
      "plement": 4217,
      "Ġentered": 4218,
      "rast": 4219,
      "Ġleaving": 4220,
      "ĠSquadron": 4221,
      "Ġforced": 4222,
      "Ġannual": 4223,
      "Ġant": 4224,
      "Ġgive": 4225,
      "ĠOpen": 4226,
      "Ġimmedi": 4227,
      "AT": 4228,
      "Ġsom": 4229,
      "ĠMajor": 4230,
      "Ġrepresented": 4231,
      "Ġuniversity": 4232,
      "ĠJac": 4233,
      "Ã±": 4234,
      "Ġhum": 4235,
      "ĠOfficial": 4236,
      "nam": 4237,
      "Ġsequ": 4238,
      "heim": 4239,
      "adelph": 4240,
      "ĠPeople": 4241,
      "Ġbelow": 4242,
      "onic": 4243,
      "Ġscore": 4244,
      "Ġded": 4245,
      "anguages": 4246,
      "encies": 4247,
      "ĠJackson": 4248,
      "ĠJohnson": 4249,
      "Ġinitially": 4250,
      "ĠIran": 4251,
      "ĠAsia": 4252,
      "abeth": 4253,
      "Ġsize": 4254,
      "Ġbridge": 4255,
      "ĠArgent": 4256,
      "struction": 4257,
      "ĠHu": 4258,
      "Ġmultiple": 4259,
      "Ġshown": 4260,
      "AC": 4261,
      "Ġmostly": 4262,
      "Is": 4263,
      "Ġthought": 4264,
      "ĠTem": 4265,
      "Ä±": 4266,
      "ĠBang": 4267,
      "Ġgoing": 4268,
      "Sports": 4269,
      "Ġpit": 4270,
      "ĠTop": 4271,
      "ĠBern": 4272,
      "isk": 4273,
      "Ġlack": 4274,
      "Man": 4275,
      "Ġindic": 4276,
      "uten": 4277,
      "Ġ60": 4278,
      "tario": 4279,
      "ires": 4280,
      "ĠSea": 4281,
      "Ġtheory": 4282,
      "stein": 4283,
      "She": 4284,
      "Ġmention": 4285,
      "onto": 4286,
      "Ġcommunities": 4287,
      "Ġ1920": 4288,
      "Ġtoday": 4289,
      "ĠBor": 4290,
      "ĠOxford": 4291,
      "ĠGovernor": 4292,
      "Ġcounty": 4293,
      "Ġrap": 4294,
      "Ġpersonnel": 4295,
      "Ġsister": 4296,
      "ache": 4297,
      "ĠPhilipp": 4298,
      "Ġpil": 4299,
      "apers": 4300,
      "ĠDirector": 4301,
      "wide": 4302,
      "ĠInt": 4303,
      "poration": 4304,
      "inet": 4305,
      "Ġevidence": 4306,
      "orporated": 4307,
      "Med": 4308,
      "Ġappearances": 4309,
      "Ġcouncil": 4310,
      "adelphia": 4311,
      "ĠBand": 4312,
      "ĠWay": 4313,
      "bre": 4314,
      "Ġdrama": 4315,
      "Ġword": 4316,
      "Ġeastern": 4317,
      "ĠKe": 4318,
      "BS": 4319,
      "Ġfle": 4320,
      "ĠCoast": 4321,
      "lav": 4322,
      "Ġofficers": 4323,
      "Ġ2023": 4324,
      "Ġbound": 4325,
      "enty": 4326,
      "ĠAvenue": 4327,
      "Ġroom": 4328,
      "ilies": 4329,
      "Ġeconomic": 4330,
      "char": 4331,
      "Ġforeign": 4332,
      "Ã¡n": 4333,
      "put": 4334,
      "ĠUnder": 4335,
      "Ġice": 4336,
      "ĠFour": 4337,
      "urban": 4338,
      "Ġcle": 4339,
      "Ġlonger": 4340,
      "Ġplays": 4341,
      "Ġtakes": 4342,
      "stitu": 4343,
      "Ġeth": 4344,
      "range": 4345,
      "town": 4346,
      "Ġorganizations": 4347,
      "hew": 4348,
      "ĠTro": 4349,
      "ĠJournal": 4350,
      "ĠSand": 4351,
      "Ġmerg": 4352,
      "Ġexc": 4353,
      "olis": 4354,
      "phy": 4355,
      "Comm": 4356,
      "NE": 4357,
      "ĠRepublican": 4358,
      "Ġships": 4359,
      "Ġseat": 4360,
      "ĠVo": 4361,
      "Ġpercent": 4362,
      "ĠPolish": 4363,
      "ĠStan": 4364,
      "Music": 4365,
      "Ġoverall": 4366,
      "ips": 4367,
      "ĠVan": 4368,
      "chen": 4369,
      "ĠAlexander": 4370,
      "ĠWilson": 4371,
      "ctors": 4372,
      "aska": 4373,
      "ĠAz": 4374,
      "Ġremaining": 4375,
      "Ġminutes": 4376,
      "Ġreduc": 4377,
      "iang": 4378,
      "ĠLatin": 4379,
      "Ġclaimed": 4380,
      "1999": 4381,
      "unn": 4382,
      "ĠShow": 4383,
      "47": 4384,
      "ĠSund": 4385,
      "Ġcreate": 4386,
      "akers": 4387,
      "Ġspl": 4388,
      "Ġreferred": 4389,
      "ĠEll": 4390,
      "36": 4391,
      "Ġdepart": 4392,
      "Ġ35": 4393,
      "Ġacquired": 4394,
      "ties": 4395,
      "Ġquick": 4396,
      "Ġstarting": 4397,
      "Don": 4398,
      "Ġgovern": 4399,
      "abb": 4400,
      "Ġpassed": 4401,
      "Ġ1962": 4402,
      "ĠSpe": 4403,
      "emeter": 4404,
      "Ġcomposed": 4405,
      "Ġstudied": 4406,
      "ĠIslam": 4407,
      "gu": 4408,
      "Ġmach": 4409,
      "akh": 4410,
      "tra": 4411,
      "Ġmedical": 4412,
      "Ġsubsequently": 4413,
      "Ġtechnology": 4414,
      "agement": 4415,
      "rance": 4416,
      "pose": 4417,
      "ĠBC": 4418,
      "Ġremain": 4419,
      "ĠRay": 4420,
      "Ġ180": 4421,
      "ĠUnivers": 4422,
      "Members": 4423,
      "Men": 4424,
      "thur": 4425,
      "1990": 4426,
      "Ġthreat": 4427,
      "emetery": 4428,
      "ixt": 4429,
      "attalion": 4430,
      "ĠFoundation": 4431,
      "ĠEarth": 4432,
      "Ġdiscuss": 4433,
      "ĠBerlin": 4434,
      "Ġlos": 4435,
      "Ġdraft": 4436,
      "ĠFar": 4437,
      "edd": 4438,
      "Ġmissing": 4439,
      "Ġ1963": 4440,
      "Ġjob": 4441,
      "ĠBBC": 4442,
      "ĠAndrew": 4443,
      "cean": 4444,
      "186": 4445,
      "Ġepisodes": 4446,
      "Ġparticularly": 4447,
      "ession": 4448,
      "ĠKenn": 4449,
      "ĠÐ": 4450,
      "ledge": 4451,
      "Ġpolicy": 4452,
      "uries": 4453,
      "ĠChild": 4454,
      "ogue": 4455,
      "ĠOntario": 4456,
      "ĠTre": 4457,
      "ydney": 4458,
      "//": 4459,
      "Ġseparate": 4460,
      "Ġweeks": 4461,
      "AF": 4462,
      "ĠCambridge": 4463,
      "mann": 4464,
      "34": 4465,
      "Ġ1948": 4466,
      "38": 4467,
      "ĠRam": 4468,
      "Ġhouses": 4469,
      "selves": 4470,
      "Ġthemselves": 4471,
      "ĠVictoria": 4472,
      "ĠPost": 4473,
      "Ġinn": 4474,
      "Ġbrand": 4475,
      "gypt": 4476,
      "ĠOlympic": 4477,
      "osoph": 4478,
      "eld": 4479,
      "Ġoil": 4480,
      "ĠSports": 4481,
      "ograp": 4482,
      "ador": 4483,
      "Not": 4484,
      "Ġspecific": 4485,
      "Ġfinancial": 4486,
      "ĠBh": 4487,
      "ais": 4488,
      "IS": 4489,
      "ĠSpecial": 4490,
      "Ġoffered": 4491,
      "Ġmiddle": 4492,
      "aven": 4493,
      "Ġincrease": 4494,
      "Ġhours": 4495,
      "vement": 4496,
      "Ġtarg": 4497,
      "Ġdetail": 4498,
      "With": 4499,
      "sen": 4500,
      "Ġcitiz": 4501,
      "37": 4502,
      "ault": 4503,
      "Ġcricket": 4504,
      "Ġkm": 4505,
      "Ġlegisl": 4506,
      "Ġhapp": 4507,
      "Ġgot": 4508,
      "ĠLi": 4509,
      "Ġamount": 4510,
      "Ġ1942": 4511,
      "ĠBoy": 4512,
      "icks": 4513,
      "ĠGuard": 4514,
      "Ġ1943": 4515,
      "Ġhere": 4516,
      "bourne": 4517,
      "Ġlabel": 4518,
      "Ġpath": 4519,
      "Ġrate": 4520,
      "Ġbelieved": 4521,
      "Ġhelped": 4522,
      "ĠJean": 4523,
      "ĠKong": 4524,
      "mon": 4525,
      "ali": 4526,
      "ĠOf": 4527,
      "Ġfailed": 4528,
      "Ġpresented": 4529,
      "yer": 4530,
      "Ġrecords": 4531,
      "Ġtroops": 4532,
      "Ġlarger": 4533,
      "ĠHead": 4534,
      "Ġformat": 4535,
      "Ġprovince": 4536,
      "itting": 4537,
      "ĠBir": 4538,
      "99": 4539,
      "Ġlog": 4540,
      "ĠJoe": 4541,
      "pon": 4542,
      "ried": 4543,
      "aylor": 4544,
      "ĠGh": 4545,
      "Or": 4546,
      "Ġdescent": 4547,
      "Ġcomedy": 4548,
      "ĠDemocratic": 4549,
      "ederation": 4550,
      "ez": 4551,
      "ibli": 4552,
      "Ġmeeting": 4553,
      "ĠIslands": 4554,
      "ĠTheir": 4555,
      "Ġforms": 4556,
      "Ġcollabor": 4557,
      "Ġprovides": 4558,
      "ĠEnter": 4559,
      "Ġbrief": 4560,
      "ĠWall": 4561,
      "Ġnorm": 4562,
      "ĠJeff": 4563,
      "Ġunivers": 4564,
      "ĠBrig": 4565,
      "ĠBaron": 4566,
      "imated": 4567,
      "ĠUk": 4568,
      "ĠRel": 4569,
      "Ġ1961": 4570,
      "Ġstep": 4571,
      "imum": 4572,
      "ĠSy": 4573,
      "Further": 4574,
      "Ġvariety": 4575,
      "ĠStr": 4576,
      "Ġjun": 4577,
      "ĠCat": 4578,
      "ĠSher": 4579,
      "ares": 4580,
      "class": 4581,
      "agn": 4582,
      "55": 4583,
      "Ġchart": 4584,
      "Ġtrib": 4585,
      "peror": 4586,
      "Ġmakes": 4587,
      "ĠAnton": 4588,
      "Ġearned": 4589,
      "ĠIf": 4590,
      "48": 4591,
      "ellig": 4592,
      "Ġhistorical": 4593,
      "31": 4594,
      "Ġpromin": 4595,
      "Ġborder": 4596,
      "Ġlatter": 4597,
      "Ġinteg": 4598,
      "bl": 4599,
      "Ġfoot": 4600,
      "Ġconsists": 4601,
      "ĠCy": 4602,
      "://": 4603,
      "Ġalways": 4604,
      "ĠMax": 4605,
      "Ġassistant": 4606,
      "alle": 4607,
      "Ġmovie": 4608,
      "From": 4609,
      "ĠCorn": 4610,
      "orado": 4611,
      "ĠPrize": 4612,
      "Austral": 4613,
      "Ġrequire": 4614,
      "Ġblock": 4615,
      "Ġmeaning": 4616,
      "rovers": 4617,
      "Ġresponse": 4618,
      "Ġdouble": 4619,
      "zech": 4620,
      "Track": 4621,
      "Ġadj": 4622,
      "ĠLater": 4623,
      "Trans": 4624,
      "ieuten": 4625,
      "Ġinhab": 4626,
      "atively": 4627,
      "ĠBell": 4628,
      "ĠAk": 4629,
      "ĠDar": 4630,
      "ji": 4631,
      "Ġ1946": 4632,
      "ĠIndiana": 4633,
      "osh": 4634,
      "tical": 4635,
      "usband": 4636,
      "US": 4637,
      "39": 4638,
      "innes": 4639,
      "resp": 4640,
      "illed": 4641,
      "Ġmainly": 4642,
      "Ġcarried": 4643,
      "ĠLew": 4644,
      "Ġregional": 4645,
      "Ġsea": 4646,
      "ĠHome": 4647,
      "Ġmusicians": 4648,
      "Ġleave": 4649,
      "Ġmunicipal": 4650,
      "Ġoperation": 4651,
      "establ": 4652,
      "umed": 4653,
      "inson": 4654,
      "ĠJes": 4655,
      "Ġraised": 4656,
      "Ġchem": 4657,
      "vis": 4658,
      "ĠEp": 4659,
      "When": 4660,
      "more": 4661,
      "Ġcities": 4662,
      "ĠEnd": 4663,
      "ĠFinal": 4664,
      "innesota": 4665,
      "Ġmem": 4666,
      "44": 4667,
      "Ġheavy": 4668,
      "ĠMike": 4669,
      "Ġchall": 4670,
      "Ġpoor": 4671,
      "Ġpick": 4672,
      "eder": 4673,
      "ii": 4674,
      "Ġrenamed": 4675,
      "Ġ1958": 4676,
      "Ġsurface": 4677,
      "Ġexpatriate": 4678,
      "Ġparents": 4679,
      "ĠLight": 4680,
      "ĠRegion": 4681,
      "ĠPubl": 4682,
      "1998": 4683,
      "Ġlisting": 4684,
      "Ġpsych": 4685,
      "Ġsucceed": 4686,
      "Ġexcept": 4687,
      "Ġproblems": 4688,
      "ĠĠĊ": 4689,
      "Ġarticle": 4690,
      "owa": 4691,
      "ĠRog": 4692,
      "ĠBishop": 4693,
      "ĠAsh": 4694,
      "Ġ1956": 4695,
      "Ġfinally": 4696,
      "Ã¸": 4697,
      "Ġcorn": 4698,
      "adian": 4699,
      "ĠMuslim": 4700,
      "Ġrecent": 4701,
      "ĠAnt": 4702,
      "Ġnearby": 4703,
      "Ġproposed": 4704,
      "ĠUl": 4705,
      "ĠAtl": 4706,
      "Ġ1959": 4707,
      "Ġ1941": 4708,
      "Rail": 4709,
      "aging": 4710,
      "ĠMP": 4711,
      "oto": 4712,
      "wick": 4713,
      "ĠPo": 4714,
      "ĠKen": 4715,
      "ĠSydney": 4716,
      "Ġpage": 4717,
      "Ġdyn": 4718,
      "Ġfort": 4719,
      "CC": 4720,
      "istance": 4721,
      "izabeth": 4722,
      "Ġconditions": 4723,
      "Ġess": 4724,
      "Ġpeak": 4725,
      "Ġnumbers": 4726,
      "Ġprofessor": 4727,
      "Ġawards": 4728,
      "Ġvon": 4729,
      "IA": 4730,
      "ologist": 4731,
      "Ġextended": 4732,
      "ĠBab": 4733,
      "Ġhospital": 4734,
      "ounds": 4735,
      "thing": 4736,
      "obile": 4737,
      "etherlands": 4738,
      "Ġturned": 4739,
      "Ġcapac": 4740,
      "eman": 4741,
      "ager": 4742,
      "Ġdone": 4743,
      "uts": 4744,
      "2011": 4745,
      "Ġsy": 4746,
      "hens": 4747,
      "ĠFer": 4748,
      "ĠPhiladelphia": 4749,
      "Ġplans": 4750,
      "ĠBa": 4751,
      "187": 4752,
      "Ġresponsible": 4753,
      "ID": 4754,
      "ĠGame": 4755,
      "ray": 4756,
      "Ġdiss": 4757,
      "Ġ1957": 4758,
      "ĠPres": 4759,
      "Ġ1947": 4760,
      "raq": 4761,
      "writer": 4762,
      "una": 4763,
      "ĠBridge": 4764,
      "mission": 4765,
      "Comp": 4766,
      "itage": 4767,
      "Ġprevent": 4768,
      "Ġcharg": 4769,
      "Ne": 4770,
      "Ġshoot": 4771,
      "enness": 4772,
      "Polit": 4773,
      "09": 4774,
      "Ġpoliticians": 4775,
      "ĠDevelopment": 4776,
      "ĠHighway": 4777,
      "ĠSenate": 4778,
      "ĠPop": 4779,
      "ilton": 4780,
      "Ġlies": 4781,
      "ĠÂ£": 4782,
      "=#": 4783,
      "Ġmechan": 4784,
      "Ġcomment": 4785,
      "Ġnewspaper": 4786,
      "ously": 4787,
      "olitan": 4788,
      "ĠViet": 4789,
      "Ġmight": 4790,
      "yo": 4791,
      "Ġ1952": 4792,
      "ker": 4793,
      "Ġcrew": 4794,
      "ieutenant": 4795,
      "Ġnearly": 4796,
      "Ġdepartment": 4797,
      "ĠDaniel": 4798,
      "ĠMov": 4799,
      "Res": 4800,
      "ocks": 4801,
      "ĠCommon": 4802,
      "Ġdifficult": 4803,
      "ĠRome": 4804,
      "ĠWinter": 4805,
      "ĠMany": 4806,
      "ĠTam": 4807,
      "Ġneighbor": 4808,
      "Ġlanguages": 4809,
      "ĠKorea": 4810,
      "omy": 4811,
      "ĠPremier": 4812,
      "Ġdespite": 4813,
      "Ġbring": 4814,
      "Ġspeed": 4815,
      "Ġrugby": 4816,
      "Ġsociety": 4817,
      "Year": 4818,
      "Ġonline": 4819,
      "yric": 4820,
      "Ġinsp": 4821,
      "itude": 4822,
      "Ġserve": 4823,
      "Ġnative": 4824,
      "ĠVen": 4825,
      "ĠSong": 4826,
      "Ġtransferred": 4827,
      "icted": 4828,
      "orning": 4829,
      "32": 4830,
      "Ġnuc": 4831,
      "ĠLady": 4832,
      "Ġissued": 4833,
      "Ġdeliver": 4834,
      "Ġorigin": 4835,
      "Ġelectric": 4836,
      "Ġcensus": 4837,
      "agon": 4838,
      "ĠColl": 4839,
      "HL": 4840,
      "46": 4841,
      "ĠBet": 4842,
      "Ġconver": 4843,
      "rison": 4844,
      "met": 4845,
      "ione": 4846,
      "Ġtemper": 4847,
      "nic": 4848,
      "ĠElect": 4849,
      "ĠKir": 4850,
      "usc": 4851,
      "owers": 4852,
      "stone": 4853,
      "Ġweap": 4854,
      "lantic": 4855,
      "quarters": 4856,
      "Ġcomputer": 4857,
      "uing": 4858,
      "Ġ1939": 4859,
      "Ġancient": 4860,
      "Ġfamilies": 4861,
      "Ġadministrative": 4862,
      "Ġproducts": 4863,
      "Ġdirectly": 4864,
      "system": 4865,
      "ĠToronto": 4866,
      "Ġexperience": 4867,
      "Ġmaster": 4868,
      "ishes": 4869,
      "ancy": 4870,
      "ĊĊĠ": 4871,
      "worth": 4872,
      "MS": 4873,
      "ĠHay": 4874,
      "vey": 4875,
      "ĠEgypt": 4876,
      "Ġface": 4877,
      "ĠJustice": 4878,
      "ĠTod": 4879,
      "Ġsoldiers": 4880,
      "Ġ)": 4881,
      "orship": 4882,
      "49": 4883,
      "ube": 4884,
      "ĠBad": 4885,
      "ava": 4886,
      "ocated": 4887,
      "07": 4888,
      "Se": 4889,
      "ĠLes": 4890,
      "Ġcateg": 4891,
      "ĠCorporation": 4892,
      "German": 4893,
      "Ġmanaged": 4894,
      "Ġconfl": 4895,
      "ĠProgram": 4896,
      "08": 4897,
      "ĠHong": 4898,
      "ĠRaj": 4899,
      "enz": 4900,
      "Ġdeep": 4901,
      "World": 4902,
      "ĠCommunity": 4903,
      "ĠEle": 4904,
      "ĠMir": 4905,
      "1980": 4906,
      "andon": 4907,
      "ydro": 4908,
      "light": 4909,
      "bit": 4910,
      "1997": 4911,
      "ĠBrad": 4912,
      "Ġnature": 4913,
      "Ġfifth": 4914,
      "ĠChap": 4915,
      "oration": 4916,
      "ĠRepresentatives": 4917,
      "ĠLim": 4918,
      "ĠSant": 4919,
      "Ġinfluence": 4920,
      "Col": 4921,
      "Ġprimarily": 4922,
      "ĠFair": 4923,
      "icine": 4924,
      "ĠThree": 4925,
      "ĠDown": 4926,
      "Ġuns": 4927,
      "ĠForest": 4928,
      "Ġelements": 4929,
      "Ġbr": 4930,
      "cles": 4931,
      "Ġcompl": 4932,
      "Ġsched": 4933,
      "Ġcause": 4934,
      "Ġaffect": 4935,
      "ibb": 4936,
      "Ġlevels": 4937,
      "ĠHind": 4938,
      "ĠBaseball": 4939,
      "ĠBudd": 4940,
      "ules": 4941,
      "rizona": 4942,
      "Pr": 4943,
      "ĠSteve": 4944,
      "Ġmarriage": 4945,
      "Ġfeaturing": 4946,
      "Ġhonor": 4947,
      "Ġ1955": 4948,
      "ĠHuman": 4949,
      "Ġhusband": 4950,
      "Ġsolo": 4951,
      "Ġexecutive": 4952,
      "aria": 4953,
      "Ġbackground": 4954,
      "reng": 4955,
      "Ġcultural": 4956,
      "Ġrule": 4957,
      "ĠBon": 4958,
      "verse": 4959,
      "Ġcard": 4960,
      "Ġcovered": 4961,
      "Ġdistricts": 4962,
      "ĠAh": 4963,
      "Ġenough": 4964,
      "ĠUr": 4965,
      "2012": 4966,
      "Ġstories": 4967,
      "Ġconstructed": 4968,
      "ĠJon": 4969,
      "Ġunc": 4970,
      "ĠClark": 4971,
      "Ġautom": 4972,
      "ĠRod": 4973,
      "arry": 4974,
      "ĠMain": 4975,
      "Ġbenef": 4976,
      "Ġrules": 4977,
      "undred": 4978,
      "force": 4979,
      "secut": 4980,
      "ĠTok": 4981,
      "vest": 4982,
      "aki": 4983,
      "Ġprogress": 4984,
      "Ġnecess": 4985,
      "ĠEst": 4986,
      "ova": 4987,
      "CO": 4988,
      "bec": 4989,
      "iginal": 4990,
      "Ġconsider": 4991,
      "Ġvoice": 4992,
      "ĠTechnology": 4993,
      "Ġprop": 4994,
      "ĠChris": 4995,
      "58": 4996,
      "itzer": 4997,
      "56": 4998,
      "ĠArmen": 4999,
      "enge": 5000,
      "ori": 5001,
      "ĠPower": 5002,
      "ĠNetherlands": 5003,
      "Ġsilver": 5004,
      "ĠUSA": 5005,
      "Ġera": 5006,
      "Ġincreasing": 5007,
      "His": 5008,
      "alo": 5009,
      "Ġtold": 5010,
      "rie": 5011,
      "ifying": 5012,
      "06": 5013,
      "ĠId": 5014,
      "ables": 5015,
      "Ġ500": 5016,
      "Ġlikely": 5017,
      "ĠSerb": 5018,
      "regon": 5019,
      "Ġwords": 5020,
      "ĠTaylor": 5021,
      "Ġclear": 5022,
      "University": 5023,
      "Ġfacilities": 5024,
      "ouri": 5025,
      "ronze": 5026,
      "Ġbecomes": 5027,
      "Ġtradition": 5028,
      "Ġfriends": 5029,
      "ĠDuke": 5030,
      "Ġdiscovered": 5031,
      "text": 5032,
      "Ġpromoted": 5033,
      "ully": 5034,
      "ĠCirc": 5035,
      "Ġdead": 5036,
      "Ġdomin": 5037,
      "Ġchannel": 5038,
      "Ġcars": 5039,
      "ticles": 5040,
      "ĠMedal": 5041,
      "ĠDer": 5042,
      "Ġinstitutions": 5043,
      "Ġtitles": 5044,
      "ims": 5045,
      "ĠPen": 5046,
      "1996": 5047,
      "vanced": 5048,
      "weg": 5049,
      "Ġvalue": 5050,
      "Ġsubs": 5051,
      "ĠBeach": 5052,
      "mm": 5053,
      "ĠAnth": 5054,
      "Ġdrug": 5055,
      "ĠHospital": 5056,
      "Ġproduct": 5057,
      "anga": 5058,
      "Ġaddress": 5059,
      "ĠSanta": 5060,
      "ĠBuild": 5061,
      "Ġdisp": 5062,
      "bass": 5063,
      "ading": 5064,
      "Ġtable": 5065,
      "oud": 5066,
      "ĠSev": 5067,
      "ĠCastle": 5068,
      "athan": 5069,
      "Com": 5070,
      "aud": 5071,
      "ĠElizabeth": 5072,
      "rate": 5073,
      "Ġreplace": 5074,
      "ĠDavis": 5075,
      "ĠSus": 5076,
      "Ġwhole": 5077,
      "ĠCop": 5078,
      "Ġyouth": 5079,
      "ĠNY": 5080,
      "Dem": 5081,
      "ening": 5082,
      "ĠCas": 5083,
      "Ġacademic": 5084,
      "Ġarrived": 5085,
      "ublin": 5086,
      "ĠSte": 5087,
      "Ġpartn": 5088,
      "Ġvan": 5089,
      "Ġkind": 5090,
      "Ġasked": 5091,
      "Ġdivided": 5092,
      "ĠMaryland": 5093,
      "ĠMinnesota": 5094,
      "inity": 5095,
      "ĠFederal": 5096,
      "ulpt": 5097,
      "Ġbranch": 5098,
      "Ġ1954": 5099,
      "aith": 5100,
      "Be": 5101,
      "Ġparish": 5102,
      "vin": 5103,
      "Ġbeat": 5104,
      "ennessee": 5105,
      "amber": 5106,
      "Ġgun": 5107,
      "Ġnotable": 5108,
      "ĠAsian": 5109,
      "ĠMore": 5110,
      "ĠBoth": 5111,
      "Ed": 5112,
      "Ġpiano": 5113,
      "Ġwinner": 5114,
      "ĠSon": 5115,
      "Ġreason": 5116,
      "ĠVill": 5117,
      "idae": 5118,
      "ropolitan": 5119,
      "Ġrestaur": 5120,
      "According": 5121,
      "Ġnovels": 5122,
      "Ġprojects": 5123,
      "get": 5124,
      "Ġsources": 5125,
      "ĠCub": 5126,
      "One": 5127,
      "Olymp": 5128,
      "incial": 5129,
      "ads": 5130,
      "onym": 5131,
      "ĠWork": 5132,
      "Ġgraduated": 5133,
      "Ġcampus": 5134,
      "Ġliterature": 5135,
      "ternet": 5136,
      "ĠGro": 5137,
      "Ġinitial": 5138,
      "edom": 5139,
      "ĠCE": 5140,
      "95": 5141,
      "Will": 5142,
      "iring": 5143,
      "SS": 5144,
      "Ġremoved": 5145,
      "mas": 5146,
      "Ġcontinue": 5147,
      "ĠSecretary": 5148,
      "ĠTony": 5149,
      "ilation": 5150,
      "respond": 5151,
      "ĠNetwork": 5152,
      "ĠKansas": 5153,
      "Ġeffects": 5154,
      "Ġang": 5155,
      "Ã£": 5156,
      "\",\"": 5157,
      "Ġwhether": 5158,
      "VD": 5159,
      "Ġassigned": 5160,
      "Ġpp": 5161,
      "Ġfellow": 5162,
      "Ġfr": 5163,
      "Ġ1953": 5164,
      "Ġextra": 5165,
      "Ġ1949": 5166,
      "ĠAdd": 5167,
      "ĠMedia": 5168,
      "ĠGree": 5169,
      "rolled": 5170,
      "ĠSu": 5171,
      "Personal": 5172,
      "ĠIndepend": 5173,
      "Ã¼r": 5174,
      "igen": 5175,
      "ĠFore": 5176,
      "Ġsal": 5177,
      "ĠSab": 5178,
      "Ġresidents": 5179,
      "ĠAut": 5180,
      "Ġadministration": 5181,
      "iced": 5182,
      "Ġscene": 5183,
      "Ġagric": 5184,
      "ĠKentucky": 5185,
      "Ġofficially": 5186,
      "Ġsecurity": 5187,
      "ĠEs": 5188,
      "ibliography": 5189,
      "iot": 5190,
      "Ġcapacity": 5191,
      "Ġcoaches": 5192,
      "Ġcandidate": 5193,
      "ĠStadium": 5194,
      "Ġlives": 5195,
      "ĠQueens": 5196,
      "ĠProject": 5197,
      "ĠBarb": 5198,
      "ĠAff": 5199,
      "Ġult": 5200,
      "ĠSil": 5201,
      "Ġserves": 5202,
      "Ġconducted": 5203,
      "ĠBol": 5204,
      "Ġwinners": 5205,
      "Ġconstitu": 5206,
      "Ġgrowth": 5207,
      "Ġlay": 5208,
      "Ġaffili": 5209,
      ":#": 5210,
      "ĠJunior": 5211,
      "formed": 5212,
      "amin": 5213,
      "ĠRevolution": 5214,
      "Par": 5215,
      "Ġmountain": 5216,
      "1995": 5217,
      "Ġdirection": 5218,
      "Ġmetal": 5219,
      "ĠEarl": 5220,
      "ĠNations": 5221,
      "Ġ36": 5222,
      "arp": 5223,
      "izes": 5224,
      "Ġwanted": 5225,
      "Ġelections": 5226,
      "Ġlaws": 5227,
      "enes": 5228,
      "ĠColorado": 5229,
      "Ġdemon": 5230,
      "ĠTal": 5231,
      "ĠAbb": 5232,
      "ĠNFL": 5233,
      "ĠOrgan": 5234,
      "Ġsusp": 5235,
      "500": 5236,
      "lyn": 5237,
      "bro": 5238,
      "ĠIraq": 5239,
      "ĠRet": 5240,
      "ĠBat": 5241,
      "Ġcat": 5242,
      "Ġolder": 5243,
      "ĠMountain": 5244,
      "Ġour": 5245,
      "Ġ80": 5246,
      "perial": 5247,
      "ami": 5248,
      "Ġlif": 5249,
      "background": 5250,
      "unct": 5251,
      "lers": 5252,
      "inus": 5253,
      "Biography": 5254,
      "41": 5255,
      "ĠMaster": 5256,
      "Ġconcept": 5257,
      "opher": 5258,
      "ĠStat": 5259,
      "Ġcontrovers": 5260,
      "ĠBrother": 5261,
      "Ġdrums": 5262,
      "Ġsoftware": 5263,
      "Ġtowns": 5264,
      "Ġterritory": 5265,
      "Ġdedicated": 5266,
      "Ġalongside": 5267,
      "ĠAlf": 5268,
      "ĠRon": 5269,
      "ĠEconom": 5270,
      "orney": 5271,
      "42": 5272,
      "Ġpurchased": 5273,
      "57": 5274,
      "ĠAtt": 5275,
      "weight": 5276,
      "fort": 5277,
      "2013": 5278,
      "Ġbasis": 5279,
      "ĠLt": 5280,
      "ears": 5281,
      "ĠLive": 5282,
      "Ġ1951": 5283,
      "ging": 5284,
      "Ġequipment": 5285,
      "Ġdisease": 5286,
      "itled": 5287,
      "Ġrout": 5288,
      "erto": 5289,
      "Ġleaders": 5290,
      "ighth": 5291,
      "ĠSom": 5292,
      "ographic": 5293,
      "ansion": 5294,
      "Ġgreen": 5295,
      "anth": 5296,
      "Ġattra": 5297,
      "Ġdestroyed": 5298,
      "Ġletter": 5299,
      "Ġmanagers": 5300,
      "Ġshare": 5301,
      "ĠHot": 5302,
      "Ġenem": 5303,
      "EC": 5304,
      "ĠRem": 5305,
      "Ġchampion": 5306,
      "Ġple": 5307,
      "Ġmotor": 5308,
      "yard": 5309,
      "Ġgas": 5310,
      "yth": 5311,
      "ĠSpace": 5312,
      "teen": 5313,
      "By": 5314,
      "eline": 5315,
      "cting": 5316,
      "agh": 5317,
      "ĠJews": 5318,
      "Ġquickly": 5319,
      "Ġheart": 5320,
      "ĠBall": 5321,
      "itter": 5322,
      "Ġinters": 5323,
      "South": 5324,
      "imal": 5325,
      "ĠFire": 5326,
      "Ġchap": 5327,
      "zy": 5328,
      "Ġthr": 5329,
      "utt": 5330,
      "98": 5331,
      "Ġintended": 5332,
      "ĠFI": 5333,
      "water": 5334,
      "ĠMun": 5335,
      "Ġhighly": 5336,
      "Ġcomes": 5337,
      "Ġimplement": 5338,
      "ĠLo": 5339,
      "iat": 5340,
      "Ġfirm": 5341,
      "Ġability": 5342,
      "Ġsites": 5343,
      "ounded": 5344,
      "Ġprogramming": 5345,
      "ĠArthur": 5346,
      "oln": 5347,
      "rog": 5348,
      "Ġplants": 5349,
      "andy": 5350,
      "ĠAthletic": 5351,
      "SP": 5352,
      "05": 5353,
      "Ġnation": 5354,
      "Ġtrains": 5355,
      "ĠBru": 5356,
      "aints": 5357,
      "Ġconfir": 5358,
      "ĠCountry": 5359,
      "ĠMilitary": 5360,
      "ĠPers": 5361,
      "lah": 5362,
      "Ġtypes": 5363,
      "erc": 5364,
      "Ġfollows": 5365,
      "Ġarchitecture": 5366,
      "Ġproduce": 5367,
      "Ð°": 5368,
      "Ġconne": 5369,
      "Ãº": 5370,
      "ĠDec": 5371,
      "Ġrepe": 5372,
      "Ġstra": 5373,
      "cow": 5374,
      "Ġleaves": 5375,
      "Ġcounter": 5376,
      "Ġopport": 5377,
      "law": 5378,
      "Ġpurs": 5379,
      "Ġimpact": 5380,
      "ictional": 5381,
      "ĠStudies": 5382,
      "Ġimmediately": 5383,
      "1994": 5384,
      "Ġsumm": 5385,
      "ĠGolden": 5386,
      "Ġproblem": 5387,
      "Ġcode": 5388,
      "Ġsettlement": 5389,
      "Ġparties": 5390,
      "omot": 5391,
      "Ġtreatment": 5392,
      "Ac": 5393,
      "Sw": 5394,
      "book": 5395,
      "Ġinside": 5396,
      "Ġhistoric": 5397,
      "2014": 5398,
      "ĠTennessee": 5399,
      "greg": 5400,
      "ĠOregon": 5401,
      "isted": 5402,
      "Ġtouch": 5403,
      "Railway": 5404,
      "ĠSwedish": 5405,
      "rade": 5406,
      "aped": 5407,
      "Ġstreet": 5408,
      "Ġstreng": 5409,
      "oles": 5410,
      "Ġrevealed": 5411,
      "Ġconcent": 5412,
      "Ġsmaller": 5413,
      "pson": 5414,
      "ghan": 5415,
      "roit": 5416,
      "Ġunknown": 5417,
      "Ġcitizens": 5418,
      "Ġillust": 5419,
      "ST": 5420,
      "iform": 5421,
      "Ġpotential": 5422,
      "Ġrat": 5423,
      "Ġplanned": 5424,
      "El": 5425,
      "rical": 5426,
      "Ġvolume": 5427,
      "Ġmill": 5428,
      "Ġrecover": 5429,
      "Ġbehav": 5430,
      "Ġtarget": 5431,
      "Ġpan": 5432,
      "ĠConnect": 5433,
      "Ġredu": 5434,
      "Ġoperating": 5435,
      "ech": 5436,
      "International": 5437,
      "ĠSweden": 5438,
      "ĠUt": 5439,
      "ĠCa": 5440,
      "ĠArizona": 5441,
      "Populated": 5442,
      "Ġidea": 5443,
      "Ġ32": 5444,
      "real": 5445,
      "Ġvillages": 5446,
      "lem": 5447,
      "Ġyet": 5448,
      "96": 5449,
      "Ġblue": 5450,
      "Ġhosted": 5451,
      "ĠStephen": 5452,
      "Ġprominent": 5453,
      "eather": 5454,
      "Canadian": 5455,
      "And": 5456,
      "former": 5457,
      "Ġreach": 5458,
      "Ġcommonly": 5459,
      "icut": 5460,
      "room": 5461,
      "Ġcontinues": 5462,
      "ivity": 5463,
      "oster": 5464,
      "01": 5465,
      "Ġpra": 5466,
      "Ġcharge": 5467,
      "ĠFamily": 5468,
      "Ġsymb": 5469,
      "ĠWars": 5470,
      "ething": 5471,
      "Ġâ": 5472,
      "ĠMinistry": 5473,
      "Ġdance": 5474,
      "anian": 5475,
      "ĠLewis": 5476,
      "ĠSciences": 5477,
      "ĠWalk": 5478,
      "ĠCzech": 5479,
      "Ġbelong": 5480,
      "ĠIndust": 5481,
      "Ġattend": 5482,
      "Ġcombined": 5483,
      "ingham": 5484,
      "je": 5485,
      "Ġsaying": 5486,
      "Ġscholars": 5487,
      "ĠPit": 5488,
      "edia": 5489,
      "Nov": 5490,
      "ĠColon": 5491,
      "ression": 5492,
      "ĠBooks": 5493,
      "ĠFollowing": 5494,
      "uy": 5495,
      "enna": 5496,
      "sey": 5497,
      "Ġwithd": 5498,
      "ĠArea": 5499,
      "MA": 5500,
      "Ġpaper": 5501,
      "Ġ1936": 5502,
      "Ġmodels": 5503,
      "ĠKel": 5504,
      "Ġvote": 5505,
      "iated": 5506,
      "inner": 5507,
      "Ġmoving": 5508,
      "Ġblood": 5509,
      "Ġgrew": 5510,
      "Ġsport": 5511,
      "Olympic": 5512,
      "ĠÎ": 5513,
      "May": 5514,
      "Ġrecon": 5515,
      "Ġsemi": 5516,
      "urches": 5517,
      "sky": 5518,
      "Ġmedalists": 5519,
      "hemat": 5520,
      "ĠFame": 5521,
      "unte": 5522,
      "Ġhighway": 5523,
      "ito": 5524,
      "ĠCommand": 5525,
      "Ġoffers": 5526,
      "Ġupper": 5527,
      "grad": 5528,
      "Ġactivity": 5529,
      "97": 5530,
      "Australian": 5531,
      "Ġindividuals": 5532,
      "ĠKorean": 5533,
      "Ġmix": 5534,
      "Ã©e": 5535,
      "ĠMissouri": 5536,
      "Ġordered": 5537,
      "ĠFe": 5538,
      "ba": 5539,
      "ĠMarsh": 5540,
      "asty": 5541,
      "oral": 5542,
      "elligence": 5543,
      "erick": 5544,
      "Ġquestion": 5545,
      "ĠNorway": 5546,
      "Ġhor": 5547,
      "ania": 5548,
      "Ġpal": 5549,
      "Ġgiving": 5550,
      "100": 5551,
      "osaur": 5552,
      "ĠConf": 5553,
      "igrants": 5554,
      "Ð¾": 5555,
      "ĠDespite": 5556,
      "aded": 5557,
      "Ġcomposer": 5558,
      "Ġstore": 5559,
      "ctoral": 5560,
      "Ġbegins": 5561,
      "ĠWat": 5562,
      "Ġbig": 5563,
      "ĠTai": 5564,
      "ĠProfessor": 5565,
      "43": 5566,
      "ĊĠĊĠĊ": 5567,
      "Ġslow": 5568,
      "Ġtrial": 5569,
      "anna": 5570,
      "present": 5571,
      "',": 5572,
      "ctive": 5573,
      "Ġowner": 5574,
      "icit": 5575,
      "Ġmentioned": 5576,
      "resh": 5577,
      "Ġengineer": 5578,
      "1970": 5579,
      "ĠMunicip": 5580,
      "ĠLy": 5581,
      "88": 5582,
      "ĠHart": 5583,
      "Ġ45": 5584,
      "Ġphysical": 5585,
      "orge": 5586,
      "Ġcontact": 5587,
      "pool": 5588,
      "Ġsquad": 5589,
      "Ġstadium": 5590,
      "TA": 5591,
      "Ġestate": 5592,
      "Ġretire": 5593,
      "Ġquality": 5594,
      "ĠMelbourne": 5595,
      "bles": 5596,
      "Ġestimated": 5597,
      "Ġmax": 5598,
      "ĠGreg": 5599,
      "Ġperman": 5600,
      "Ġsecondary": 5601,
      "French": 5602,
      "da": 5603,
      "ui": 5604,
      "ĠComics": 5605,
      "gn": 5606,
      "Ġwalk": 5607,
      "ĠBi": 5608,
      "Ġinterp": 5609,
      "Ġpeace": 5610,
      "ĠMaria": 5611,
      "Ġworkers": 5612,
      "part": 5613,
      "ĠMarc": 5614,
      "Ġneeded": 5615,
      "wegian": 5616,
      "Ġresident": 5617,
      "yal": 5618,
      "Ġanalysis": 5619,
      "Ġmixed": 5620,
      "Ġrespectively": 5621,
      "Ġinhabit": 5622,
      "ĠInfantry": 5623,
      "odies": 5624,
      "uls": 5625,
      "kin": 5626,
      "eller": 5627,
      "incoln": 5628,
      "1993": 5629,
      "ĠHal": 5630,
      "ĠKal": 5631,
      "osis": 5632,
      "Ġregist": 5633,
      "Ġtal": 5634,
      "2015": 5635,
      "ĠĠĠ": 5636,
      "Ġsail": 5637,
      "Ġtypically": 5638,
      "endment": 5639,
      "Ġdigital": 5640,
      "Ġefforts": 5641,
      "rec": 5642,
      "Ġcorrespond": 5643,
      "General": 5644,
      "Notable": 5645,
      "iary": 5646,
      "ĠConc": 5647,
      "Ã£o": 5648,
      "Ġfigure": 5649,
      "ĠBrook": 5650,
      "rugg": 5651,
      "ĠPrime": 5652,
      "ĠTrust": 5653,
      "Ġwa": 5654,
      "ĠCemetery": 5655,
      "ĠMemorial": 5656,
      "sl": 5657,
      "1992": 5658,
      "ĠAlso": 5659,
      "Ġflight": 5660,
      "Ġclassical": 5661,
      "Ġfloor": 5662,
      "ymph": 5663,
      "ician": 5664,
      "Ġagreement": 5665,
      "ga": 5666,
      "iate": 5667,
      "Ġ90": 5668,
      "ĠNaz": 5669,
      "Ġfeel": 5670,
      "wing": 5671,
      "Ġ1938": 5672,
      "Ġexpanded": 5673,
      "Ġversions": 5674,
      "76": 5675,
      "ĠEP": 5676,
      "Ġstars": 5677,
      "ĠRoss": 5678,
      "Ġagreed": 5679,
      "ĠFox": 5680,
      "Ġrecently": 5681,
      "Ġsuffered": 5682,
      "Ġsn": 5683,
      "Ġreports": 5684,
      "ĠPrim": 5685,
      "Ġdisestabl": 5686,
      "iants": 5687,
      "ello": 5688,
      "Ġcaptured": 5689,
      "ĠMarine": 5690,
      "ĠPass": 5691,
      "illery": 5692,
      "Ġhop": 5693,
      "ĠBusiness": 5694,
      "Ġelev": 5695,
      "estic": 5696,
      "ĠFrancis": 5697,
      "Sources": 5698,
      "ĠJoh": 5699,
      "etting": 5700,
      "En": 5701,
      "Ġcompeted": 5702,
      "spe": 5703,
      "Death": 5704,
      "ĠHan": 5705,
      "Ġthink": 5706,
      "died": 5707,
      "ĠReview": 5708,
      "ĠBos": 5709,
      "aga": 5710,
      "mouth": 5711,
      "Ġindustrial": 5712,
      "pass": 5713,
      "Ġadopted": 5714,
      "LA": 5715,
      "cluding": 5716,
      "rin": 5717,
      "Ġlyric": 5718,
      "ĠDiv": 5719,
      "Ġ1918": 5720,
      "lahoma": 5721,
      "ĠHockey": 5722,
      "ika": 5723,
      "Ġinstrument": 5724,
      "onsin": 5725,
      "olved": 5726,
      "Ġairport": 5727,
      "ader": 5728,
      "itness": 5729,
      "aug": 5730,
      "orph": 5731,
      "chers": 5732,
      "Ġdark": 5733,
      "bra": 5734,
      "Ġprec": 5735,
      "Ã¢": 5736,
      "abama": 5737,
      "kh": 5738,
      "Ġminister": 5739,
      "Ġformerly": 5740,
      "Ġ70": 5741,
      "ĠJer": 5742,
      "wealth": 5743,
      "olid": 5744,
      "aks": 5745,
      "Ġenter": 5746,
      "Ġdistance": 5747,
      "Ġfiction": 5748,
      "ĠIowa": 5749,
      "isconsin": 5750,
      "No": 5751,
      "acter": 5752,
      "ĠLaur": 5753,
      "Ġpositive": 5754,
      "ĠCaptain": 5755,
      "Ġtraffic": 5756,
      "{\"": 5757,
      "outs": 5758,
      "apore": 5759,
      "Ġfell": 5760,
      "Ġcontemporary": 5761,
      "Ġreference": 5762,
      "Ġjoint": 5763,
      "ption": 5764,
      "Ġcerem": 5765,
      "outheast": 5766,
      "ĠAdminist": 5767,
      "ante": 5768,
      "Ġadapt": 5769,
      "Ġtrust": 5770,
      "Ġcompared": 5771,
      "Ġarts": 5772,
      "Ġwidely": 5773,
      "vard": 5774,
      "Ġfaculty": 5775,
      "osa": 5776,
      "which": 5777,
      "ĠWeek": 5778,
      "restling": 5779,
      "We": 5780,
      "mad": 5781,
      "ipe": 5782,
      "Ġforward": 5783,
      "Ġapproach": 5784,
      "Ġlargely": 5785,
      "Ġparticipated": 5786,
      "ogs": 5787,
      "Ġboy": 5788,
      "ibly": 5789,
      "Ġcoin": 5790,
      "ĠMalays": 5791,
      "%)": 5792,
      "sex": 5793,
      "ooth": 5794,
      "Ġactually": 5795,
      "Ġuser": 5796,
      "59": 5797,
      "Ġsens": 5798,
      "Ġdeclared": 5799,
      "Ġsculpt": 5800,
      "86": 5801,
      "West": 5802,
      "ĠHamp": 5803,
      "ĠDam": 5804,
      "tainment": 5805,
      "Ġbad": 5806,
      "ĠAtlantic": 5807,
      "kes": 5808,
      "Ġyards": 5809,
      "mes": 5810,
      "Ġpresence": 5811,
      "Ġfavor": 5812,
      "urer": 5813,
      "Ġurban": 5814,
      "Ġsplit": 5815,
      "ĠKim": 5816,
      "elle": 5817,
      "ĠForm": 5818,
      "ĠEngineering": 5819,
      "Ġcontest": 5820,
      "ĠDun": 5821,
      "ĠPolit": 5822,
      "Ġarms": 5823,
      "ancing": 5824,
      "Ġprobably": 5825,
      "Ġattention": 5826,
      "ĠBrigade": 5827,
      "52": 5828,
      "ER": 5829,
      "urd": 5830,
      "Ġnewly": 5831,
      "Ġtherefore": 5832,
      "ĠManchester": 5833,
      "ĠMedical": 5834,
      "ĠCra": 5835,
      "oli": 5836,
      "anning": 5837,
      "Ġgraph": 5838,
      "Ġhundred": 5839,
      "Ġmap": 5840,
      "acc": 5841,
      "ĠMiller": 5842,
      "Ġchairman": 5843,
      "ĠYour": 5844,
      "uese": 5845,
      "ĠRad": 5846,
      "Ġsecret": 5847,
      "ĠBattalion": 5848,
      "Ġengineering": 5849,
      "ĠHor": 5850,
      "osen": 5851,
      "ĠBrian": 5852,
      "Ġtheatre": 5853,
      "Ġlosing": 5854,
      "ĠCO": 5855,
      "Ġresulted": 5856,
      "ĠTa": 5857,
      "comm": 5858,
      "Ġscoring": 5859,
      "Ġtaught": 5860,
      "Ġplayoff": 5861,
      "Ġfast": 5862,
      "Ġaccepted": 5863,
      "western": 5864,
      "usion": 5865,
      "life": 5866,
      "Ġfounder": 5867,
      "Ġbatt": 5868,
      "ĠMas": 5869,
      "Ġreduced": 5870,
      "Japan": 5871,
      "Ġrecomm": 5872,
      "Ġvocal": 5873,
      "ĠPhilip": 5874,
      "Ġcoming": 5875,
      "Ġsearch": 5876,
      "Disc": 5877,
      "Ġtitled": 5878,
      "Ġsil": 5879,
      "Ġgained": 5880,
      "Back": 5881,
      "Ġorganized": 5882,
      "Ġnort": 5883,
      "ĠMoscow": 5884,
      "ĠRoy": 5885,
      "aph": 5886,
      "Ġdocumentary": 5887,
      "Ġprin": 5888,
      "aro": 5889,
      "ĠCommun": 5890,
      "ĠStock": 5891,
      "ÃŃa": 5892,
      "Ġroles": 5893,
      "Ġpair": 5894,
      "elsh": 5895,
      "ĠVoiv": 5896,
      "Ġgenus": 5897,
      "89": 5898,
      "ĠCour": 5899,
      "agu": 5900,
      "Äį": 5901,
      "iplom": 5902,
      "ek": 5903,
      "Ġgranted": 5904,
      "Ġtwice": 5905,
      "works": 5906,
      "aly": 5907,
      "ĠPlan": 5908,
      "Ġstone": 5909,
      "Ġfacility": 5910,
      "Ġdra": 5911,
      "asion": 5912,
      "ĠTest": 5913,
      "ĠRang": 5914,
      "umes": 5915,
      "ivals": 5916,
      "ĠLeon": 5917,
      "ĠGreece": 5918,
      "Ġspons": 5919,
      "ĠTurkey": 5920,
      "54": 5921,
      "ĠLind": 5922,
      "Ġpositions": 5923,
      "osophy": 5924,
      "odeship": 5925,
      "ĠHou": 5926,
      "ois": 5927,
      "bums": 5928,
      "Ġelim": 5929,
      "ordon": 5930,
      "Ġhab": 5931,
      "ippi": 5932,
      "Fran": 5933,
      "redited": 5934,
      "ĠVi": 5935,
      "ĠHo": 5936,
      "Ġspring": 5937,
      "Ġfish": 5938,
      "Ġswim": 5939,
      "portation": 5940,
      "Äĥ": 5941,
      "ĠConnecticut": 5942,
      "net": 5943,
      "ĠAnother": 5944,
      "Awards": 5945,
      "aling": 5946,
      "Football": 5947,
      "ashion": 5948,
      "asters": 5949,
      "Ġdamage": 5950,
      "Ġconcert": 5951,
      "ĠFord": 5952,
      "Ġwild": 5953,
      "ĠPier": 5954,
      "uther": 5955,
      "Ġwing": 5956,
      "Ġwins": 5957,
      "Ġresulting": 5958,
      "51": 5959,
      "Ġcolumn": 5960,
      "ĠPu": 5961,
      "2016": 5962,
      "Ġetc": 5963,
      "ĠVoivodeship": 5964,
      "Ġburn": 5965,
      "Ġcolor": 5966,
      "Ġbal": 5967,
      "Ġabandon": 5968,
      "Ġteacher": 5969,
      "1991": 5970,
      "Ġinjury": 5971,
      "hedral": 5972,
      "Ġvs": 5973,
      "jan": 5974,
      "Ġsevent": 5975,
      "mitted": 5976,
      "Ġpict": 5977,
      "ĠOrchestra": 5978,
      "ĠUs": 5979,
      "Ġspirit": 5980,
      "ĠForces": 5981,
      "Ġ1937": 5982,
      "ĠRen": 5983,
      "Ġsituated": 5984,
      "Ġir": 5985,
      "igration": 5986,
      "isa": 5987,
      "Ġranked": 5988,
      "ĠSav": 5989,
      "ĠFederation": 5990,
      "Ġnet": 5991,
      "66": 5992,
      "Ġlett": 5993,
      "ĠDrag": 5994,
      "Ġofficials": 5995,
      "Ġperformances": 5996,
      "ĠBulgar": 5997,
      "ĊĊĊ": 5998,
      "CD": 5999,
      "oven": 6000,
      "ĠBurn": 6001,
      "gg": 6002,
      "Ġmiles": 6003,
      "bed": 6004,
      "Ġoccurred": 6005,
      "ymn": 6006,
      "Ġwant": 6007,
      "ervative": 6008,
      "Ġcontent": 6009,
      "53": 6010,
      "Ġrecognized": 6011,
      "Ġattacks": 6012,
      "ĠHy": 6013,
      "FM": 6014,
      "organ": 6015,
      "Ġinhabitants": 6016,
      "Build": 6017,
      "ĠSpring": 6018,
      "Ġappar": 6019,
      "Ġconnected": 6020,
      "esign": 6021,
      "Å«": 6022,
      "Ġbott": 6023,
      "ĠCur": 6024,
      "Ġcaptain": 6025,
      "Ġpet": 6026,
      "Ġhar": 6027,
      "ĠFront": 6028,
      "Ġcrime": 6029,
      "rish": 6030,
      "Ġsurrounding": 6031,
      "Ġregions": 6032,
      "imore": 6033,
      "bs": 6034,
      "under": 6035,
      "ateur": 6036,
      "Ġnotes": 6037,
      "ĠKhan": 6038,
      "Ġelement": 6039,
      "ĠSem": 6040,
      "Ġcomplet": 6041,
      "bell": 6042,
      "ĠAfghan": 6043,
      "03": 6044,
      "Ġlabor": 6045,
      "AM": 6046,
      "iling": 6047,
      "Bibliography": 6048,
      "Ġreserv": 6049,
      "Ġaccomp": 6050,
      "Ġjourn": 6051,
      "ĠBah": 6052,
      "Ġcreation": 6053,
      "Ġdesignated": 6054,
      "Gu": 6055,
      "Ġserious": 6056,
      "Ġtree": 6057,
      "Ġcells": 6058,
      "ĠWisconsin": 6059,
      "Ġec": 6060,
      "ordin": 6061,
      "uccess": 6062,
      "Ġjournalist": 6063,
      "Ġidentified": 6064,
      "Ġsales": 6065,
      "Ġgives": 6066,
      "Ġdistinct": 6067,
      "Ġmess": 6068,
      "Ġkept": 6069,
      "ĠAlabama": 6070,
      "Dav": 6071,
      "Ġsupply": 6072,
      "Ġconflict": 6073,
      "ĠLincoln": 6074,
      "Ġknowledge": 6075,
      "ĠHoly": 6076,
      "ĠAst": 6077,
      "Ġacting": 6078,
      "04": 6079,
      "Ġoldest": 6080,
      "CAA": 6081,
      "raine": 6082,
      ")\"": 6083,
      "Ġdial": 6084,
      "Ġeducated": 6085,
      "Ġracing": 6086,
      "Ġflag": 6087,
      "Ġcarri": 6088,
      "ĠMic": 6089,
      "Ġmarked": 6090,
      "ĠServices": 6091,
      "iÃ³n": 6092,
      "Ġpack": 6093,
      "po": 6094,
      "Co": 6095,
      "iques": 6096,
      "Ġexpected": 6097,
      "season": 6098,
      "Ġgreater": 6099,
      "Ġsays": 6100,
      "Ġproviding": 6101,
      "wich": 6102,
      "ĠManagement": 6103,
      "Ġencour": 6104,
      "Ġgoes": 6105,
      "Ġ33": 6106,
      "ecause": 6107,
      "Ġleadership": 6108,
      "ĠNic": 6109,
      "ĠEntertainment": 6110,
      "Hon": 6111,
      "ifications": 6112,
      "ented": 6113,
      "Ġtells": 6114,
      "inth": 6115,
      "Ital": 6116,
      "play": 6117,
      "ĠLabor": 6118,
      "ĠTs": 6119,
      "Ġcompon": 6120,
      "ĠHard": 6121,
      "Ġlake": 6122,
      "ulate": 6123,
      "rict": 6124,
      "can": 6125,
      "ĠTurn": 6126,
      "Ġstrugg": 6127,
      "Ð¸": 6128,
      "1989": 6129,
      "Ġcombat": 6130,
      "evin": 6131,
      "ĠSound": 6132,
      "Ġvehicles": 6133,
      "pri": 6134,
      "aron": 6135,
      "uris": 6136,
      "Ġcoal": 6137,
      "Ġgovernor": 6138,
      "apolis": 6139,
      "uous": 6140,
      "Ġpressure": 6141,
      "Ġdistribution": 6142,
      "Ġprincipal": 6143,
      "Ġspread": 6144,
      "ruit": 6145,
      "ĠHarry": 6146,
      "ĠWrit": 6147,
      "ĠHoward": 6148,
      "Ġ+": 6149,
      "Ġclaims": 6150,
      "Ġcannot": 6151,
      "OS": 6152,
      "issippi": 6153,
      "ĠRegional": 6154,
      "ĠDesign": 6155,
      "Ġwall": 6156,
      "Ġcrim": 6157,
      "ĠStand": 6158,
      "William": 6159,
      "Char": 6160,
      "Def": 6161,
      "ĠVietnam": 6162,
      "also": 6163,
      "Ġpattern": 6164,
      "see": 6165,
      "02": 6166,
      "Ġmicro": 6167,
      "Ġ1914": 6168,
      "enny": 6169,
      "ĠDiego": 6170,
      "ĠAustria": 6171,
      "erald": 6172,
      "leveland": 6173,
      "ionally": 6174,
      "Ġportion": 6175,
      "Geography": 6176,
      "Ġcancer": 6177,
      "ĠOm": 6178,
      "Television": 6179,
      "77": 6180,
      "Ġsuppl": 6181,
      "Ġtrue": 6182,
      "iral": 6183,
      "Ġformation": 6184,
      "Ġtalk": 6185,
      "iny": 6186,
      "unch": 6187,
      "ĠEmperor": 6188,
      "2017": 6189,
      "Ġauthorities": 6190,
      "olished": 6191,
      "ĠChannel": 6192,
      "ĠHamilton": 6193,
      "Ġhotel": 6194,
      "rÃ©": 6195,
      "altimore": 6196,
      "IT": 6197,
      "glas": 6198,
      "ĠMexican": 6199,
      "Ġsafety": 6200,
      "ĠAnderson": 6201,
      "ĠBowl": 6202,
      "Ġshop": 6203,
      "Ġclasses": 6204,
      "'m": 6205,
      "Ġ1935": 6206,
      "iti": 6207,
      "Ġrural": 6208,
      "Ġreceive": 6209,
      "Ġfully": 6210,
      "ĠMoh": 6211,
      "ropical": 6212,
      "ĠOklahoma": 6213,
      "Ġarticles": 6214,
      "Ġmaintain": 6215,
      "ques": 6216,
      "Ġast": 6217,
      "actions": 6218,
      "Ġ1929": 6219,
      "ĠPhilippines": 6220,
      "lywood": 6221,
      "di": 6222,
      "ĠGil": 6223,
      "Ġthous": 6224,
      "ĠFM": 6225,
      "yes": 6226,
      "ĠRom": 6227,
      "miss": 6228,
      "ructure": 6229,
      "Ġvess": 6230,
      "'.": 6231,
      "Ġpolitics": 6232,
      "ext": 6233,
      "Ġsurn": 6234,
      "itzerland": 6235,
      "Ġallows": 6236,
      "Ġcommander": 6237,
      "rator": 6238,
      "Ġhands": 6239,
      "Ġtheme": 6240,
      "pur": 6241,
      "Ġyounger": 6242,
      "ĠTemple": 6243,
      "Ġburied": 6244,
      "Ġcouple": 6245,
      "iley": 6246,
      "AA": 6247,
      "SR": 6248,
      "Ġrom": 6249,
      "oslav": 6250,
      "keep": 6251,
      "lades": 6252,
      "allery": 6253,
      "Ġ1933": 6254,
      "ĠLev": 6255,
      "cluded": 6256,
      "Ġagent": 6257,
      "ĠDetroit": 6258,
      "ĠBuilding": 6259,
      "Ġsucceeded": 6260,
      "uv": 6261,
      "ĠShort": 6262,
      "ĠLegisl": 6263,
      "urance": 6264,
      "ĠForeign": 6265,
      "ĠTokyo": 6266,
      "1988": 6267,
      "allas": 6268,
      "ĠPrefect": 6269,
      "ĠJacob": 6270,
      "78": 6271,
      "IC": 6272,
      "Ġpurpose": 6273,
      "Ġsuit": 6274,
      "Ġpaid": 6275,
      "claim": 6276,
      "Ġ1917": 6277,
      "rell": 6278,
      "ĠSunday": 6279,
      "Ġdaily": 6280,
      "Christ": 6281,
      "ĠHeart": 6282,
      "Ġsexual": 6283,
      "ĠBack": 6284,
      "ĠGi": 6285,
      "ĠTen": 6286,
      "ĠFle": 6287,
      "ĠRegulations": 6288,
      "Ġeas": 6289,
      "ĠFree": 6290,
      "Ġtwenty": 6291,
      "Ġconference": 6292,
      "value": 6293,
      "bar": 6294,
      "hol": 6295,
      "ĠAllen": 6296,
      "rum": 6297,
      "ĠChampions": 6298,
      "Ġ38": 6299,
      "Ġheav": 6300,
      "Ġmom": 6301,
      "ĠOcean": 6302,
      "Ġlibrary": 6303,
      "Ġmut": 6304,
      "rac": 6305,
      "Ġheadquarters": 6306,
      "Ġforest": 6307,
      "Ġmusician": 6308,
      "Ġce": 6309,
      "Ġneighborhood": 6310,
      "Ġcam": 6311,
      "Ġexperiment": 6312,
      "Ġbronze": 6313,
      "Ġreform": 6314,
      "leep": 6315,
      "Ġentry": 6316,
      "Ġbacking": 6317,
      "Ġteaching": 6318,
      "ĠSingapore": 6319,
      "Ġ1919": 6320,
      "Ġfans": 6321,
      "ĠAbd": 6322,
      "ĠEth": 6323,
      "North": 6324,
      "Ġstay": 6325,
      "Ġslight": 6326,
      "Ġstre": 6327,
      "ogen": 6328,
      "Ġcritical": 6329,
      "Ġexisting": 6330,
      "anton": 6331,
      "Ġpropos": 6332,
      "Ġaccident": 6333,
      "ĠNev": 6334,
      "Ġprice": 6335,
      "Ġfestival": 6336,
      "Ġcert": 6337,
      "Ġgod": 6338,
      "ĠSimon": 6339,
      "ĠHans": 6340,
      "ials": 6341,
      "Ġtower": 6342,
      "Ġroll": 6343,
      ";\"": 6344,
      "Ġimage": 6345,
      "Ġexpansion": 6346,
      "Ġcondition": 6347,
      "nie": 6348,
      "eding": 6349,
      "Ġsuggested": 6350,
      "Since": 6351,
      "Ġx": 6352,
      "Ġweight": 6353,
      "Ġbow": 6354,
      "ĠWing": 6355,
      "Ġhall": 6356,
      "Ġfighting": 6357,
      "Ġallowing": 6358,
      "Born": 6359,
      "La": 6360,
      "Ġ1928": 6361,
      "ĠDor": 6362,
      "ĠCroat": 6363,
      "TC": 6364,
      "Ġcompletely": 6365,
      "oes": 6366,
      "Ġsuggest": 6367,
      "Ġprep": 6368,
      "ĠWalter": 6369,
      "Ġunique": 6370,
      "ĠÄ": 6371,
      "1987": 6372,
      "Ġcart": 6373,
      "urrent": 6374,
      "94": 6375,
      "Ġgirls": 6376,
      "rees": 6377,
      "Ġsimply": 6378,
      "olas": 6379,
      "Ġ...": 6380,
      "rence": 6381,
      "Ġfelt": 6382,
      "2018": 6383,
      "Ġoppos": 6384,
      "Ġkil": 6385,
      "1986": 6386,
      "ĠOak": 6387,
      "Ġanimals": 6388,
      "ĠWolf": 6389,
      "Ġauthority": 6390,
      "ĠLouisiana": 6391,
      "ĠEric": 6392,
      "ban": 6393,
      "Ġcommittee": 6394,
      "oured": 6395,
      "ĠTit": 6396,
      "ardo": 6397,
      "atab": 6398,
      "istry": 6399,
      "vo": 6400,
      "Ġstatistics": 6401,
      "Ġconverted": 6402,
      "ĠPoint": 6403,
      "Cast": 6404,
      "ĠDVD": 6405,
      "irty": 6406,
      "Ġvisit": 6407,
      "Ġnominated": 6408,
      "elve": 6409,
      "ĠIndones": 6410,
      "ĠChair": 6411,
      "Rep": 6412,
      "ĠWhat": 6413,
      "Ġ1932": 6414,
      "Ġ(),": 6415,
      "1984": 6416,
      "dam": 6417,
      "iments": 6418,
      "Ġgrowing": 6419,
      "1985": 6420,
      "Ġrow": 6421,
      "Ġjazz": 6422,
      "Ġfinish": 6423,
      "Â°": 6424,
      "enh": 6425,
      "Ġpromotion": 6426,
      "pet": 6427,
      "Ġarrang": 6428,
      "inema": 6429,
      "emic": 6430,
      "rett": 6431,
      "acent": 6432,
      "ĠAud": 6433,
      "Ġparliament": 6434,
      "Ġtele": 6435,
      "Ġrapid": 6436,
      "Songs": 6437,
      "Sing": 6438,
      "Ġ1924": 6439,
      "ĠSilver": 6440,
      "Ġ37": 6441,
      "Ġthings": 6442,
      "issance": 6443,
      "ĠLow": 6444,
      "joy": 6445,
      "Ðµ": 6446,
      "ĠLeb": 6447,
      "ĠDream": 6448,
      "iki": 6449,
      "hips": 6450,
      "ĠJesus": 6451,
      "Ġcharts": 6452,
      "rat": 6453,
      "Ġtim": 6454,
      "ĠReport": 6455,
      "uled": 6456,
      "ĠDomin": 6457,
      "aver": 6458,
      "related": 6459,
      "Ġsides": 6460,
      "ographer": 6461,
      "Ġspot": 6462,
      "Ġshowed": 6463,
      "tsburgh": 6464,
      "iser": 6465,
      "Ġyour": 6466,
      "Ġ1931": 6467,
      "Ġopera": 6468,
      "ikh": 6469,
      "ĠCow": 6470,
      "Ġadvert": 6471,
      "Ġ1934": 6472,
      "ni": 6473,
      "Ġexchange": 6474,
      "ĠNick": 6475,
      "iller": 6476,
      "anes": 6477,
      "ĠStory": 6478,
      "Ġmaterials": 6479,
      "Ġbought": 6480,
      "à¤": 6481,
      "Ġmeasure": 6482,
      "unter": 6483,
      "PS": 6484,
      "ĠIV": 6485,
      "GB": 6486,
      "Ġearth": 6487,
      "92": 6488,
      "oen": 6489,
      "style": 6490,
      "ĠFal": 6491,
      "ĠTelevision": 6492,
      "ttp": 6493,
      "ĠMagazine": 6494,
      "Ġtried": 6495,
      "Ġlooking": 6496,
      "Ġstock": 6497,
      "ĠAuthor": 6498,
      "Ġ1922": 6499,
      "ĠDublin": 6500,
      "elli": 6501,
      "Ġmeant": 6502,
      "Ġcycl": 6503,
      "Ġaired": 6504,
      "Ġreturning": 6505,
      "ogy": 6506,
      "Ġletters": 6507,
      "Military": 6508,
      "Ġsixth": 6509,
      "rip": 6510,
      "ĠPrin": 6511,
      "Ġstream": 6512,
      "Ġseg": 6513,
      "ĠBillboard": 6514,
      "illing": 6515,
      "everal": 6516,
      "ĠHur": 6517,
      "Ġfolk": 6518,
      "www": 6519,
      "burn": 6520,
      "ĠAffairs": 6521,
      "from": 6522,
      "icians": 6523,
      "uties": 6524,
      "Ġdefined": 6525,
      "93": 6526,
      "song": 6527,
      "mont": 6528,
      "ĠArk": 6529,
      "Ġbrothers": 6530,
      "unications": 6531,
      "Ġlit": 6532,
      "achers": 6533,
      "Ġguest": 6534,
      "weet": 6535,
      "iami": 6536,
      "ĠSecurity": 6537,
      "Ġ1900": 6538,
      "ĠNich": 6539,
      "ĠDave": 6540,
      "ĠEag": 6541,
      "die": 6542,
      "1983": 6543,
      "Ġdefend": 6544,
      "Exp": 6545,
      "Ġapplied": 6546,
      "ĠReal": 6547,
      "Ġcustom": 6548,
      "Ġsets": 6549,
      "ĠDisc": 6550,
      "Ġresources": 6551,
      "Ġsons": 6552,
      "Ġproperties": 6553,
      "1960": 6554,
      "ĠWell": 6555,
      "ĠLat": 6556,
      "Ġsituation": 6557,
      "ĠPict": 6558,
      "ĠNap": 6559,
      "ĠDick": 6560,
      "car": 6561,
      "Ġarrested": 6562,
      "Ġfeet": 6563,
      "ĠWhit": 6564,
      "Ġreviews": 6565,
      "Ġnuclear": 6566,
      "1979": 6567,
      "........": 6568,
      "agues": 6569,
      "2019": 6570,
      "ĠEach": 6571,
      "Ġscientific": 6572,
      "ĠMississippi": 6573,
      "ĠTerrit": 6574,
      "ĠZh": 6575,
      "ĠJam": 6576,
      "Ġachieved": 6577,
      "het": 6578,
      "uses": 6579,
      "Ġconsum": 6580,
      "ĠJane": 6581,
      "Ġvot": 6582,
      "Ġ@": 6583,
      "iders": 6584,
      "Ġvehicle": 6585,
      "Ġjudge": 6586,
      "ouses": 6587,
      "Ġprepar": 6588,
      "ĠInn": 6589,
      "ĠHand": 6590,
      "ĠOd": 6591,
      "Ġdropped": 6592,
      "Sec": 6593,
      "ĠCost": 6594,
      "ĠAnne": 6595,
      "Ġsportspeople": 6596,
      "Ġfigures": 6597,
      "lov": 6598,
      "ĠSwitzerland": 6599,
      "ĠAmericans": 6600,
      "Ġhistorian": 6601,
      "Ġsettled": 6602,
      "ĠAnthony": 6603,
      "Ġaim": 6604,
      "Ġretirement": 6605,
      "orders": 6606,
      "ĠHonor": 6607,
      "Ġmachine": 6608,
      "ĠHouston": 6609,
      "ĠMoon": 6610,
      "Ġfair": 6611,
      "Ġalle": 6612,
      "ĠColomb": 6613,
      "Ġlot": 6614,
      "place": 6615,
      "Ġsingers": 6616,
      "1981": 6617,
      "Ġseats": 6618,
      "rif": 6619,
      "Ġattempts": 6620,
      "Ġends": 6621,
      "oly": 6622,
      "ĠBeng": 6623,
      "Ġ1921": 6624,
      "Euro": 6625,
      "Ġflood": 6626,
      "ussian": 6627,
      "jo": 6628,
      "Ġpartner": 6629,
      "ÈĻ": 6630,
      "ĠLike": 6631,
      "ĠCommonwealth": 6632,
      "Ġsomething": 6633,
      "Ġhousing": 6634,
      "Former": 6635,
      "85": 6636,
      "ĠAdam": 6637,
      "Ġpainter": 6638,
      "ressed": 6639,
      "ĠDark": 6640,
      "ĠBoys": 6641,
      "Ġfrequently": 6642,
      "nia": 6643,
      "Ġlaunch": 6644,
      "ĠChile": 6645,
      "agan": 6646,
      "ĠStone": 6647,
      "dale": 6648,
      "ĠSquare": 6649,
      "Ġdeploy": 6650,
      "Ġhy": 6651,
      "ĠGordon": 6652,
      "Ġroyal": 6653,
      "iable": 6654,
      "ĠGarden": 6655,
      "Ġlyrics": 6656,
      "oust": 6657,
      "ĠCape": 6658,
      "First": 6659,
      "Ġprint": 6660,
      "Ġraces": 6661,
      "ĠOffic": 6662,
      "ĠCel": 6663,
      "Ġdefin": 6664,
      "Ġ1927": 6665,
      "ĠNar": 6666,
      "Ġpublication": 6667,
      "Ġspect": 6668,
      "Jan": 6669,
      "Ġnecessary": 6670,
      "Ġstraight": 6671,
      "ĠQuebec": 6672,
      "Ġcontain": 6673,
      "ĠChristmas": 6674,
      "imens": 6675,
      "Ġcab": 6676,
      "inguished": 6677,
      "Buildings": 6678,
      "Qu": 6679,
      "ĠNorwegian": 6680,
      "Ġrelatively": 6681,
      "Ġchosen": 6682,
      "eland": 6683,
      "aux": 6684,
      "ĠTy": 6685,
      "cha": 6686,
      "box": 6687,
      "Ġnarrow": 6688,
      "zz": 6689,
      "ĠTar": 6690,
      "Ġprotection": 6691,
      "ĠLtd": 6692,
      "Ġpassenger": 6693,
      "onds": 6694,
      "Ġsurvey": 6695,
      "Ġchalleng": 6696,
      "ĠBanglades": 6697,
      "istol": 6698,
      "ĠPope": 6699,
      "ĠRose": 6700,
      "Ġmethods": 6701,
      "Ġrisk": 6702,
      "Ġproceed": 6703,
      "ĠStaff": 6704,
      "Ġunable": 6705,
      "Ġ1923": 6706,
      "Ġeffective": 6707,
      "Ġlocations": 6708,
      "ĠPhill": 6709,
      "ĠGallery": 6710,
      "Ġsubsequent": 6711,
      "Ġtownship": 6712,
      "pects": 6713,
      "ĠInformation": 6714,
      "ĠQueensland": 6715,
      "ĠRa": 6716,
      "ĠReb": 6717,
      "Ġalternative": 6718,
      "nergy": 6719,
      "Ġwear": 6720,
      "ĠKat": 6721,
      "letes": 6722,
      "Roman": 6723,
      "orf": 6724,
      "Ġmorning": 6725,
      "Following": 6726,
      "ista": 6727,
      "pa": 6728,
      "Public": 6729,
      "igation": 6730,
      "Ġbroke": 6731,
      "Ġholds": 6732,
      "oyd": 6733,
      "ĠTurkish": 6734,
      "Ġcalc": 6735,
      "Ġ1910": 6736,
      "Ġhero": 6737,
      "lines": 6738,
      "Ġsac": 6739,
      "1982": 6740,
      "Ġending": 6741,
      "Ġperforming": 6742,
      "inch": 6743,
      "ĠPatrick": 6744,
      "unes": 6745,
      "Ġfought": 6746,
      "Ġadvanced": 6747,
      "stan": 6748,
      "ĠAD": 6749,
      "Ġ34": 6750,
      "Ġrefused": 6751,
      "Ġenemy": 6752,
      "awn": 6753,
      "Ġobtained": 6754,
      "rete": 6755,
      "Ġmerged": 6756,
      "ĠDouglas": 6757,
      "Ġpassengers": 6758,
      "Ġnob": 6759,
      "ÅŁ": 6760,
      "Ġglobal": 6761,
      "borough": 6762,
      "SC": 6763,
      "oming": 6764,
      "wise": 6765,
      "ĠModern": 6766,
      "ĠPortuguese": 6767,
      "Ġhot": 6768,
      "Ġsquare": 6769,
      "Ġextensive": 6770,
      "UK": 6771,
      "Reg": 6772,
      "ĠNag": 6773,
      "Ġprofile": 6774,
      "Ġrang": 6775,
      "Ġneeds": 6776,
      "ĠCab": 6777,
      "rupt": 6778,
      "Ġdrive": 6779,
      "Ġactions": 6780,
      "Ġplanning": 6781,
      "odox": 6782,
      "Ġfields": 6783,
      "Ap": 6784,
      "inder": 6785,
      "rine": 6786,
      "Ġpilot": 6787,
      "ĠKam": 6788,
      "Ġrain": 6789,
      "Ġchampions": 6790,
      "Ġstarring": 6791,
      "ĠPot": 6792,
      "Ġbeaut": 6793,
      "Ġseem": 6794,
      "Ġapproved": 6795,
      "Ġinspired": 6796,
      "Ġharm": 6797,
      "Ġcompris": 6798,
      "Ġweapons": 6799,
      "ĠNow": 6800,
      "ieval": 6801,
      "ĠHills": 6802,
      "Ġrob": 6803,
      "Ġcho": 6804,
      "ĠPrefecture": 6805,
      "uh": 6806,
      "Ġresc": 6807,
      "Ġonto": 6808,
      "Ġtemple": 6809,
      "Ġcontaining": 6810,
      "Ġhousehold": 6811,
      "Ġmemory": 6812,
      "agen": 6813,
      "rome": 6814,
      "aming": 6815,
      "onom": 6816,
      "Ġschem": 6817,
      "ĠRecord": 6818,
      "Har": 6819,
      "Ġcenturies": 6820,
      "Phil": 6821,
      "don": 6822,
      "Ġhorse": 6823,
      "ĠKey": 6824,
      "Ġvotes": 6825,
      "ĠAlan": 6826,
      "ĠNiger": 6827,
      "Ġ1915": 6828,
      "stitutional": 6829,
      "prise": 6830,
      "ĠBase": 6831,
      "iva": 6832,
      "Ġtrees": 6833,
      "Ġaudience": 6834,
      "ĠArgentina": 6835,
      "allel": 6836,
      "Ġox": 6837,
      "zen": 6838,
      "ĠWho": 6839,
      "87": 6840,
      "ĠFellow": 6841,
      "ĠDak": 6842,
      "ĠTig": 6843,
      "Art": 6844,
      "ĠBan": 6845,
      "Ġcreating": 6846,
      "91": 6847,
      "Ġbillion": 6848,
      "Ġ1912": 6849,
      "Ġdriver": 6850,
      "ĠLabour": 6851,
      "ĠMember": 6852,
      "Official": 6853,
      "Ġcompetitions": 6854,
      "ecutive": 6855,
      "Ġconsisted": 6856,
      "ĠBaltimore": 6857,
      "Ġreject": 6858,
      "Ġexclus": 6859,
      "Ġunderst": 6860,
      "Ġcompilation": 6861,
      "Ġconfirmed": 6862,
      "ourses": 6863,
      "While": 6864,
      "Ġrot": 6865,
      "Ġmind": 6866,
      "ĠAge": 6867,
      "\"),": 6868,
      "ĠPalest": 6869,
      "Ġattempted": 6870,
      "Ġclimate": 6871,
      "ĠSel": 6872,
      "PA": 6873,
      "Ġdirectors": 6874,
      "stream": 6875,
      "ĠAntonio": 6876,
      "Ass": 6877,
      "ĠChildren": 6878,
      "Ġeconomy": 6879,
      "Ġshared": 6880,
      "Ġsan": 6881,
      "ĠRoll": 6882,
      "Ġtrou": 6883,
      "Life": 6884,
      "secutive": 6885,
      "fit": 6886,
      "Ġconvers": 6887,
      "oa": 6888,
      "ifically": 6889,
      "Ġapplication": 6890,
      "ĠMit": 6891,
      "ryst": 6892,
      "Ġpainting": 6893,
      "Ġliber": 6894,
      "Ġguard": 6895,
      "Some": 6896,
      "Ġpiece": 6897,
      "Ġcastle": 6898,
      "ĠDoctor": 6899,
      "Ġdefense": 6900,
      "Plot": 6901,
      "ĠĊĠĊĠĊĠĊ": 6902,
      "phas": 6903,
      "Ġoccupied": 6904,
      "ĠBuddh": 6905,
      "ĠGard": 6906,
      "iversary": 6907,
      "ĠWelsh": 6908,
      "Ġopposition": 6909,
      "ĠKarl": 6910,
      "1978": 6911,
      "Ġwinter": 6912,
      "Ġopposed": 6913,
      "Ġcopies": 6914,
      "Best": 6915,
      "Ġyellow": 6916,
      "To": 6917,
      "Ġtheor": 6918,
      "Ġfounding": 6919,
      "ĠMand": 6920,
      "isters": 6921,
      "ĠSri": 6922,
      "zer": 6923,
      "aza": 6924,
      "ĠIl": 6925,
      "iab": 6926,
      "scape": 6927,
      "ĠMoore": 6928,
      "ĠRugby": 6929,
      "Ġentitled": 6930,
      "Ġ1926": 6931,
      "ridges": 6932,
      "ĠSenior": 6933,
      "orter": 6934,
      "Ġcovers": 6935,
      "night": 6936,
      "Ġ1925": 6937,
      "gor": 6938,
      "Ġdiplom": 6939,
      "Ġeducational": 6940,
      "Ġfranch": 6941,
      "ĠDead": 6942,
      "lad": 6943,
      "''": 6944,
      "ĠThird": 6945,
      "SI": 6946,
      "ĠBelgium": 6947,
      "olec": 6948,
      "Ġrival": 6949,
      "azines": 6950,
      "Af": 6951,
      "ĠDal": 6952,
      "Ġ49": 6953,
      "Ġhydro": 6954,
      "Ġoffices": 6955,
      "ĠSchools": 6956,
      "osed": 6957,
      "ĠProt": 6958,
      "Ġimpl": 6959,
      "risis": 6960,
      "mit": 6961,
      "ĠAM": 6962,
      "Ġlearning": 6963,
      "ĠMach": 6964,
      "Ġpowers": 6965,
      "ĠNaval": 6966,
      "March": 6967,
      "olo": 6968,
      "ĠNeb": 6969,
      "Ġfuel": 6970,
      "Ġattacked": 6971,
      "ĠSin": 6972,
      "thes": 6973,
      "67": 6974,
      "Ġhabit": 6975,
      "ĠRun": 6976,
      "ĠDist": 6977,
      "ĠKy": 6978,
      "Ġfinds": 6979,
      "Ġkick": 6980,
      "fe": 6981,
      "ĠGram": 6982,
      "ĠBou": 6983,
      "Ġpasses": 6984,
      "Ġenvironmental": 6985,
      "Ġlat": 6986,
      "ugoslav": 6987,
      "Ġrh": 6988,
      "ĠDeath": 6989,
      "1974": 6990,
      "Ġactresses": 6991,
      "Video": 6992,
      "ĠBuck": 6993,
      "uilt": 6994,
      "Ġtribut": 6995,
      "irt": 6996,
      "Ġrecordings": 6997,
      "ĠAdvent": 6998,
      "ĠRoberts": 6999,
      "Ġovers": 7000,
      "Ġnormal": 7001,
      "ishops": 7002,
      "Ġfunctions": 7003,
      "Ġvirt": 7004,
      "Ġtry": 7005,
      "Over": 7006,
      "Ġrecip": 7007,
      "ordan": 7008,
      "Sportspeople": 7009,
      "65": 7010,
      "ĠFarm": 7011,
      "ĠPublishing": 7012,
      "alem": 7013,
      "ĠNCAA": 7014,
      "ĠPrix": 7015,
      "Ġsoccer": 7016,
      "fall": 7017,
      "Ġcontained": 7018,
      "rep": 7019,
      "Ġmulti": 7020,
      "ayan": 7021,
      "Ġinternal": 7022,
      "ĠAle": 7023,
      "Ġmatter": 7024,
      "gal": 7025,
      "obe": 7026,
      "Ġpowerful": 7027,
      "Ġvalley": 7028,
      "Ġscript": 7029,
      "oviÄĩ": 7030,
      "Ġincident": 7031,
      "igenous": 7032,
      "leased": 7033,
      "Ġbasic": 7034,
      "Ġacts": 7035,
      "Per": 7036,
      "Ġbul": 7037,
      "ĠRailroad": 7038,
      "bach": 7039,
      "Ġmayor": 7040,
      "ĠHarris": 7041,
      "adow": 7042,
      "uj": 7043,
      "ĠLyn": 7044,
      "Ġcomic": 7045,
      "ensity": 7046,
      "Ġshortly": 7047,
      "onder": 7048,
      "ĠGer": 7049,
      "ĠStew": 7050,
      "Ġcolleges": 7051,
      "Ġvisited": 7052,
      "Ġlocomot": 7053,
      "ĠCleveland": 7054,
      "Ġvent": 7055,
      "Ġsetting": 7056,
      "Ġadvance": 7057,
      "Ġvice": 7058,
      "ellite": 7059,
      "ĠâĢĺ": 7060,
      "Ġacid": 7061,
      "olley": 7062,
      "Ġethnic": 7063,
      "Ġloan": 7064,
      "Ġreligion": 7065,
      "rect": 7066,
      "Ġauth": 7067,
      "Ġ(;": 7068,
      "ĠKings": 7069,
      "uma": 7070,
      "ĠMargar": 7071,
      "Ġconsecutive": 7072,
      "lets": 7073,
      "udget": 7074,
      "ĠCru": 7075,
      "Ġderived": 7076,
      "ĠLiter": 7077,
      "come": 7078,
      "ĠKaz": 7079,
      "amo": 7080,
      "iful": 7081,
      "Ġcompar": 7082,
      "Ġhyp": 7083,
      "Ġsteel": 7084,
      "2020": 7085,
      "Ġtall": 7086,
      "1977": 7087,
      "Education": 7088,
      "ensis": 7089,
      "ĠHotel": 7090,
      "Ġsay": 7091,
      "thodox": 7092,
      "ĠFighter": 7093,
      "Expatriate": 7094,
      "east": 7095,
      "ando": 7096,
      "Ġring": 7097,
      "Sup": 7098,
      "Ġrein": 7099,
      "Ġtechnical": 7100,
      "ĠConvention": 7101,
      "Major": 7102,
      "Ġbegin": 7103,
      "Ġpermanent": 7104,
      "Ġmis": 7105,
      "ivate": 7106,
      "Ġbey": 7107,
      "Ġenjoy": 7108,
      "Ġnegot": 7109,
      "ĠDanish": 7110,
      "fully": 7111,
      "Ġcalls": 7112,
      "Ġpassing": 7113,
      "Ã³w": 7114,
      "urday": 7115,
      "ashi": 7116,
      "ĠHug": 7117,
      "uct": 7118,
      "anger": 7119,
      "hard": 7120,
      "Ġrecognition": 7121,
      "Ġpremier": 7122,
      "Ġjunior": 7123,
      "Ġ*": 7124,
      "riev": 7125,
      "Ġprogramme": 7126,
      "Ġrefers": 7127,
      "aved": 7128,
      "ĠLor": 7129,
      "eston": 7130,
      "appe": 7131,
      "Ġregiment": 7132,
      "Ġcommissioned": 7133,
      "ĠAtlanta": 7134,
      "ser": 7135,
      "ĠGre": 7136,
      "Ext": 7137,
      "ĠFinn": 7138,
      "Histor": 7139,
      "ĠRey": 7140,
      "Ġemployed": 7141,
      "ĠMap": 7142,
      "hat": 7143,
      "Ġbra": 7144,
      "RC": 7145,
      "Ġindependence": 7146,
      "Ġ1916": 7147,
      "83": 7148,
      "Ġvo": 7149,
      "active": 7150,
      "orage": 7151,
      "thletes": 7152,
      "Cont": 7153,
      "ĠNA": 7154,
      "Ġrough": 7155,
      "Ġstrength": 7156,
      "ĠRhode": 7157,
      "ĠSix": 7158,
      "1976": 7159,
      "boards": 7160,
      "ĠDa": 7161,
      "ocation": 7162,
      "Ġtouchdown": 7163,
      "Ġsimple": 7164,
      "Ġultimately": 7165,
      "Ġoppon": 7166,
      "Background": 7167,
      "Ġpolic": 7168,
      "yers": 7169,
      "ĠFrederick": 7170,
      "Ġ300": 7171,
      "otic": 7172,
      "ĠLast": 7173,
      "zh": 7174,
      "Ġiron": 7175,
      "Ġreceiving": 7176,
      "ĠBry": 7177,
      "ĠBuff": 7178,
      "where": 7179,
      "ĠEc": 7180,
      "Academ": 7181,
      "ĠMcG": 7182,
      "lease": 7183,
      "ographical": 7184,
      "ĠLanc": 7185,
      "Ġdynasty": 7186,
      "Ġbeyond": 7187,
      "ĠBomb": 7188,
      "iner": 7189,
      "angel": 7190,
      "64": 7191,
      "84": 7192,
      "run": 7193,
      "Ġprotein": 7194,
      "antic": 7195,
      "Ġinvasion": 7196,
      "ĠDiocese": 7197,
      "ĠNik": 7198,
      "urisd": 7199,
      "Ġsense": 7200,
      "nold": 7201,
      "ĠFriend": 7202,
      "Ġpoll": 7203,
      "Ġphase": 7204,
      "ĠIron": 7205,
      "ĠAli": 7206,
      "ologies": 7207,
      "leans": 7208,
      "Ġchurches": 7209,
      "ĠVis": 7210,
      "Ġ(,": 7211,
      "Ġcontrast": 7212,
      "Ġpun": 7213,
      "Ġcorner": 7214,
      "antasy": 7215,
      "ussion": 7216,
      "1973": 7217,
      "pan": 7218,
      "Ġimpr": 7219,
      "ĠSport": 7220,
      "ĠBangladesh": 7221,
      "igious": 7222,
      "Ġ42": 7223,
      "ĠPap": 7224,
      "IN": 7225,
      "Ġ1908": 7226,
      "ĠLas": 7227,
      "Ġcritics": 7228,
      "Ġadult": 7229,
      "Ġinstall": 7230,
      "Ġsust": 7231,
      "Ġvenues": 7232,
      "otte": 7233,
      "isms": 7234,
      "Ġconstant": 7235,
      "Ġheight": 7236,
      "ĠDC": 7237,
      "Mich": 7238,
      "DA": 7239,
      "ĠKl": 7240,
      "Cent": 7241,
      "Ġdomestic": 7242,
      "1972": 7243,
      "ĠSamuel": 7244,
      "ĠWorks": 7245,
      "Ġamb": 7246,
      "1950": 7247,
      "Ġattribut": 7248,
      "achelor": 7249,
      "arks": 7250,
      "ĠIsraeli": 7251,
      "Ġdetermined": 7252,
      "wen": 7253,
      "cycl": 7254,
      "ĠVik": 7255,
      "icide": 7256,
      "cell": 7257,
      "Ste": 7258,
      "term": 7259,
      "à¸": 7260,
      "essed": 7261,
      "Ġmagn": 7262,
      "Although": 7263,
      "key": 7264,
      "gency": 7265,
      "III": 7266,
      "ĠWy": 7267,
      "ĠBefore": 7268,
      "Ġconsult": 7269,
      "Ġvac": 7270,
      "point": 7271,
      "ĠStudios": 7272,
      "ĠPhys": 7273,
      "ĠDur": 7274,
      "ĠNa": 7275,
      "Ġpieces": 7276,
      "Ġbishop": 7277,
      "ĠMalaysia": 7278,
      "chi": 7279,
      "Ġways": 7280,
      "82": 7281,
      "Vill": 7282,
      "ĠOperation": 7283,
      "Ġrestaurant": 7284,
      "ĠHunt": 7285,
      "othing": 7286,
      "iverpool": 7287,
      "Ġfailure": 7288,
      "rait": 7289,
      "Ġholding": 7290,
      "Ġavoid": 7291,
      "ĠFac": 7292,
      "ĠPortugal": 7293,
      "rama": 7294,
      "Ġhired": 7295,
      "olly": 7296,
      "ĠUtah": 7297,
      "heastern": 7298,
      "ĠAC": 7299,
      "Ġstorm": 7300,
      "Ġidentity": 7301,
      "ĠKevin": 7302,
      "Ġescape": 7303,
      "Ġcontributed": 7304,
      "1975": 7305,
      "Ġlicens": 7306,
      "Play": 7307,
      "Women": 7308,
      "ĠBerg": 7309,
      "friend": 7310,
      "ĠSac": 7311,
      "Ġestablishment": 7312,
      "ãĥ": 7313,
      "Japanese": 7314,
      "ĠGirls": 7315,
      "Ġaged": 7316,
      "ĠExpress": 7317,
      "Car": 7318,
      "ĠFall": 7319,
      "ĠToday": 7320,
      "ĠMem": 7321,
      "ĠJuan": 7322,
      "Ġcomput": 7323,
      "Ġabandoned": 7324,
      "David": 7325,
      "anny": 7326,
      "ĠPittsburgh": 7327,
      "ĠDance": 7328,
      "Ġcru": 7329,
      "ĠMatthew": 7330,
      "ÃŃn": 7331,
      "avalry": 7332,
      "ĠMiami": 7333,
      "rane": 7334,
      "film": 7335,
      "Star": 7336,
      "aby": 7337,
      "enez": 7338,
      "Ġglass": 7339,
      "adi": 7340,
      "ĠLawrence": 7341,
      "81": 7342,
      "bishop": 7343,
      "elson": 7344,
      "Ġappoint": 7345,
      "Ġentrance": 7346,
      "ahn": 7347,
      "Ġstandards": 7348,
      "incorporated": 7349,
      "Ġheard": 7350,
      "Scott": 7351,
      "ĠArchitect": 7352,
      ";\"|": 7353,
      "Leg": 7354,
      "Ġ1913": 7355,
      "vements": 7356,
      "Ġsuccessfully": 7357,
      "Ġtranslation": 7358,
      "ĠSeattle": 7359,
      "ÅĦ": 7360,
      "Ġrise": 7361,
      "ĠMcK": 7362,
      "Ġgather": 7363,
      "uda": 7364,
      "Ġsupporting": 7365,
      "ĠKa": 7366,
      "ĠVin": 7367,
      "ĠAfghanistan": 7368,
      "Ġconnection": 7369,
      "orough": 7370,
      "Ġhits": 7371,
      "Ã©s": 7372,
      "ĠKnight": 7373,
      "Ġmel": 7374,
      "ĠBroadcast": 7375,
      "while": 7376,
      "ureau": 7377,
      "antage": 7378,
      "rons": 7379,
      "asa": 7380,
      "Ġgar": 7381,
      "ouver": 7382,
      "Ġroof": 7383,
      "Ġbands": 7384,
      "Ġalleged": 7385,
      "ĠOrleans": 7386,
      "mith": 7387,
      "Ġlawyer": 7388,
      "stead": 7389,
      "Ġkilling": 7390,
      "\").": 7391,
      "ĠInternet": 7392,
      "ĠTrib": 7393,
      "Ab": 7394,
      "Ġeffic": 7395,
      "ologists": 7396,
      "ĠAndre": 7397,
      "Ġanimal": 7398,
      "BI": 7399,
      "ĠTan": 7400,
      "Ġfashion": 7401,
      "aha": 7402,
      "living": 7403,
      "61": 7404,
      "Ġsector": 7405,
      "ĠGrant": 7406,
      "ĠÃī": 7407,
      "Ġslightly": 7408,
      "ĠPa": 7409,
      "Ġdeleg": 7410,
      "Ġmaintained": 7411,
      "Ġexplicit": 7412,
      "ĠThrough": 7413,
      "Ġnick": 7414,
      "Ġgeneration": 7415,
      "ĠTur": 7416,
      "Ġmyst": 7417,
      "ĠPlace": 7418,
      "Ġsought": 7419,
      "ĠEnvironment": 7420,
      "Ġarran": 7421,
      "ĠSky": 7422,
      "Ġsquadron": 7423,
      "Ġuniversities": 7424,
      "ĠRoger": 7425,
      "rainian": 7426,
      "Ġpoetry": 7427,
      "ĠLieutenant": 7428,
      "inners": 7429,
      "ĠOnly": 7430,
      "Ġtemperature": 7431,
      "ĠYank": 7432,
      "Ġ75": 7433,
      "Ġpresidential": 7434,
      "ĠHistorical": 7435,
      "icts": 7436,
      "Ġrear": 7437,
      "ĠPed": 7438,
      "ĠDenmark": 7439,
      "Ð½": 7440,
      "ĠLiberal": 7441,
      "Ġmand": 7442,
      "atabase": 7443,
      "including": 7444,
      "Ġdecades": 7445,
      "Ġ400": 7446,
      "span": 7447,
      "Ġengaged": 7448,
      "ĠHarvard": 7449,
      "ĠClin": 7450,
      "ĠTel": 7451,
      "ĠImperial": 7452,
      "ÑĢ": 7453,
      "ĠLog": 7454,
      "elected": 7455,
      "Treat": 7456,
      "idden": 7457,
      "Port": 7458,
      "owned": 7459,
      "ĠUkraine": 7460,
      "urray": 7461,
      "Ġextrem": 7462,
      "ĠTreat": 7463,
      "IV": 7464,
      "raska": 7465,
      "olph": 7466,
      "ĠHawai": 7467,
      "Ġmaximum": 7468,
      "EFA": 7469,
      "ĠAmong": 7470,
      "ocked": 7471,
      "ĠProte": 7472,
      "ĠOri": 7473,
      "Ġstarts": 7474,
      "set": 7475,
      "uration": 7476,
      "odge": 7477,
      "abad": 7478,
      "Ġliterary": 7479,
      "Ġcriminal": 7480,
      "ĠCall": 7481,
      "Ġ1911": 7482,
      "OR": 7483,
      "ĠIndependent": 7484,
      "Rober": 7485,
      "Ġpatients": 7486,
      "Ġdecre": 7487,
      "Ġlect": 7488,
      "Ġincome": 7489,
      "Ġherself": 7490,
      "Ġdeveloping": 7491,
      "1971": 7492,
      "gers": 7493,
      "ĠBasketball": 7494,
      "ĠPear": 7495,
      "ĠIslamic": 7496,
      "Ã¥": 7497,
      "ĠDallas": 7498,
      "isf": 7499,
      "Ġcausing": 7500,
      "file": 7501,
      "Ġcourts": 7502,
      "ĠBruce": 7503,
      "1968": 7504,
      "Ġregarding": 7505,
      "ocratic": 7506,
      "ĠDefense": 7507,
      "Ġmetres": 7508,
      "start": 7509,
      "Ġconsisting": 7510,
      "Ġdecor": 7511,
      "Ġfunding": 7512,
      "ĠSn": 7513,
      "ĠDeb": 7514,
      "eless": 7515,
      "Ġcas": 7516,
      "orus": 7517,
      "Ġrepresentative": 7518,
      "Ġemphas": 7519,
      "ĠProdu": 7520,
      "Ġwrite": 7521,
      "ĠYouth": 7522,
      "Ġmerch": 7523,
      "ĠMaine": 7524,
      "ĠRussell": 7525,
      "ĠSR": 7526,
      "last": 7527,
      "ĠEarly": 7528,
      "Ġreflect": 7529,
      "oche": 7530,
      "Ġdetect": 7531,
      "Ju": 7532,
      "HS": 7533,
      "ĠSymph": 7534,
      "father": 7535,
      "uki": 7536,
      "Ġdisplay": 7537,
      "hing": 7538,
      "ĠRick": 7539,
      "School": 7540,
      "ĠDean": 7541,
      "Ġequal": 7542,
      "San": 7543,
      "Ġresistance": 7544,
      "ĠEnergy": 7545,
      "ĠFr": 7546,
      "Ġfocused": 7547,
      "ĠMans": 7548,
      "ĠNob": 7549,
      "ĠElement": 7550,
      "uri": 7551,
      "Ġinstru": 7552,
      "ishment": 7553,
      "Ġheavily": 7554,
      "ĠGab": 7555,
      "arsh": 7556,
      "ĠRepresentative": 7557,
      "Ġtheater": 7558,
      "Ġalone": 7559,
      "Ġinaug": 7560,
      "Ġanth": 7561,
      "Ġislands": 7562,
      "Ġrare": 7563,
      "ĠAlexand": 7564,
      "erved": 7565,
      "ĠBecause": 7566,
      "Ġreasons": 7567,
      "Ġjurisd": 7568,
      "ĠAdministration": 7569,
      "Ġfinishing": 7570,
      "Ġnortheast": 7571,
      "Ġaid": 7572,
      "Ġrespond": 7573,
      "ĠBed": 7574,
      "Ġfunds": 7575,
      "chell": 7576,
      "Ġinvolving": 7577,
      "Ġagricultural": 7578,
      "Ġtrying": 7579,
      "Ġstrike": 7580,
      "Ġreaching": 7581,
      "unction": 7582,
      "Ġhour": 7583,
      "apted": 7584,
      "Ġsignal": 7585,
      "liest": 7586,
      "ĠMountains": 7587,
      "62": 7588,
      "ĠFund": 7589,
      "Ġtoward": 7590,
      "Albums": 7591,
      "Ġorders": 7592,
      "ĠShah": 7593,
      "har": 7594,
      "ĠRomania": 7595,
      "Ġresear": 7596,
      "ester": 7597,
      "Station": 7598,
      "ĠBeat": 7599,
      "ĠPir": 7600,
      "Ġfaced": 7601,
      "Ġemp": 7602,
      "Ġbirds": 7603,
      "istant": 7604,
      "Ġdoing": 7605,
      "ĠReserve": 7606,
      "Ġsynd": 7607,
      "ugar": 7608,
      "Ġspok": 7609,
      "Ġviolence": 7610,
      "ĠPlayer": 7611,
      "ĠPalace": 7612,
      "ĠLin": 7613,
      "Ġvisual": 7614,
      "Ġmart": 7615,
      "ĠBrothers": 7616,
      "ĠJosÃ©": 7617,
      "Ġscenes": 7618,
      "lay": 7619,
      "ĠMetropolitan": 7620,
      "ĠExt": 7621,
      "Ġintroduction": 7622,
      "ĠConstitution": 7623,
      "Ġshall": 7624,
      "Ġtick": 7625,
      "ĠChall": 7626,
      "ĠLang": 7627,
      "gow": 7628,
      "after": 7629,
      "Personnel": 7630,
      "ĠAlfred": 7631,
      "Ġprotect": 7632,
      "roc": 7633,
      "Ġformal": 7634,
      "Ġpartnership": 7635,
      "ĠCook": 7636,
      "ivated": 7637,
      "ampton": 7638,
      "ĠTun": 7639,
      "ĠHampshire": 7640,
      "ĠOriginal": 7641,
      "Pol": 7642,
      "ĠMaur": 7643,
      "found": 7644,
      "Ġdefensive": 7645,
      "rav": 7646,
      "ĠJay": 7647,
      "ĊĊĠĊ": 7648,
      "Ġpione": 7649,
      "Ġrenov": 7650,
      "atus": 7651,
      "emble": 7652,
      "equ": 7653,
      "ĠGon": 7654,
      "ivalent": 7655,
      "Ġplot": 7656,
      "GA": 7657,
      "Ġwealth": 7658,
      "Ġexistence": 7659,
      "ega": 7660,
      "Ġboys": 7661,
      "Ġoperate": 7662,
      "Ġconce": 7663,
      "rak": 7664,
      "ailand": 7665,
      "ĠRights": 7666,
      "Ġsolid": 7667,
      "Ġsubsid": 7668,
      "Ġbehavior": 7669,
      "Ġsum": 7670,
      "Ġcauses": 7671,
      "Ġbriefly": 7672,
      "ĠOpera": 7673,
      "August": 7674,
      "Ġpages": 7675,
      "ĠWalker": 7676,
      "Ġ48": 7677,
      "High": 7678,
      "Ġfleet": 7679,
      "72": 7680,
      "Ġincorporated": 7681,
      "Ġguns": 7682,
      "Ġcarry": 7683,
      "ĠMrs": 7684,
      "Rel": 7685,
      "ĠAdams": 7686,
      "Ġworldwide": 7687,
      "ancouver": 7688,
      "Ġpull": 7689,
      "ĠGri": 7690,
      "Ġwalls": 7691,
      "ĠLeban": 7692,
      "Indian": 7693,
      "ĠEver": 7694,
      "ĠLl": 7695,
      "ĠMargaret": 7696,
      "clusion": 7697,
      "tery": 7698,
      "ĠMission": 7699,
      "Ġcollected": 7700,
      "Ġdivisions": 7701,
      "onian": 7702,
      "ĠWhe": 7703,
      "ĠPrincess": 7704,
      "Ġsale": 7705,
      "top": 7706,
      "1969": 7707,
      "Ġfavour": 7708,
      "pir": 7709,
      "Reception": 7710,
      "Ġresigned": 7711,
      "ĠCre": 7712,
      "EA": 7713,
      "Ġproved": 7714,
      "ĠStewart": 7715,
      "James": 7716,
      "ĠPeace": 7717,
      "Ġban": 7718,
      "ĠFA": 7719,
      "Ġrepresenting": 7720,
      "Ġcomposers": 7721,
      "Ġadvent": 7722,
      "Ġbill": 7723,
      "apes": 7724,
      "Ġpoly": 7725,
      "=\"#": 7726,
      "ĠThompson": 7727,
      "Ġreign": 7728,
      "Europe": 7729,
      "Ele": 7730,
      "rik": 7731,
      "ĠHop": 7732,
      "Ġchemical": 7733,
      "ĠGuide": 7734,
      "Ġinstalled": 7735,
      "Ġselection": 7736,
      "Ġvolunte": 7737,
      "ĠHollywood": 7738,
      "ailed": 7739,
      "Ġexpressed": 7740,
      "Ġcrow": 7741,
      "bridge": 7742,
      "ns": 7743,
      "rations": 7744,
      "Ġkilomet": 7745,
      "Ġadmitted": 7746,
      "ĠWebsite": 7747,
      "Ġcourses": 7748,
      "ĠThen": 7749,
      "2021": 7750,
      "Ġsurname": 7751,
      "ĠBlues": 7752,
      "eenth": 7753,
      "--": 7754,
      "long": 7755,
      "ĠBilly": 7756,
      "Ġinvestigation": 7757,
      "ĠHom": 7758,
      "Ġpup": 7759,
      "74": 7760,
      "inburgh": 7761,
      "ĠHorn": 7762,
      "Ġdrivers": 7763,
      "haps": 7764,
      "Ġentirely": 7765,
      "ĠRobinson": 7766,
      "iah": 7767,
      "Ġspeech": 7768,
      "ĠSee": 7769,
      "Ġdoctor": 7770,
      "ĠGiants": 7771,
      "79": 7772,
      "mingham": 7773,
      "Ġlaid": 7774,
      "atherine": 7775,
      "ĠFern": 7776,
      "Ġquite": 7777,
      "Ġtwelve": 7778,
      "Inter": 7779,
      "Ġquant": 7780,
      "Ġ44": 7781,
      "Ġrequest": 7782,
      "ĠKennedy": 7783,
      "ĠCrown": 7784,
      "ultan": 7785,
      "ĠUN": 7786,
      "Ġreleg": 7787,
      "Ġcategory": 7788,
      "ĠVillage": 7789,
      "Em": 7790,
      "inian": 7791,
      "ĠOttoman": 7792,
      "irds": 7793,
      "ĠLiverpool": 7794,
      "itionally": 7795,
      "auk": 7796,
      "mat": 7797,
      "ĠHungary": 7798,
      "Ġbodies": 7799,
      "Ġobserved": 7800,
      "ĠRound": 7801,
      "Ġparallel": 7802,
      "ĠPas": 7803,
      "ĠAustrian": 7804,
      "Ġlands": 7805,
      "Ġprefer": 7806,
      "inter": 7807,
      "Ġstrateg": 7808,
      "Bar": 7809,
      "anned": 7810,
      "ĠCommander": 7811,
      "Ġchoice": 7812,
      "Ġextension": 7813,
      "essions": 7814,
      "orkshire": 7815,
      "ĠFather": 7816,
      "oka": 7817,
      "ĠMontreal": 7818,
      "1967": 7819,
      "ĠFil": 7820,
      "Ġconvent": 7821,
      "Ġscale": 7822,
      "mi": 7823,
      "ĠMorgan": 7824,
      "Ġreserve": 7825,
      "Ġregarded": 7826,
      "Ġadjacent": 7827,
      "ĠSwiss": 7828,
      "Ġsettle": 7829,
      "68": 7830,
      "Ġinjured": 7831,
      "Ġexperien": 7832,
      "ĠWright": 7833,
      "Flor": 7834,
      "Ġille": 7835,
      "porter": 7836,
      "Ġedited": 7837,
      "ĠEven": 7838,
      "Ġda": 7839,
      "Ġneighbour": 7840,
      "Club": 7841,
      "ĠBush": 7842,
      "Arch": 7843,
      "ĠMetro": 7844,
      "))": 7845,
      "63": 7846,
      "amic": 7847,
      "Ġboat": 7848,
      "Ġapplications": 7849,
      "ythm": 7850,
      "ĠNBA": 7851,
      "Ġshape": 7852,
      "Ġpromote": 7853,
      "hr": 7854,
      "fficient": 7855,
      "Ġcore": 7856,
      "Her": 7857,
      "Ġ41": 7858,
      "ci": 7859,
      "71": 7860,
      "then": 7861,
      "Ġstores": 7862,
      "LC": 7863,
      "Ġindu": 7864,
      "ĠHere": 7865,
      "ĠGlobal": 7866,
      "oni": 7867,
      "ĠRain": 7868,
      "incinn": 7869,
      "ĠRy": 7870,
      "Ġtrav": 7871,
      "Ġsand": 7872,
      "idel": 7873,
      "ĠPuerto": 7874,
      "ĠGlas": 7875,
      "rastructure": 7876,
      "ĠBernard": 7877,
      "Bel": 7878,
      "ĠMicro": 7879,
      "ĠLank": 7880,
      "ithuan": 7881,
      "hematics": 7882,
      "ĠHeritage": 7883,
      "ishments": 7884,
      "Ġtechniques": 7885,
      "%.": 7886,
      "Ġgrade": 7887,
      "Writ": 7888,
      "Ġfoundation": 7889,
      "million": 7890,
      "Ġgetting": 7891,
      "ĠDakota": 7892,
      "nest": 7893,
      "Ġdiam": 7894,
      "poses": 7895,
      "1940": 7896,
      "ĠNatural": 7897,
      "Ġunsuccess": 7898,
      "ĠSaf": 7899,
      "ĠNorman": 7900,
      "Ġbroken": 7901,
      "Ġrailroad": 7902,
      "Italian": 7903,
      "Ġathletic": 7904,
      "Ġceremony": 7905,
      "Ġwatch": 7906,
      "Ġclosely": 7907,
      "ĠCrit": 7908,
      "Ġcrossing": 7909,
      "Ġdates": 7910,
      "Ġhill": 7911,
      "Ġobjects": 7912,
      "Black": 7913,
      "olt": 7914,
      "Ġoccurs": 7915,
      "Ġtennis": 7916,
      "ducational": 7917,
      "Ġtend": 7918,
      "aire": 7919,
      "Ã´": 7920,
      "Ġsections": 7921,
      "incinnati": 7922,
      "Ġtask": 7923,
      "PC": 7924,
      "ucks": 7925,
      "etta": 7926,
      "Ã«": 7927,
      "ĠDue": 7928,
      "ho": 7929,
      "Ġbottom": 7930,
      "Ġconstituency": 7931,
      "pen": 7932,
      "olleyball": 7933,
      "ĠRyan": 7934,
      "ĠBart": 7935,
      "ĠExecutive": 7936,
      "mod": 7937,
      "enger": 7938,
      "Ġexped": 7939,
      "Ġtranslated": 7940,
      "ĠLocal": 7941,
      "pective": 7942,
      "ĠFinland": 7943,
      "entially": 7944,
      "ners": 7945,
      "ĠABC": 7946,
      "ĠTaiwan": 7947,
      "Ġfranchise": 7948,
      "ĠChampion": 7949,
      "cussion": 7950,
      "Ġanimated": 7951,
      "ĠBull": 7952,
      "Ġmist": 7953,
      "ĠKelly": 7954,
      "Ġtrained": 7955,
      "inking": 7956,
      "Ġthrow": 7957,
      "Ġment": 7958,
      "ĠVice": 7959,
      "amples": 7960,
      "Ġclean": 7961,
      "Ġchain": 7962,
      "ĠDonald": 7963,
      "Ġimprove": 7964,
      "din": 7965,
      "icial": 7966,
      "pers": 7967,
      "Ġgreatest": 7968,
      "Ġinvited": 7969,
      "Ġopportunity": 7970,
      "iac": 7971,
      "ĠBox": 7972,
      "Ġportr": 7973,
      "Ġskills": 7974,
      "uster": 7975,
      "Ġflu": 7976,
      "Ġbelieve": 7977,
      "eget": 7978,
      "Ġroutes": 7979,
      "sch": 7980,
      "racy": 7981,
      "ĠGa": 7982,
      "Ġinfluenced": 7983,
      "ĠArena": 7984,
      "Ġweather": 7985,
      "Ġlimit": 7986,
      "ĠYe": 7987,
      "ĠFurther": 7988,
      "ĠOrthodox": 7989,
      "Ġwaters": 7990,
      "Ġvoted": 7991,
      "Cal": 7992,
      "Ġinher": 7993,
      "ĠHend": 7994,
      "Ġ1890": 7995,
      "Ġhomes": 7996,
      "ĠLam": 7997,
      "oca": 7998,
      "Ġscheduled": 7999,
      "ĠHell": 8000,
      "ĠRow": 8001,
      "ĠRace": 8002,
      "ĠFight": 8003,
      "Orig": 8004,
      "Ġimages": 8005,
      "Ġspecifically": 8006,
      "ĠLet": 8007,
      "Ġpriest": 8008,
      "ĠBrazilian": 8009,
      "itals": 8010,
      "Ġhumans": 8011,
      "ushed": 8012,
      "ĠNort": 8013,
      "star": 8014,
      "urring": 8015,
      "ĠWa": 8016,
      "ĠChristopher": 8017,
      "Ġactual": 8018,
      "ĠNebraska": 8019,
      "ĠBroadway": 8020,
      "finals": 8021,
      "intend": 8022,
      "ĠPC": 8023,
      "Ġsuperv": 8024,
      "ĠAgain": 8025,
      "Ġduty": 8026,
      "Ġimportance": 8027,
      "Ġmarg": 8028,
      "Ġcontext": 8029,
      "ĠNord": 8030,
      "ĠYears": 8031,
      "ÃŁ": 8032,
      "Ġmunicipalities": 8033,
      "ĠElementary": 8034,
      "Ġpossibly": 8035,
      "1965": 8036,
      "Ġaer": 8037,
      "Ġwarn": 8038,
      "ĠWard": 8039,
      "Ġcorpor": 8040,
      "1964": 8041,
      "Ġzone": 8042,
      "Ġruled": 8043,
      "1945": 8044,
      "Ġdescribes": 8045,
      "ĠSud": 8046,
      "ĠWol": 8047,
      "Ġflying": 8048,
      "Ġnorthwest": 8049,
      "Ġarmed": 8050,
      "Ġentertain": 8051,
      "Ġstands": 8052,
      "ĠNep": 8053,
      "Ġsequence": 8054,
      "ommod": 8055,
      "Ġfaith": 8056,
      "iler": 8057,
      "Ġseems": 8058,
      "Ġ64": 8059,
      "ĠJordan": 8060,
      "Ġproducing": 8061,
      "ĠBarry": 8062,
      "Ġagency": 8063,
      "election": 8064,
      "aked": 8065,
      "Ġfresh": 8066,
      "Ġax": 8067,
      "Ġexact": 8068,
      "73": 8069,
      "Ġexhibition": 8070,
      "Ġreduce": 8071,
      "Ġclin": 8072,
      "2022": 8073,
      "ĠAgency": 8074,
      "ĠRan": 8075,
      "Ġcatal": 8076,
      "aughters": 8077,
      "Ġterror": 8078,
      "Ġimproved": 8079,
      "Ġmoment": 8080,
      "ĠVic": 8081,
      "Ġadapted": 8082,
      "Ġdetails": 8083,
      "ĠGran": 8084,
      "astery": 8085,
      "'re": 8086,
      "Ġ1906": 8087,
      "June": 8088,
      "oustic": 8089,
      "Ġearliest": 8090,
      "ĠFel": 8091,
      "tered": 8092,
      "Ġ39": 8093,
      "ĠPeters": 8094,
      "Ġresidential": 8095,
      "music": 8096,
      "ige": 8097,
      "Ġbelief": 8098,
      "opal": 8099,
      "Ġcommune": 8100,
      "Ġcomposition": 8101,
      "leton": 8102,
      "Ġconcluded": 8103,
      "Ġdoor": 8104,
      "Ġsymbol": 8105,
      "Ġreally": 8106,
      "seud": 8107,
      "ĠAlberta": 8108,
      "Ġinterpret": 8109,
      "Ġfine": 8110,
      "Ġmyth": 8111,
      "Des": 8112,
      "ĠKan": 8113,
      "Ġtail": 8114,
      "Ġfactory": 8115,
      "ĠTraining": 8116,
      "ĠDisney": 8117,
      "ĠSaturday": 8118,
      "Ġcontrolled": 8119,
      "cient": 8120,
      "ĠCommunist": 8121,
      "1966": 8122,
      "Ġexerc": 8123,
      "Ep": 8124,
      "Ġturns": 8125,
      "Ġqualified": 8126,
      "wall": 8127,
      "enberg": 8128,
      "ĠBron": 8129,
      "Ġdivers": 8130,
      "Ġconsequ": 8131,
      "orer": 8132,
      "ĠTigers": 8133,
      "Ñģ": 8134,
      "Ġengines": 8135,
      "ects": 8136,
      "Ġ43": 8137,
      "umin": 8138,
      "Ġcopy": 8139,
      "ĠUpper": 8140,
      "ĠGary": 8141,
      "ĠLov": 8142,
      "Ġedge": 8143,
      "cht": 8144,
      "ĠCampbell": 8145,
      "ĠPur": 8146,
      "ilk": 8147,
      "Ġjoining": 8148,
      "Ġargued": 8149,
      "Town": 8150,
      "Ġsubstant": 8151,
      "Ġtries": 8152,
      "Paul": 8153,
      "ĠCA": 8154,
      "ĠBeck": 8155,
      "usalem": 8156,
      "sea": 8157,
      "Rich": 8158,
      "omas": 8159,
      "Ġdies": 8160,
      "Ġeasily": 8161,
      "ĠEdinburgh": 8162,
      "Ġbrig": 8163,
      "ĠOur": 8164,
      "ĠPatri": 8165,
      "Ġans": 8166,
      "Most": 8167,
      "ĠJose": 8168,
      "Ġcompete": 8169,
      "ĠJohann": 8170,
      "Ġopin": 8171,
      "ĠYorkshire": 8172,
      "Ġleads": 8173,
      "ĠSaints": 8174,
      "ĠVienna": 8175,
      "Ġcrown": 8176,
      "Ġguitarist": 8177,
      "Ġham": 8178,
      "udi": 8179,
      "Ġgrounds": 8180,
      "ĠFried": 8181,
      "Ġpaintings": 8182,
      "Ġdocuments": 8183,
      "Ġuniform": 8184,
      "attan": 8185,
      "Ġ65": 8186,
      "Ġsurg": 8187,
      "br": 8188,
      "Ġsession": 8189,
      "Ġgain": 8190,
      "feld": 8191,
      "coh": 8192,
      "Ġsoci": 8193,
      "ogether": 8194,
      "agg": 8195,
      "iggest": 8196,
      "ĠDerby": 8197,
      "Ġemployees": 8198,
      "Ġgets": 8199,
      "Ġseventh": 8200,
      "GBT": 8201,
      "ĠSoc": 8202,
      "ĠPad": 8203,
      "Ġvalues": 8204,
      "ĠHungarian": 8205,
      "ĠVerm": 8206,
      "Ġroads": 8207,
      "If": 8208,
      "rong": 8209,
      "ĠSenator": 8210,
      "ĠTrade": 8211,
      "Ġtack": 8212,
      "ĠJerry": 8213,
      "ĠYugoslav": 8214,
      "ĠJimmy": 8215,
      "ĠThailand": 8216,
      "Jew": 8217,
      "ĠAustin": 8218,
      "Ġfear": 8219,
      "Ġped": 8220,
      "ĠWayne": 8221,
      "Ġintelligence": 8222,
      "ĠMethod": 8223,
      "ĠUnit": 8224,
      "illo": 8225,
      "Ġviews": 8226,
      "Ġrepeated": 8227,
      "Desc": 8228,
      "Ġdescription": 8229,
      "itable": 8230,
      "ĠSupport": 8231,
      "ES": 8232,
      "Ġancest": 8233,
      "othes": 8234,
      "Ġsuburb": 8235,
      "asure": 8236,
      "ĠNative": 8237,
      "ĠNash": 8238,
      "Ġinform": 8239,
      "eta": 8240,
      "Ġveter": 8241,
      "Ġ51": 8242,
      "Ġ1905": 8243,
      "Ġcandidates": 8244,
      "oba": 8245,
      "ĠBetween": 8246,
      "My": 8247,
      "inding": 8248,
      "Ġproced": 8249,
      "ĠCulture": 8250,
      "Ġprovincial": 8251,
      "Ġreturns": 8252,
      "cont": 8253,
      "Ġvide": 8254,
      "Ġinterests": 8255,
      "Ġheat": 8256,
      "Ġfictional": 8257,
      "ĠSymphony": 8258,
      "ĠRand": 8259,
      "Ġchampionships": 8260,
      "Ġnegative": 8261,
      "ĠCole": 8262,
      "enezuel": 8263,
      "TS": 8264,
      "emen": 8265,
      "Ġapart": 8266,
      "Ġgarden": 8267,
      "ivan": 8268,
      "George": 8269,
      "Ġ1909": 8270,
      "Ġiniti": 8271,
      "Ġcombination": 8272,
      "ĠJess": 8273,
      "Ġsole": 8274,
      "ĠArkansas": 8275,
      "ĠNav": 8276,
      "Mon": 8277,
      "ĠDyn": 8278,
      "forcement": 8279,
      "Ġnickn": 8280,
      "Ġideas": 8281,
      "Works": 8282,
      "Ġreality": 8283,
      "ategy": 8284,
      "Ġenl": 8285,
      "ĠMarket": 8286,
      "atures": 8287,
      "IP": 8288,
      "Ġsurvived": 8289,
      "69": 8290,
      "Ġsinging": 8291,
      "Ġowners": 8292,
      "Ġaccompan": 8293,
      "Ġaccused": 8294,
      "April": 8295,
      "Ġ55": 8296,
      "Ġtun": 8297,
      "Ġstating": 8298,
      "ĠBureau": 8299,
      "ĠLane": 8300,
      "Villages": 8301,
      "Ġconqu": 8302,
      "ĠAnna": 8303,
      "ĠSingh": 8304,
      "ĠĠĠĠĠĠĠĠĠĠĠĠĠĠĠĠ": 8305,
      "Ġtor": 8306,
      "zi": 8307,
      "Ġsell": 8308,
      "going": 8309,
      "Ġoffensive": 8310,
      "Ġnotably": 8311,
      "Ġregularly": 8312,
      "roke": 8313,
      "Ġstrip": 8314,
      "Ġprisoners": 8315,
      "Ġwitness": 8316,
      "Ġ1907": 8317,
      "ĠMotor": 8318,
      "Ġhair": 8319,
      "Ġcolonial": 8320,
      "Pre": 8321,
      "ovo": 8322,
      "Ġcarbon": 8323,
      "ĠEvery": 8324,
      "Ġpurchase": 8325,
      "Ġflo": 8326,
      "ĠVolume": 8327,
      "ĠTak": 8328,
      "Ġcosts": 8329,
      "ĠTamil": 8330,
      "rene": 8331,
      "Ġarchae": 8332,
      "ĠJazz": 8333,
      "Ġselect": 8334,
      "eness": 8335,
      "ĠAuthority": 8336,
      "Ġrefuge": 8337,
      "Ġ;": 8338,
      "cious": 8339,
      "hu": 8340,
      "ĠOfficer": 8341,
      "do": 8342,
      "cons": 8343,
      "ĠMond": 8344,
      "Ġaccommod": 8345,
      "ibl": 8346,
      "inces": 8347,
      "Ġhunt": 8348,
      "Ġoperates": 8349,
      "Ġrivers": 8350,
      "ĠKit": 8351,
      "Ġflat": 8352,
      "ĠSecret": 8353,
      "ĠFive": 8354,
      "Ġproducers": 8355,
      "Ġstanding": 8356,
      "ĠFact": 8357,
      "ĠVancouver": 8358,
      "aware": 8359,
      "Ġgraduate": 8360,
      "insula": 8361,
      "Ġnor": 8362,
      "Air": 8363,
      "ĠGill": 8364,
      "ĠNi": 8365,
      "ĠAssoci": 8366,
      "Ġmilit": 8367,
      "Ġgradu": 8368,
      "Ġsoutheast": 8369,
      "ĠBuffalo": 8370,
      "Inform": 8371,
      "ĠMorris": 8372,
      "ĠFIFA": 8373,
      "ĠFranklin": 8374,
      "Ġcharges": 8375,
      "Ġdegrees": 8376,
      "ĠAbout": 8377,
      "Ġsecretary": 8378,
      "Ġshowing": 8379,
      "Ġaffected": 8380,
      "Ġsomew": 8381,
      "Ġexamples": 8382,
      "ĠAngl": 8383,
      "ĠRangers": 8384,
      "Ġdie": 8385,
      "Ġrooms": 8386,
      "Ġcredited": 8387,
      "Ġrenew": 8388,
      "antly": 8389,
      "Ġdoll": 8390,
      "ĠEvans": 8391,
      "Ġagencies": 8392,
      "ĠRap": 8393,
      "Ġitems": 8394,
      "pecies": 8395,
      "final": 8396,
      "writers": 8397,
      "Ġemot": 8398,
      "ographics": 8399,
      "Ġmine": 8400,
      "ĠMall": 8401,
      "orial": 8402,
      "ĠKnow": 8403,
      "Ġrecept": 8404,
      "Ġopposite": 8405,
      "Ġones": 8406,
      "ĠCentury": 8407,
      "ĠRub": 8408,
      "ĠFalls": 8409,
      "ĠComb": 8410,
      "Ġphilosophy": 8411,
      "ĠMPs": 8412,
      "ĠGraham": 8413,
      "Ġpublications": 8414,
      "ĠMarvel": 8415,
      "ĠBristol": 8416,
      "Ġinstruments": 8417,
      "ĠCharlie": 8418,
      "ĠIan": 8419,
      "Ġgoods": 8420,
      "SU": 8421,
      "July": 8422,
      "SO": 8423,
      "Ġnom": 8424,
      "bal": 8425,
      "oda": 8426,
      "erbai": 8427,
      "Ġimprison": 8428,
      "host": 8429,
      "Ġmissions": 8430,
      "ĠLegislative": 8431,
      "Ġdevice": 8432,
      "Sub": 8433,
      "eler": 8434,
      "ĠCarlos": 8435,
      "ĠArmenian": 8436,
      "1930": 8437,
      "You": 8438,
      "Ġpool": 8439,
      "Ġpros": 8440,
      "Ġisol": 8441,
      "bound": 8442,
      "Ġ1903": 8443,
      "utation": 8444,
      "Ġinterior": 8445,
      "oenix": 8446,
      "ĠMurray": 8447,
      "Ġbudget": 8448,
      "ĠCricket": 8449,
      "ĠAlliance": 8450,
      "annels": 8451,
      "fare": 8452,
      "Ġrevolution": 8453,
      "Ġattached": 8454,
      "ĠCatal": 8455,
      "ĠMaced": 8456,
      "ĠGray": 8457,
      "Ġelectronic": 8458,
      "slot": 8459,
      "plete": 8460,
      "RO": 8461,
      "ricketer": 8462,
      "ĠCollection": 8463,
      "Ġresidence": 8464,
      "Ġupd": 8465,
      "Medal": 8466,
      "Ġexplicitly": 8467,
      "iency": 8468,
      "Ġdamaged": 8469,
      "Ġ1904": 8470,
      "Ġsave": 8471,
      "ĠSoccer": 8472,
      "ĠCode": 8473,
      "Ġcoverage": 8474,
      "Ġfactors": 8475,
      "Ġduties": 8476,
      "Ġalt": 8477,
      "Ã¶r": 8478,
      "ĠVar": 8479,
      "Ġclassic": 8480,
      "Ġdecade": 8481,
      "opter": 8482,
      "Ġutil": 8483,
      "ĠMedicine": 8484,
      "ĠAqu": 8485,
      "pha": 8486,
      "ĠMes": 8487,
      "Ġchose": 8488,
      "Ġretail": 8489,
      "ĠCarn": 8490,
      "Ġlegend": 8491,
      "tenance": 8492,
      "Ġadvantage": 8493,
      "Bur": 8494,
      "ĠCher": 8495,
      "Treaties": 8496,
      "central": 8497,
      "fessional": 8498,
      "Ġdistributed": 8499,
      "ĠBible": 8500,
      "Mc": 8501,
      "Ġcontributions": 8502,
      "Ġusers": 8503,
      "Ġdemand": 8504,
      "Ġsteam": 8505,
      "orro": 8506,
      "ĠThus": 8507,
      "Production": 8508,
      "Ġmedicine": 8509,
      "Ġbat": 8510,
      "Ġlink": 8511,
      "hop": 8512,
      "ĠSalv": 8513,
      "ĠLib": 8514,
      "Ġorchestra": 8515,
      "Robert": 8516,
      "\"}": 8517,
      "ĠMack": 8518,
      "ĠGulf": 8519,
      "Ġ52": 8520,
      "icate": 8521,
      "tha": 8522,
      "Ġattract": 8523,
      "Ġseconds": 8524,
      "uncredited": 8525,
      "osm": 8526,
      "ĠControl": 8527,
      "ĠLI": 8528,
      "Ġtrip": 8529,
      "Ġmining": 8530,
      "ĠStars": 8531,
      "jamin": 8532,
      "ĠAgric": 8533,
      "ĠMarie": 8534,
      "Ġcycle": 8535,
      "Ġcharged": 8536,
      "dy": 8537,
      "ĠWoman": 8538,
      "Ġbed": 8539,
      "ĠBirmingham": 8540,
      "ĠIndians": 8541,
      "Ġtypical": 8542,
      "Ġreaction": 8543,
      "ĠDom": 8544,
      "Gl": 8545,
      "October": 8546,
      "iya": 8547,
      "ĠWindows": 8548,
      "Ġbrown": 8549,
      "aptist": 8550,
      "inations": 8551,
      "ĠRacing": 8552,
      "Ġcapture": 8553,
      "ĠJohnny": 8554,
      "Ġgang": 8555,
      "hill": 8556,
      "err": 8557,
      "cho": 8558,
      "Ġcalling": 8559,
      "ĠMunicipality": 8560,
      "Ġworth": 8561,
      "away": 8562,
      "pie": 8563,
      "Å¾": 8564,
      "Ġbrain": 8565,
      "imm": 8566,
      "Ġ1880": 8567,
      "ĠColonel": 8568,
      "ĠOnce": 8569,
      "ĠDub": 8570,
      "Ġbran": 8571,
      "ĠChamber": 8572,
      "ecution": 8573,
      "ĠOt": 8574,
      "who": 8575,
      "Ġundert": 8576,
      "Ġrestored": 8577,
      "Ġownership": 8578,
      "Ġtank": 8579,
      "1963": 8580,
      "Ġlegislation": 8581,
      "ĠMarshall": 8582,
      "Ġrejected": 8583,
      "ders": 8584,
      "ĠKo": 8585,
      "ĠChem": 8586,
      "ĠBav": 8587,
      "ĠInvest": 8588,
      "Ġobtain": 8589,
      "ĠGlasgow": 8590,
      "ĠRot": 8591,
      "Ġmort": 8592,
      "aman": 8593,
      "Ġclimb": 8594,
      "ĠCooper": 8595,
      "Ġjustice": 8596,
      "enburg": 8597,
      "Ġdog": 8598,
      "Ġ1902": 8599,
      "ĠStanley": 8600,
      "ĠTheater": 8601,
      "ĠHold": 8602,
      "orrow": 8603,
      "Later": 8604,
      "istical": 8605,
      "Ġdismiss": 8606,
      "Ġexecuted": 8607,
      "ĠDaily": 8608,
      "Ġreferences": 8609,
      "Ġdepend": 8610,
      "ffbb": 8611,
      "ĠBlood": 8612,
      "ĠBrooklyn": 8613,
      "Ġrich": 8614,
      "Ġdry": 8615,
      "ĠNever": 8616,
      "ifer": 8617,
      "ĠSarah": 8618,
      "otan": 8619,
      "Ġfinals": 8620,
      "edding": 8621,
      "Ġnewspapers": 8622,
      "ĠVers": 8623,
      "ĠAlaska": 8624,
      "ĠMayor": 8625,
      "lie": 8626,
      "iop": 8627,
      "ĠAT": 8628,
      "Ġgrant": 8629,
      "Ġpenal": 8630,
      "ctic": 8631,
      "ĠJerusalem": 8632,
      "1962": 8633,
      "Discography": 8634,
      "lig": 8635,
      "master": 8636,
      "Ġdrawn": 8637,
      "Ġmagazines": 8638,
      "Ġfishing": 8639,
      "ĠTower": 8640,
      "orses": 8641,
      "DC": 8642,
      "lon": 8643,
      "ĠIndonesia": 8644,
      "Two": 8645,
      "Ġwhy": 8646,
      "ĠNelson": 8647,
      "Ġjudges": 8648,
      "ĠAR": 8649,
      "September": 8650,
      "cyclop": 8651,
      "ĠEqu": 8652,
      "Ġattorney": 8653,
      "argo": 8654,
      "ĠSeveral": 8655,
      "Ġlanding": 8656,
      "ĠJason": 8657,
      "Ġere": 8658,
      "Ġkid": 8659,
      "Ġadvoc": 8660,
      "asts": 8661,
      "Ġpublishing": 8662,
      "Ġequivalent": 8663,
      "race": 8664,
      "ĠNon": 8665,
      "ilst": 8666,
      "Ġstorage": 8667,
      "power": 8668,
      "ĠSax": 8669,
      "ĠSite": 8670,
      "ĠPsych": 8671,
      "Ġcricketers": 8672,
      "Ġfan": 8673,
      "Ġarrival": 8674,
      "Count": 8675,
      "Ġfly": 8676,
      "ĠCEO": 8677,
      "Ġstatement": 8678,
      "ĠTrail": 8679,
      "ĠDJ": 8680,
      "Ġcircum": 8681,
      "Ġseparated": 8682,
      "Political": 8683,
      "Ġadaptation": 8684,
      "profit": 8685,
      "Ġassistance": 8686,
      "ME": 8687,
      "Ġfactor": 8688,
      "Ġmotion": 8689,
      "ĠAy": 8690,
      "Ġsynthes": 8691,
      "Ġstopped": 8692,
      "Ġstood": 8693,
      "Ġsignificantly": 8694,
      "Ġregistered": 8695,
      "ishers": 8696,
      "Ġbatter": 8697,
      "estivals": 8698,
      "mb": 8699,
      "ĠEnt": 8700,
      "Ġahead": 8701,
      "fish": 8702,
      "Ġretained": 8703,
      "Ġseed": 8704,
      "ĠCathedral": 8705,
      "Ġcomed": 8706,
      "ĠThough": 8707,
      "ĠSS": 8708,
      "MP": 8709,
      "Ġnothing": 8710,
      "Br": 8711,
      "Ġchance": 8712,
      "Ġteachers": 8713,
      "ĪĴ": 8714,
      "askat": 8715,
      "Ġ47": 8716,
      "Ġparticipate": 8717,
      "marine": 8718,
      "Ġdisestablished": 8719,
      "Ġassumed": 8720,
      "ompl": 8721,
      "ĠBroadcasting": 8722,
      "Ġcommitted": 8723,
      "ĠAndy": 8724,
      "Nor": 8725,
      "ĠFood": 8726,
      "count": 8727,
      "Ġterminus": 8728,
      "Ġprize": 8729,
      "ĠCommunications": 8730,
      "Ġwine": 8731,
      "Ġcollaboration": 8732,
      "bi": 8733,
      "Ġdriving": 8734,
      "Northern": 8735,
      "Ġpric": 8736,
      "Ġdidn": 8737,
      "ĠPage": 8738,
      "Ġ150": 8739,
      "sson": 8740,
      "ĠKon": 8741,
      "avian": 8742,
      "rov": 8743,
      "Mal": 8744,
      "EE": 8745,
      "oom": 8746,
      "fiction": 8747,
      "ĠVideo": 8748,
      "Ġaf": 8749,
      "Ġanniversary": 8750,
      "Ġintersection": 8751,
      "Ġphotograph": 8752,
      "ĠPun": 8753,
      "Ġdelivered": 8754,
      "Musical": 8755,
      "mund": 8756,
      "ĠLower": 8757,
      "Description": 8758,
      "egas": 8759,
      "Ġdesigns": 8760,
      "Ġmembership": 8761,
      "operation": 8762,
      "Ġsed": 8763,
      "ĠAbbey": 8764,
      "ocracy": 8765,
      "Ġcaught": 8766,
      "ĠCass": 8767,
      "Ã©n": 8768,
      "Ġstarred": 8769,
      "ĠEmer": 8770,
      "MC": 8771,
      "Ġsouthwest": 8772,
      "Ġbusinesses": 8773,
      "Ġinvestment": 8774,
      "Ġfired": 8775,
      "ogle": 8776,
      "Ġwounded": 8777,
      "Ġmolec": 8778,
      "dr": 8779,
      "zant": 8780,
      "Defunct": 8781,
      "Ġcous": 8782,
      "ĠPeru": 8783,
      "Ġfreedom": 8784,
      "orst": 8785,
      "January": 8786,
      "Ġmedium": 8787,
      "ĠGriff": 8788,
      "abled": 8789,
      "Ġjourney": 8790,
      "Ġbiggest": 8791,
      "estyle": 8792,
      "ĠDNA": 8793,
      "Ġoccupation": 8794,
      "Ang": 8795,
      "Ġdoub": 8796,
      "Ġdesigner": 8797,
      "formance": 8798,
      "Ġeye": 8799,
      "ategory": 8800,
      "Ð¾Ð": 8801,
      "ĠBaker": 8802,
      "December": 8803,
      "ĠCarter": 8804,
      "Ġtransition": 8805,
      "Ġastron": 8806,
      "Ġpercussion": 8807,
      "Ġmus": 8808,
      "rant": 8809,
      "Ġ1901": 8810,
      "isode": 8811,
      "ĠTob": 8812,
      "Ġjump": 8813,
      "Ġanime": 8814,
      "ĠAnti": 8815,
      "oking": 8816,
      "ĠHit": 8817,
      "rapy": 8818,
      "ĠMichel": 8819,
      "Ġoverl": 8820,
      "ĠTrad": 8821,
      "ĠMort": 8822,
      "iri": 8823,
      "ĠBorough": 8824,
      "Ev": 8825,
      "Ġheads": 8826,
      "FF": 8827,
      "NC": 8828,
      "á»": 8829,
      "Ġmeets": 8830,
      "ĠPack": 8831,
      "Crit": 8832,
      "Ġmanga": 8833,
      "ĠKu": 8834,
      "othy": 8835,
      "bassador": 8836,
      "Ġcovering": 8837,
      "ĠScient": 8838,
      "Ġspans": 8839,
      "ector": 8840,
      "Ġpicture": 8841,
      "1961": 8842,
      "Ġpurposes": 8843,
      "Ġdowntown": 8844,
      "Ġfalls": 8845,
      "ounce": 8846,
      "ĠImp": 8847,
      "Ġsoundtrack": 8848,
      "Ġunus": 8849,
      "alia": 8850,
      "ĠHas": 8851,
      "ĠIns": 8852,
      "ĠML": 8853,
      "Ġdescend": 8854,
      "uis": 8855,
      "Mark": 8856,
      "Ġinvent": 8857,
      "Ġcomics": 8858,
      "Second": 8859,
      "Ġkingdom": 8860,
      "ĠPortland": 8861,
      "ĠLimited": 8862,
      "ĠTele": 8863,
      "Ġheaded": 8864,
      "Ġaccur": 8865,
      "boy": 8866,
      "1958": 8867,
      "Ġinstitution": 8868,
      "load": 8869,
      "Ġvary": 8870,
      "Ġresign": 8871,
      "Ġjurisdiction": 8872,
      "Ġ46": 8873,
      "pre": 8874,
      "ĠMess": 8875,
      "ÑĤ": 8876,
      "olia": 8877,
      "Ġreception": 8878,
      "ĠNazi": 8879,
      "Ġresponsibility": 8880,
      "ĠAP": 8881,
      "Ġcommunication": 8882,
      "Ġappropri": 8883,
      "Ġmanusc": 8884,
      "acre": 8885,
      "ĠUEFA": 8886,
      "ĠFrid": 8887,
      "phone": 8888,
      "ĠArgentine": 8889,
      "Ġpraised": 8890,
      "Ġcrop": 8891,
      "ĠProm": 8892,
      "soft": 8893,
      "ĠShip": 8894,
      "Ġsuggests": 8895,
      "Ġexperienced": 8896,
      "riel": 8897,
      "Ġdetermine": 8898,
      "ĠCle": 8899,
      "ĠSeason": 8900,
      "Ġhur": 8901,
      "ĠBeg": 8902,
      "later": 8903,
      "mina": 8904,
      "ĠCincinnati": 8905,
      "cia": 8906,
      "ĠRef": 8907,
      "itime": 8908,
      "Ġarranged": 8909,
      "ranean": 8910,
      "Ġbusinessman": 8911,
      "urers": 8912,
      "Ġcarrying": 8913,
      "Ġlap": 8914,
      "Ġrequirements": 8915,
      "ĠChen": 8916,
      "Ġmoder": 8917,
      "Ãł": 8918,
      "ĠTransport": 8919,
      "ĠMaj": 8920,
      "Ġanything": 8921,
      "Ġappearing": 8922,
      "ifle": 8923,
      "ĠUpon": 8924,
      "tics": 8925,
      "Ġfilled": 8926,
      "ĠCart": 8927,
      "Ġnaval": 8928,
      "rove": 8929,
      "Ġteen": 8930,
      "Ġfixed": 8931,
      "stad": 8932,
      "ĠDigital": 8933,
      "mal": 8934,
      "ĠSongs": 8935,
      "ĠPrad": 8936,
      "ielder": 8937,
      "Ġexplos": 8938,
      "stances": 8939,
      "atters": 8940,
      "aku": 8941,
      "Ġdifference": 8942,
      "Post": 8943,
      "resents": 8944,
      "nell": 8945,
      "isations": 8946,
      "ijing": 8947,
      "ĠSteel": 8948,
      "ĠMother": 8949,
      "Ġextremely": 8950,
      "Michael": 8951,
      "East": 8952,
      "aste": 8953,
      "Ġalleg": 8954,
      "ĠChart": 8955,
      "ĠShan": 8956,
      "ĠAppe": 8957,
      "Ġstages": 8958,
      "hattan": 8959,
      "Ã¨re": 8960,
      "utions": 8961,
      "ĠAer": 8962,
      "Ġpoem": 8963,
      "ĠSerbia": 8964,
      "harm": 8965,
      "iko": 8966,
      "xual": 8967,
      "Ġaudio": 8968,
      "Tax": 8969,
      "ĠGuy": 8970,
      "Ġhosts": 8971,
      "ĠLanguage": 8972,
      "Ġprotest": 8973,
      "Ġmouth": 8974,
      "Ġinsc": 8975,
      "ĠRabb": 8976,
      "Ġshel": 8977,
      "ĠChairman": 8978,
      "ĠHunter": 8979,
      "ibbean": 8980,
      "amps": 8981,
      "1959": 8982,
      "Oper": 8983,
      "Bra": 8984,
      "asi": 8985,
      "Ġsevere": 8986,
      "ĠHig": 8987,
      "ashed": 8988,
      "Class": 8989,
      "Ġromantic": 8990,
      "Ġrepair": 8991,
      "Ġtorn": 8992,
      "ellect": 8993,
      "ĠDog": 8994,
      "Ġaccompl": 8995,
      "ĠSid": 8996,
      "Ġswimming": 8997,
      "ĠTrophy": 8998,
      "1939": 8999,
      "Ġ1898": 9000,
      "ĠLions": 9001,
      "ampa": 9002,
      "Im": 9003,
      "raf": 9004,
      "vi": 9005,
      "Ġrecru": 9006,
      "ails": 9007,
      "ĠCardinals": 9008,
      "Ġstret": 9009,
      "door": 9010,
      "Ġphen": 9011,
      "Ġweekly": 9012,
      "ĠElectric": 9013,
      "eo": 9014,
      "ĠChand": 9015,
      "Ġflows": 9016,
      "ĠCamer": 9017,
      "Ġinterested": 9018,
      "Ġfeed": 9019,
      "quir": 9020,
      "Ġgene": 9021,
      "rehens": 9022,
      "ĠBenn": 9023,
      "ĠCapital": 9024,
      "Ġsubjects": 9025,
      "State": 9026,
      "Ġtied": 9027,
      "Ġoffering": 9028,
      "Amendment": 9029,
      "ĠAber": 9030,
      "Ġpersons": 9031,
      "ĠGreater": 9032,
      "Ġreplacement": 9033,
      "Dr": 9034,
      "Russian": 9035,
      "Ġtesting": 9036,
      "Ġotherwise": 9037,
      "Mount": 9038,
      "ĠJudge": 9039,
      "ĠNet": 9040,
      "Ġmountains": 9041,
      "ĠLithuan": 9042,
      "1957": 9043,
      "ĠPrimary": 9044,
      "ĠBud": 9045,
      "ĠNova": 9046,
      "Ġsoil": 9047,
      "Ġscheme": 9048,
      "ĠYam": 9049,
      "ĠContin": 9050,
      "mosp": 9051,
      "ĠSC": 9052,
      "Ġassault": 9053,
      "Ġlists": 9054,
      "ĠFab": 9055,
      "ichi": 9056,
      "ribution": 9057,
      "Ġsuccessor": 9058,
      "Ġplayoffs": 9059,
      "ĠOrange": 9060,
      "ãģ": 9061,
      "Ġselling": 9062,
      "ĠDiam": 9063,
      "Ġpolicies": 9064,
      "ĠLiving": 9065,
      "aments": 9066,
      "ĠGun": 9067,
      "Ġplate": 9068,
      "Ġconcerns": 9069,
      "Cy": 9070,
      "ĠSign": 9071,
      "Ġcoastal": 9072,
      "Ġrunner": 9073,
      "lected": 9074,
      "umi": 9075,
      "NT": 9076,
      "uru": 9077,
      "ĠOrganization": 9078,
      "ĠLock": 9079,
      "esignated": 9080,
      "Ġunderstanding": 9081,
      "merce": 9082,
      "Ġtechnique": 9083,
      "ĠRichmond": 9084,
      "Ġprotected": 9085,
      "ĠMilan": 9086,
      "Ġstring": 9087,
      "Ġmeasures": 9088,
      "Ġcrisis": 9089,
      "Ġcoordin": 9090,
      "Top": 9091,
      "ĠSr": 9092,
      "ĠEdition": 9093,
      "ĠCollins": 9094,
      "Ġaccompanied": 9095,
      "Ġplane": 9096,
      "obby": 9097,
      "ĠPra": 9098,
      "ĠApple": 9099,
      "Ġkeyboards": 9100,
      "ourg": 9101,
      "Ġassass": 9102,
      "Ġpreced": 9103,
      "apping": 9104,
      "Ġshooting": 9105,
      "chang": 9106,
      "Ġlearned": 9107,
      "Ġcredit": 9108,
      "ĠUC": 9109,
      "Ġpitch": 9110,
      "Ġcoaching": 9111,
      "iors": 9112,
      "etime": 9113,
      "ĠLost": 9114,
      "Ġinnov": 9115,
      "ĠIvan": 9116,
      "Ġmedals": 9117,
      "ĠRest": 9118,
      "ĠProtest": 9119,
      "Ġpractices": 9120,
      "?\"": 9121,
      "Mod": 9122,
      "ĠMyst": 9123,
      "ĠDraft": 9124,
      "Ġsun": 9125,
      "Ġclassified": 9126,
      "Ġmanufacturing": 9127,
      "ĠLuther": 9128,
      "ictions": 9129,
      "Ġpopularity": 9130,
      "Ġrepresents": 9131,
      "aceae": 9132,
      "ĠPeak": 9133,
      "Afric": 9134,
      "Ġdating": 9135,
      "Ġscope": 9136,
      "orb": 9137,
      "Ġdisappe": 9138,
      "eed": 9139,
      "Ġchannels": 9140,
      "Ġ1870": 9141,
      "Donald": 9142,
      "ĠSi": 9143,
      "Radio": 9144,
      "Ġsort": 9145,
      "Ġorganisation": 9146,
      "Ġstreets": 9147,
      "ĠVenezuel": 9148,
      "Ġspiritual": 9149,
      "European": 9150,
      "eria": 9151,
      "yles": 9152,
      "Stud": 9153,
      "Ġshell": 9154,
      "ĠSpeed": 9155,
      "Ġroughly": 9156,
      "SW": 9157,
      "Ġcollections": 9158,
      "ĠNeg": 9159,
      "ente": 9160,
      "ĠMitchell": 9161,
      "DF": 9162,
      "rix": 9163,
      "Ġprepared": 9164,
      "Part": 9165,
      "ĠBass": 9166,
      "ĠHum": 9167,
      "Ġbanks": 9168,
      "ĠConstant": 9169,
      "ĠHindu": 9170,
      "ĠGib": 9171,
      "sterdam": 9172,
      "ĠStorm": 9173,
      "borne": 9174,
      "Ġprocesses": 9175,
      "Ġlicense": 9176,
      "etty": 9177,
      "1956": 9178,
      "ĠIce": 9179,
      "Ġdifferences": 9180,
      "ĠArabic": 9181,
      "Ġstayed": 9182,
      "Ġveget": 9183,
      "Alumni": 9184,
      "Ġexpression": 9185,
      "ĠRio": 9186,
      "ophone": 9187,
      "ĠMovement": 9188,
      "Ġlinked": 9189,
      "Ġensure": 9190,
      "izer": 9191,
      "Ġbon": 9192,
      "Ġbit": 9193,
      "eneg": 9194,
      "ĠBranch": 9195,
      "Results": 9196,
      "Ġdemonstr": 9197,
      "Bus": 9198,
      "Ġauthors": 9199,
      "1955": 9200,
      "ĠAzerbai": 9201,
      "Ġpian": 9202,
      "oons": 9203,
      "oria": 9204,
      "ĠNevada": 9205,
      "Ġlov": 9206,
      "ĠLan": 9207,
      "zo": 9208,
      "Ġcontroversy": 9209,
      "Ġtribe": 9210,
      "ĠSox": 9211,
      "Univers": 9212,
      "Ġlosses": 9213,
      "Ġpainted": 9214,
      "Footballers": 9215,
      "ĠPant": 9216,
      "atern": 9217,
      "Ġ54": 9218,
      "Ġmedieval": 9219,
      "Ġdim": 9220,
      "Ġcongress": 9221,
      "ĠConfeder": 9222,
      "ĠUkrainian": 9223,
      "ĠTerritory": 9224,
      "nan": 9225,
      "ĠVas": 9226,
      "inea": 9227,
      "Ġpainters": 9228,
      "ĠRena": 9229,
      "Jewish": 9230,
      "ĠSaskat": 9231,
      "Ġvideos": 9232,
      "otal": 9233,
      "ĠLud": 9234,
      "Ġpeaked": 9235,
      "arus": 9236,
      "ario": 9237,
      "ĠFitz": 9238,
      "folk": 9239,
      "Ġcards": 9240,
      "MI": 9241,
      "irk": 9242,
      "enson": 9243,
      "Ġdefeating": 9244,
      "Ġaspects": 9245,
      "Ġpron": 9246,
      "Red": 9247,
      "ĠWrestling": 9248,
      "ĠEss": 9249,
      "ĠĊĠ": 9250,
      "Jos": 9251,
      "Tr": 9252,
      "oro": 9253,
      "ĠMi": 9254,
      "hammad": 9255,
      "ulum": 9256,
      "acon": 9257,
      "Ġnote": 9258,
      "Honours": 9259,
      "Ġplus": 9260,
      "Ġmonarch": 9261,
      "ĠSystems": 9262,
      "ãĤ": 9263,
      "ĠSoul": 9264,
      "person": 9265,
      "Ġdefence": 9266,
      "ĠRud": 9267,
      "Ġdepth": 9268,
      "unities": 9269,
      "ĠSche": 9270,
      "oples": 9271,
      "Ġformally": 9272,
      "ML": 9273,
      "ĠHeb": 9274,
      "Ġassess": 9275,
      "Ġstruck": 9276,
      "ĠSeven": 9277,
      "Ġdepos": 9278,
      "ĠNation": 9279,
      "ĠTol": 9280,
      "uka": 9281,
      "Ġutter": 9282,
      "avan": 9283,
      "Ġquestions": 9284,
      "ĠSF": 9285,
      "ĠKeith": 9286,
      "ĠFull": 9287,
      "Ġrating": 9288,
      "Ġcelebrated": 9289,
      "ĠPolitical": 9290,
      "EP": 9291,
      ".âĢĿ": 9292,
      "Ġrates": 9293,
      "Ãª": 9294,
      "Ġcold": 9295,
      "ĠZone": 9296,
      "Ġreact": 9297,
      "Ġsegment": 9298,
      "ttps": 9299,
      "ĠLarry": 9300,
      "Ġdiagn": 9301,
      "Ġfilmed": 9302,
      "Ġbroadcasting": 9303,
      "Ġwave": 9304,
      "ĠBurg": 9305,
      "Ġperhaps": 9306,
      "Ġbranches": 9307,
      "Ã¡s": 9308,
      "ĠDeputy": 9309,
      "Ġgrass": 9310,
      "Ġliqu": 9311,
      "Ġrelative": 9312,
      "Demographics": 9313,
      "ĠBelgian": 9314,
      "Ġsixt": 9315,
      "Ġcheck": 9316,
      "break": 9317,
      "Ġcup": 9318,
      "original": 9319,
      "ĠDefence": 9320,
      "ĠBrew": 9321,
      "Ġamateur": 9322,
      "Act": 9323,
      "League": 9324,
      "Ġchallenge": 9325,
      "DS": 9326,
      "andal": 9327,
      "white": 9328,
      "ribed": 9329,
      "Ġmobile": 9330,
      "ĠHud": 9331,
      "Ġshut": 9332,
      "ĠModel": 9333,
      "ĠVel": 9334,
      "Ġplatforms": 9335,
      "released": 9336,
      "Ġboundary": 9337,
      "Ro": 9338,
      "otype": 9339,
      "ocol": 9340,
      "ĠSurvey": 9341,
      "Ġorient": 9342,
      "DP": 9343,
      "ĠAld": 9344,
      "Me": 9345,
      "Ġsax": 9346,
      "Ġfiled": 9347,
      "ĠMind": 9348,
      "Ġcapable": 9349,
      "hus": 9350,
      "raham": 9351,
      "November": 9352,
      "Ġign": 9353,
      "elaide": 9354,
      "Ġfra": 9355,
      "ĠParker": 9356,
      "Ġdevices": 9357,
      "ĠParish": 9358,
      "Organ": 9359,
      "ĠClassic": 9360,
      "Ġque": 9361,
      "ĠSyn": 9362,
      "Ġfrag": 9363,
      "football": 9364,
      "Ġwrest": 9365,
      "Ġ120": 9366,
      "Ġmovements": 9367,
      "War": 9368,
      "udes": 9369,
      "Ġconduct": 9370,
      "ĠCraig": 9371,
      "Scottish": 9372,
      "ido": 9373,
      "Ġrequires": 9374,
[...]
