{
  "version": "1.0",
  "truncation": null,
  "padding": null,
  "added_tokens": [
    {
      "id": 0,
      "content": "<pad>",
      "single_word": false,
      "lstrip": false,
      "rstrip": false,
      "normalized": false,
      "special": true
    },
    {
      "id": 1,
      "content": "<s>",
      "single_word": false,
      "lstrip": false,
      "rstrip": false,
      "normalized": false,
      "special": true
    },
    {
      "id": 2,
      "content": "</s>",
      "single_word": false,
      "lstrip": false,
      "rstrip": false,
      "normalized": false,
      "special": true
    },
    {
      "id": 3,
      "content": "<unk>",
      "single_word": false,
      "lstrip": false,
      "rstrip": false,
      "normalized": false,
      "special": true
    }
  ],
  "normalizer": null,
  "pre_tokenizer": {
    "type": "ByteLevel",
    "add_prefix_space": false,
    "trim_offsets": true,
    "use_regex": true
  },
  "post_processor": {
    "type": "ByteLevel",
    "add_prefix_space": true,
    "trim_offsets": false,
    "use_regex": true
  },
  "decoder": {
    "type": "ByteLevel",
    "add_prefix_space": true,
    "trim_offsets": true,
    "use_regex": true
  },
  "model": {
    "type": "BPE",
    "dropout": null,
    "unk_token": null,
    "continuing_subword_prefix": null,
    "end_of_word_suffix": null,
    "fuse_unk": false,
    "byte_fallback": false,
    "ignore_merges": false,
    "vocab": {
      "<pad>": 0,
      "<s>": 1,
      "</s>": 2,
      "<unk>": 3,
      "!": 4,
      "\"": 5,
      "#": 6,
      "$": 7,
      "%": 8,
      "&": 9,
      "'": 10,
      "(": 11,
      ")": 12,
      "*": 13,
      "+": 14,
      ",": 15,
      "-": 16,
      ".": 17,
      "/": 18,
      "0": 19,
      "1": 20,
      "2": 21,
      "3": 22,
      "4": 23,
      "5": 24,
      "6": 25,
      "7": 26,
      "8": 27,
      "9": 28,
      ":": 29,
      ";": 30,
      "<": 31,
      "=": 32,
      ">": 33,
      "?": 34,
      "@": 35,
      "A": 36,
      "B": 37,
      "C": 38,
      "D": 39,
      "E": 40,
      "F": 41,
      "G": 42,
      "H": 43,
      "I": 44,
      "J": 45,
      "K": 46,
      "L": 47,
      "M": 48,
      "N": 49,
      "O": 50,
      "P": 51,
      "Q": 52,
      "R": 53,
      "S": 54,
      "T": 55,
      "U": 56,
      "V": 57,
      "W": 58,
      "X": 59,
      "Y": 60,
      "Z": 61,
      "[": 62,
      "\\": 63,
      "]": 64,
      "^": 65,
      "_": 66,
      "`": 67,
      "a": 68,
      "b": 69,
      "c": 70,
      "d": 71,
      "e": 72,
      "f": 73,
      "g": 74,
      "h": 75,
      "i": 76,
      "j": 77,
      "k": 78,
      "l": 79,
      "m": 80,
      "n": 81,
      "o": 82,
      "p": 83,
      "q": 84,
      "r": 85,
      "s": 86,
      "t": 87,
      "u": 88,
      "v": 89,
      "w": 90,
      "x": 91,
      "y": 92,
      "z": 93,
      "{": 94,
      "|": 95,
      "}": 96,
      "~": 97,
      "¡": 98,
      "¢": 99,
      "£": 100,
      "¤": 101,
      "¥": 102,
      "¦": 103,
      "§": 104,
      "¨": 105,
      "©": 106,
      "ª": 107,
      "«": 108,
      "¬": 109,
      "®": 110,
      "¯": 111,
      "°": 112,
      "±": 113,
      "²": 114,
      "³": 115,
      "´": 116,
      "µ": 117,
      "¶": 118,
      "·": 119,
      "¸": 120,
      "¹": 121,
      "º": 122,
      "»": 123,
      "¼": 124,
      "½": 125,
      "¾": 126,
      "¿": 127,
      "À": 128,
      "Á": 129,
      "Â": 130,
      "Ã": 131,
      "Ä": 132,
      "Å": 133,
      "Æ": 134,
      "Ç": 135,
      "È": 136,
      "É": 137,
      "Ê": 138,
      "Ë": 139,
      "Ì": 140,
      "Í": 141,
      "Î": 142,
      "Ï": 143,
      "Ð": 144,
      "Ñ": 145,
      "Ò": 146,
      "Ó": 147,
      "Ô": 148,
      "Õ": 149,
      "Ö": 150,
      "×": 151,
      "Ø": 152,
      "Ù": 153,
      "Ú": 154,
      "Û": 155,
      "Ü": 156,
      "Ý": 157,
      "Þ": 158,
      "ß": 159,
      "à": 160,
      "á": 161,
      "â": 162,
      "ã": 163,
      "ä": 164,
      "å": 165,
      "æ": 166,
      "ç": 167,
      "è": 168,
      "é": 169,
      "ê": 170,
      "ë": 171,
      "ì": 172,
      "í": 173,
      "î": 174,
      "ï": 175,
      "ð": 176,
      "ñ": 177,
      "ò": 178,
      "ó": 179,
      "ô": 180,
      "õ": 181,
      "ö": 182,
      "÷": 183,
      "ø": 184,
      "ù": 185,
      "ú": 186,
      "û": 187,
      "ü": 188,
      "ý": 189,
      "þ": 190,
      "ÿ": 191,
      "Ā": 192,
      "ā": 193,
      "Ă": 194,
      "ă": 195,
      "Ą": 196,
      "ą": 197,
      "Ć": 198,
      "ć": 199,
      "Ĉ": 200,
      "ĉ": 201,
      "Ċ": 202,
      "ċ": 203,
      "Č": 204,
      "č": 205,
      "Ď": 206,
      "ď": 207,
      "Đ": 208,
      "đ": 209,
      "Ē": 210,
      "ē": 211,
      "Ĕ": 212,
      "ĕ": 213,
      "Ė": 214,
      "ė": 215,
      "Ę": 216,
      "ę": 217,
      "Ě": 218,
      "ě": 219,
      "Ĝ": 220,
      "ĝ": 221,
      "Ğ": 222,
      "ğ": 223,
      "Ġ": 224,
      "ġ": 225,
      "Ģ": 226,
      "ģ": 227,
      "Ĥ": 228,
      "ĥ": 229,
      "Ħ": 230,
      "ħ": 231,
      "Ĩ": 232,
      "ĩ": 233,
      "Ī": 234,
      "ī": 235,
      "Ĭ": 236,
      "ĭ": 237,
      "Į": 238,
      "į": 239,
      "İ": 240,
      "ı": 241,
      "Ĳ": 242,
      "ĳ": 243,
      "Ĵ": 244,
      "ĵ": 245,
      "Ķ": 246,
      "ķ": 247,
      "ĸ": 248,
      "Ĺ": 249,
      "ĺ": 250,
      "Ļ": 251,
      "ļ": 252,
      "Ľ": 253,
      "ľ": 254,
      "Ŀ": 255,
      "ŀ": 256,
      "Ł": 257,
      "ł": 258,
      "Ń": 259,
      "on": 260,
      "re": 261,
      "ti": 262,
      "th": 263,
      "Ġa": 264,
      "en": 265,
      "Ġc": 266,
      "is": 267,
      "ed": 268,
      "in": 269,
      "Ġth": 270,
      "tion": 271,
      "Ġ\"": 272,
      "er": 273,
      "ce": 274,
      "it": 275,
      "Ġb": 276,
      "at": 277,
      "Ġs": 278,
      "or": 279,
      "id": 280,
      "Ġthe": 281,
      "al": 282,
      "es": 283,
      "Ġis": 284,
      "ou": 285,
      "Ġre": 286,
      "nd": 287,
      "Ġcon": 288,
      "Ġw": 289,
      "Ġd": 290,
      "\":": 291,
      "ing": 292,
      "ity": 293,
      "Ġp": 294,
      "\",": 295,
      "iden": 296,
      "ar": 297,
      "no": 298,
      "ation": 299,
      "Ġbe": 300,
      "qu": 301,
      "op": 302,
      "il": 303,
      "an": 304,
      "idence": 305,
      "om": 306,
      "st": 307,
      "not": 308,
      "Ġf": 309,
      "ec": 310,
      "res": 311,
      "ent": 312,
      "le": 313,
      "Ġm": 314,
      "Ġt": 315,
      "he": 316,
      "ound": 317,
      "Ġnot": 318,
      "ro": 319,
      "Ġe": 320,
      "ra": 321,
      "Ġac": 322,
      "top": 323,
      "ol": 324,
      "if": 325,
      "ary": 326,
      "ge": 327,
      "ver": 328,
      "uth": 329,
      "ve": 330,
      "se": 331,
      "int": 332,
      "vidence": 333,
      "The": 334,
      "Stop": 335,
      "qui": 336,
      "ha": 337,
      "si": 338,
      "ic": 339,
      "oundary": 340,
      "ith": 341,
      "ment": 342,
      "com": 343,
      "red": 344,
      "ority": 345,
      "ur": 346,
      "Ġif": 347,
      "Ġ0": 348,
      "end": 349,
      "Ġwith": 350,
      "te": 351,
      "me": 352,
      "Ġthat": 353,
      "fidence": 354,
      ".\",": 355,
      "cal": 356,
      "su": 357,
      "Ġrequi": 358,
      "ĠA": 359,
      "Ġcan": 360,
      "Ġu": 361,
      "ĠStop": 362,
      "Ġst": 363,
      "uthority": 364,
      "ai": 365,
      "Con": 366,
      "out": 367,
      "Ġl": 368,
      "isi": 369,
      "ly": 370,
      "ble": 371,
      "tin": 372,
      "Ġwh": 373,
      "pp": 374,
      "ate": 375,
      "Ġaction": 376,
      "ig": 377,
      "Ġto": 378,
      "Ġand": 379,
      "ren": 380,
      "ision": 381,
      "ecision": 382,
      "ida": 383,
      "Ġqu": 384,
      "ility": 385,
      "Ġin": 386,
      "stra": 387,
      "straint": 388,
      "Ġevidence": 389,
      "bility": 390,
      "Ġo": 391,
      "ality": 392,
      "edge": 393,
      "calation": 394,
      "xt": 395,
      "ore": 396,
      "as": 397,
      "mend": 398,
      "Ġpro": 399,
      "ted": 400,
      "Ġboundary": 401,
      "ceed": 402,
      "pres": 403,
      "ail": 404,
      "Ġdo": 405,
      "ul": 406,
      "Ġconstraint": 407,
      "Ġthis": 408,
      "able": 409,
      "old": 410,
      "Ġdecision": 411,
      "ting": 412,
      "vi": 413,
      "Ġbef": 414,
      "Ġbefore": 415,
      "ition": 416,
      "commend": 417,
      "Ġrecommend": 418,
      "versi": 419,
      "Ġn": 420,
      "Ġha": 421,
      "rent": 422,
      "ri": 423,
      "Ġit": 424,
      "ew": 425,
      "ĠR": 426,
      "ut": 427,
      "dition": 428,
      "ust": 429,
      "ĠT": 430,
      "Ġh": 431,
      "am": 432,
      "tive": 433,
      "ac": 434,
      "Ġcondition": 435,
      "Ġon": 436,
      "Ġex": 437,
      "ru": 438,
      "Ġat": 439,
      "Ġas": 440,
      "Ġof": 441,
      "versibility": 442,
      "sha": 443,
      "Ġrecommendation": 444,
      "Ġde": 445,
      "cu": 446,
      "{\"": 447,
      "urrent": 448,
      "iling": 449,
      "\"}": 450,
      "ĠThe": 451,
      "escalation": 452,
      "sed": 453,
      "Ġun": 454,
      "Ġti": 455,
      "Ġan": 456,
      "text": 457,
      "Ġauthority": 458,
      "Ġfor": 459,
      "Ġrequires": 460,
      "Ġconfidence": 461,
      "ĠE": 462,
      "Ġsu": 463,
      "Ġch": 464,
      "cument": 465,
      "ated": 466,
      "Ġmust": 467,
      "Ġwhat": 468,
      "ĠCon": 469,
      "ounded": 470,
      "ĠP": 471,
      "et": 472,
      "Ġg": 473,
      "de": 474,
      "sen": 475,
      "con": 476,
      "rec": 477,
      "lo": 478,
      "Ġwithout": 479,
      "vail": 480,
      "Ġma": 481,
      "ure": 482,
      "vailable": 483,
      "Ġquality": 484,
      "shared": 485,
      "ĠI": 486,
      "Ġhas": 487,
      "Ġres": 488,
      "sion": 489,
      "Ġr": 490,
      "uation": 491,
      "Ġop": 492,
      "Ġcurrent": 493,
      "ppor": 494,
      "ld": 495,
      "ituation": 496,
      "Ġbounded": 497,
      "cumented": 498,
      "igh": 499,
      "em": 500,
      "view": 501,
      "Ġchan": 502,
      "lic": 503,
      "pon": 504,
      "Ġcannot": 505,
      "tif": 506,
      "Ġrequired": 507,
      "sure": 508,
      "hold": 509,
      "Ġwithin": 510,
      "ution": 511,
      "rue": 512,
      "im": 513,
      "over": 514,
      "Ġconf": 515,
      "Ġdis": 516,
      "pport": 517,
      "Ġcom": 518,
      "Ġpres": 519,
      "ses": 520,
      "Ġapp": 521,
      "DA": 522,
      "tra": 523,
      "Ġout": 524,
      "put": 525,
      "ponse": 526,
      "yst": 527,
      "ystem": 528,
      "his": 529,
      "Ġproceed": 530,
      "overn": 531,
      "Ġce": 532,
      "ied": 533,
      "Ġceiling": 534,
      "and": 535,
      "ak": 536,
      "Ġescalation": 537,
      "rop": 538,
      "Ġdocumented": 539,
      "Ġavailable": 540,
      "ven": 541,
      "ag": 542,
      "iz": 543,
      "ould": 544,
      "ard": 545,
      "Ġstated": 546,
      "Ġdoes": 547,
      "orrec": 548,
      "ime": 549,
      "ay": 550,
      "ong": 551,
      "Ġsituation": 552,
      "ĠRe": 553,
      "isk": 554,
      "boundary": 555,
      "for": 556,
      "Ġle": 557,
      "ers": 558,
      "ad": 559,
      "af": 560,
      "ign": 561,
      "ĠN": 562,
      "Ġfal": 563,
      "ff": 564,
      "Ġchang": 565,
      "enc": 566,
      "rou": 567,
      "Ġtier": 568,
      "ĠC": 569,
      "Ġresol": 570,
      "Ġ'": 571,
      "ect": 572,
      "Ġreview": 573,
      "Ġab": 574,
      ".\"}": 575,
      "Ġbeen": 576,
      "edi": 577,
      "ud": 578,
      "identif": 579,
      "Ġsupport": 580,
      "Ġfr": 581,
      "estion": 582,
      "Ġfrom": 583,
      "Ġv": 584,
      "til": 585,
      "Ġquestion": 586,
      "ces": 587,
      "confidence": 588,
      "Ġ:": 589,
      "du": 590,
      "Context": 591,
      "one": 592,
      "Ġauth": 593,
      "ame": 594,
      "pressure": 595,
      "Ġpa": 596,
      "roceed": 597,
      "Ġund": 598,
      "Ġcorrec": 599,
      "Ġrisk": 600,
      "ĠTime": 601,
      "sus": 602,
      "sensus": 603,
      "Ġpar": 604,
      "um": 605,
      "vel": 606,
      "Ġsystem": 607,
      "Ġsaf": 608,
      "Ġchanges": 609,
      "Ġsur": 610,
      "ency": 611,
      "Ġint": 612,
      "Ġcontext": 613,
      "Ġhigh": 614,
      "time": 615,
      "pe": 616,
      "Ġsign": 617,
      "Ġlo": 618,
      "ved": 619,
      "ĠThis": 620,
      "rong": 621,
      "ety": 622,
      "ĠReversibility": 623,
      "Ġwas": 624,
      "Ġstop": 625,
      "authority": 626,
      "ance": 627,
      "ory": 628,
      "licting": 629,
      "ĠConf": 630,
      "ON": 631,
      "att": 632,
      "\"]": 633,
      "[\"": 634,
      "ĠS": 635,
      "requi": 636,
      "ves": 637,
      "Ġidentif": 638,
      "ta": 639,
      "oriz": 640,
      "el": 641,
      "required": 642,
      "sw": 643,
      "era": 644,
      "pend": 645,
      "ining": 646,
      "ction": 647,
      "roup": 648,
      "ĠRes": 649,
      "reversibility": 650,
      "Ġcorrect": 651,
      "Ġgovern": 652,
      "evidence": 653,
      "training": 654,
      "True": 655,
      "quality": 656,
      "group": 657,
      "ceiling": 658,
      "now": 659,
      "Boundary": 660,
      "scalation": 661,
      "Ġtime": 662,
      "Ġonly": 663,
      "Ġoutput": 664,
      "Ġhe": 665,
      "Ġauthoriz": 666,
      "ally": 667,
      "pression": 668,
      "Ġes": 669,
      "Ġ|": 670,
      "sent": 671,
      "Ġidentified": 672,
      "ĠResponse": 673,
      "Ġbecom": 674,
      "Evidence": 675,
      "iven": 676,
      "ĠD": 677,
      "Ġunder": 678,
      "ts": 679,
      "Ġne": 680,
      "ecution": 681,
      "GE": 682,
      "IDA": 683,
      "Ġwould": 684,
      "ros": 685,
      "rence": 686,
      "Ġfl": 687,
      "Ġfra": 688,
      "ĠConfidence": 689,
      "swer": 690,
      "Ġpath": 691,
      "Ġconflicting": 692,
      "Ġco": 693,
      "Ġpo": 694,
      "low": 695,
      "Ġsafety": 696,
      "ailure": 697,
      "Ġnew": 698,
      "eam": 699,
      "ĠProceed": 700,
      "las": 701,
      "Ġdepend": 702,
      "oun": 703,
      "ran": 704,
      "Ġmo": 705,
      "Ġone": 706,
      "ct": 707,
      "Ġhold": 708,
      "par": 709,
      "ain": 710,
      "DGE": 711,
      "use": 712,
      "Ġlevel": 713,
      "tim": 714,
      "Ġfalse": 715,
      "Ġsh": 716,
      "ir": 717,
      "ach": 718,
      "ĠĠ": 719,
      "ause": 720,
      "Ġare": 721,
      "reshold": 722,
      "Ġthreshold": 723,
      "Ġteam": 724,
      "ecom": 725,
      "coun": 726,
      "ace": 727,
      "est": 728,
      "Ġproceeding": 729,
      "edium": 730,
      "ming": 731,
      "Ġactive": 732,
      "TI": 733,
      "Ġbecomes": 734,
      "Ġmin": 735,
      "Ġescal": 736,
      "mit": 737,
      "jud": 738,
      "ser": 739,
      "Ġresolved": 740,
      "ove": 741,
      "know": 742,
      "Ġcros": 743,
      "ech": 744,
      "ter": 745,
      "Wh": 746,
      "Ġanswer": 747,
      "ici": 748,
      "Ġexp": 749,
      "Ġasses": 750,
      "Ġframing": 751,
      "Ġconsensus": 752,
      "sing": 753,
      "cer": 754,
      "ater": 755,
      "Ġflag": 756,
      "What": 757,
      "ĠAuthority": 758,
      "mat": 759,
      "Ġany": 760,
      "ich": 761,
      "taint": 762,
      "tainty": 763,
      "EDGE": 764,
      "Ġstand": 765,
      "Ġsignal": 766,
      "ropri": 767,
      "ropriate": 768,
      "Ġappropriate": 769,
      "face": 770,
      "Ġor": 771,
      "Ġabove": 772,
      "till": 773,
      "Ġtrue": 774,
      "Ġro": 775,
      "Ġexecution": 776,
      "gency": 777,
      "Ġwhe": 778,
      "imit": 779,
      "Ġad": 780,
      "ence": 781,
      "ĠIt": 782,
      "ris": 783,
      "Ġwhich": 784,
      "rodu": 785,
      "li": 786,
      "pai": 787,
      "ĠEscalation": 788,
      "Ġreach": 789,
      "compression": 790,
      "alid": 791,
      "ption": 792,
      "Ġuna": 793,
      "ffici": 794,
      "fficient": 795,
      "Ġla": 796,
      "certainty": 797,
      "Ġpresent": 798,
      "Ġlay": 799,
      "ple": 800,
      "ue": 801,
      "Ġtak": 802,
      "ĠName": 803,
      "Ġunavailable": 804,
      "sis": 805,
      "ull": 806,
      "Ġlayer": 807,
      "Ġlimit": 808,
      "ls": 809,
      "ily": 810,
      "amily": 811,
      "mo": 812,
      "72": 813,
      "den": 814,
      "Ġresponse": 815,
      "'.": 816,
      "Ġrequ": 817,
      "Ġopera": 818,
      "NDA": 819,
      "ruct": 820,
      "Ġparti": 821,
      "Ġstill": 822,
      "count": 823,
      "ex": 824,
      "bit": 825,
      "sment": 826,
      "tee": 827,
      "erate": 828,
      "olic": 829,
      "olicy": 830,
      "OP": 831,
      "rior": 832,
      "herence": 833,
      "Ġview": 834,
      "Ġchange": 835,
      "mittee": 836,
      "sition": 837,
      "ide": 838,
      "cess": 839,
      "gul": 840,
      "pair": 841,
      "Ġpreser": 842,
      "Ġopen": 843,
      "Ġcl": 844,
      "Ġmade": 845,
      "ecu": 846,
      "Ġconstraints": 847,
      "Ġtr": 848,
      "do": 849,
      "Ġby": 850,
      "option": 851,
      "judge": 852,
      "echo": 853,
      "atlas": 854,
      "ector": 855,
      "pris": 856,
      "orbit": 857,
      "ulse": 858,
      "prism": 859,
      "tinel": 860,
      "shade": 861,
      "forge": 862,
      "sentinel": 863,
      "pulse": 864,
      "vector": 865,
      "Ġpre": 866,
      "fl": 867,
      "Situation": 868,
      "TION": 869,
      "rix": 870,
      "Ġgoverning": 871,
      "Ġno": 872,
      "lead": 873,
      "Ġescalate": 874,
      "Ġnone": 875,
      "ason": 876,
      "ap": 877,
      "Ġreason": 878,
      "ern": 879,
      "ations": 880,
      "Ġuntil": 881,
      "atten": 882,
      "decision": 883,
      "fe": 884,
      "AI": 885,
      "Ġtaken": 886,
      "family": 887,
      "ty": 888,
      "ĠB": 889,
      "tep": 890,
      "Ġstep": 891,
      "matrix": 892,
      "attening": 893,
      "ist": 894,
      "Ġgiven": 895,
      "Ġsurface": 896,
      "sum": 897,
      "ecommend": 898,
      "gulat": 899,
      "AL": 900,
      "Ġhere": 901,
      "ecutive": 902,
      "Ġdef": 903,
      "Ġhave": 904,
      "ther": 905,
      "OU": 906,
      "Ġrever": 907,
      "Ġreversed": 908,
      "IT": 909,
      "holding": 910,
      "Ġwho": 911,
      "Ġreached": 912,
      "Ġstruct": 913,
      "ch": 914,
      "Ġpolicy": 915,
      "Ġim": 916,
      "Ġthan": 917,
      "ĠDo": 918,
      "ake": 919,
      "ĠM": 920,
      "Ġsurvi": 921,
      "ful": 922,
      "Ġminority": 923,
      "gi": 924,
      "Confidence": 925,
      "Ġer": 926,
      "ĠNo": 927,
      "Ġnam": 928,
      "Ġmak": 929,
      "wful": 930,
      "ĠEvidence": 931,
      "ĠH": 932,
      "only": 933,
      "RY": 934,
      "CON": 935,
      "Recommend": 936,
      "Ġshould": 937,
      "Ġdi": 938,
      "ME": 939,
      "OUNDA": 940,
      "OUNDARY": 941,
      "Ġrequire": 942,
      "Ġcontra": 943,
      "failure": 944,
      "Ġfalls": 945,
      "Ġassum": 946,
      "Ġeras": 947,
      "48": 948,
      "ernal": 949,
      "irm": 950,
      "ropo": 951,
      "Ġpropo": 952,
      "Ġauthorization": 953,
      "Ġ`": 954,
      "TOP": 955,
      "Ġcal": 956,
      "with": 957,
      "ced": 958,
      "Ġconc": 959,
      "knowl": 960,
      "Ġstate": 961,
      "Ġposition": 962,
      "Govern": 963,
      "Ġmatt": 964,
      "ant": 965,
      "clo": 966,
      "Ġfull": 967,
      "Ġclai": 968,
      "ĠL": 969,
      "ĠO": 970,
      "ari": 971,
      "ack": 972,
      "derate": 973,
      "Ġext": 974,
      "ability": 975,
      "ctions": 976,
      "Ġpl": 977,
      "Ġuncertainty": 978,
      "Ġparty": 979,
      "dic": 980,
      "Ġholding": 981,
      "Ġgovernance": 982,
      "TE": 983,
      "off": 984,
      "akehold": 985,
      "blem": 986,
      "Ġproposed": 987,
      "support": 988,
      "Ġstrong": 989,
      "none": 990,
      "without": 991,
      "tify": 992,
      "ates": 993,
      "Ġlow": 994,
      "Ġmedium": 995,
      "ER": 996,
      "senting": 997,
      "gment": 998,
      "Ġexceed": 999,
      "ested": 1000,
      "Ġprodu": 1001,
      "medi": 1002,
      "mediate": 1003,
      "Ġsufficient": 1004,
      "Ġbet": 1005,
      "acy": 1006,
      "Ġassessment": 1007,
      "Ġcre": 1008,
      "Ġedge": 1009,
      "ip": 1010,
      "dentify": 1011,
      "gitim": 1012,
      "Ġnamed": 1013,
      "Ġproblem": 1014,
      "Ġlawful": 1015,
      "Ġclaim": 1016,
      "Ġoperative": 1017,
      "Ġfailure": 1018,
      "Ġdissenting": 1019,
      "gh": 1020,
      "Res": 1021,
      "urgency": 1022,
      "high": 1023,
      "Re": 1024,
      "Ġbut": 1025,
      "ĠCurrent": 1026,
      "consensus": 1027,
      "team": 1028,
      "yc": 1029,
      "Ġcyc": 1030,
      "Ġstakehold": 1031,
      "ange": 1032,
      "ilater": 1033,
      "Ġunilater": 1034,
      "This": 1035,
      "action": 1036,
      "ord": 1037,
      "Ġdependency": 1038,
      "countable": 1039,
      "parse": 1040,
      "per": 1041,
      "ĠEx": 1042,
      "ĠV": 1043,
      "dres": 1044,
      "Ġcycle": 1045,
      "An": 1046,
      "Ġacknowl": 1047,
      "Ġdissent": 1048,
      "ork": 1049,
      "flattening": 1050,
      "licit": 1051,
      "OR": 1052,
      "Ġheld": 1053,
      "mary": 1054,
      "side": 1055,
      "Ġhard": 1056,
      "Ġwin": 1057,
      "Ġdom": 1058,
      "Ġrequirement": 1059,
      "Ġresolution": 1060,
      "medium": 1061,
      "Ġpressure": 1062,
      "plete": 1063,
      "Ġexplicit": 1064,
      "Ġhigher": 1065,
      "ess": 1066,
      "un": 1067,
      "Ġcontradic": 1068,
      "Ġinv": 1069,
      "user": 1070,
      "Ġcost": 1071,
      "Ġreversibility": 1072,
      "form": 1073,
      "ĠSt": 1074,
      "ot": 1075,
      "ute": 1076,
      "po": 1077,
      "Ġoutside": 1078,
      "Ġprov": 1079,
      "ained": 1080,
      "ension": 1081,
      "ck": 1082,
      "uture": 1083,
      "Ġprec": 1084,
      "Ġpreced": 1085,
      "Ġprecedent": 1086,
      "Ġassumption": 1087,
      "agno": 1088,
      "eg": 1089,
      "Ġuser": 1090,
      "ĠIdentify": 1091,
      "ists": 1092,
      "Ġwhen": 1093,
      "jority": 1094,
      "ified": 1095,
      "ning": 1096,
      "Ġen": 1097,
      "erve": 1098,
      "Ġacknowled": 1099,
      "Ġfuture": 1100,
      "Ġli": 1101,
      "ceal": 1102,
      "Ġrange": 1103,
      "Ġmay": 1104,
      "Ġmatters": 1105,
      "Escalation": 1106,
      "system": 1107,
      "aly": 1108,
      "Ġoption": 1109,
      "lies": 1110,
      "Ġapplies": 1111,
      "alysis": 1112,
      "executive": 1113,
      "committee": 1114,
      "Ġal": 1115,
      "ĠF": 1116,
      "ĠIF": 1117,
      "gulator": 1118,
      "CONF": 1119,
      "mode": 1120,
      "Ġact": 1121,
      "Ġaddres": 1122,
      "Ġstakeholder": 1123,
      "press": 1124,
      "Ġy": 1125,
      "ree": 1126,
      "lock": 1127,
      "rans": 1128,
      "Ġreasoning": 1129,
      "Ġwrong": 1130,
      "Ġdepends": 1131,
      "Ġrepair": 1132,
      "ome": 1133,
      "Ġwhere": 1134,
      "Ġsome": 1135,
      "ear": 1136,
      "ical": 1137,
      "ĠBoundary": 1138,
      "Ġtension": 1139,
      "EC": 1140,
      "ulation": 1141,
      "Ġnext": 1142,
      "ateri": 1143,
      "Ġmateri": 1144,
      "conf": 1145,
      "Ġ(": 1146,
      "Ġwhether": 1147,
      "Proceed": 1148,
      "ending": 1149,
      "oi": 1150,
      "Ġpending": 1151,
      "ase": 1152,
      "oherence": 1153,
      "Ġpartial": 1154,
      "Ġanalysis": 1155,
      "gitimacy": 1156,
      "ĠCom": 1157,
      "Ġmaterially": 1158,
      "verified": 1159,
      "of": 1160,
      "sc": 1161,
      "uard": 1162,
      "ine": 1163,
      "Ġaccountable": 1164,
      "Ġway": 1165,
      "ĠProceeding": 1166,
      "ĠAn": 1167,
      "Governing": 1168,
      "Ġdrop": 1169,
      "Ġvalid": 1170,
      "Ġdrops": 1171,
      "sol": 1172,
      "oft": 1173,
      "isted": 1174,
      "Ġbeing": 1175,
      "Ġreal": 1176,
      "pressed": 1177,
      "regulator": 1178,
      "Ġcross": 1179,
      "wo": 1180,
      "ĠAc": 1181,
      "Ġwhole": 1182,
      "vis": 1183,
      "rail": 1184,
      "ference": 1185,
      "Ġacted": 1186,
      "Ġbelow": 1187,
      "guard": 1188,
      "age": 1189,
      "Ġassessed": 1190,
      "ĠU": 1191,
      "Ġactions": 1192,
      "Do": 1193,
      "Ġper": 1194,
      "solute": 1195,
      "Ġabsolute": 1196,
      "ication": 1197,
      "Ġrec": 1198,
      "Ġcostly": 1199,
      "dow": 1200,
      "Ġwindow": 1201,
      "rails": 1202,
      "guardrails": 1203,
      "Ġprovid": 1204,
      "ĠConfirm": 1205,
      "ĠAuth": 1206,
      "Ġurgency": 1207,
      "Ġlisted": 1208,
      "term": 1209,
      "Ġverified": 1210,
      "Ġintrodu": 1211,
      "Ġintroduced": 1212,
      "Ġpreference": 1213,
      "Ġpers": 1214,
      "ranch": 1215,
      "lass": 1216,
      "Ġsurvives": 1217,
      "Ġset": 1218,
      "sul": 1219,
      "Ġyet": 1220,
      "Ġdec": 1221,
      "alidates": 1222,
      "Ġmaint": 1223,
      "force": 1224,
      "Ġinvalidates": 1225,
      "Ġprovides": 1226,
      "Ġmaintained": 1227,
      "sequ": 1228,
      "Name": 1229,
      "ight": 1230,
      "ATE": 1231,
      "CAL": 1232,
      "ype": 1233,
      "88": 1234,
      "Ġliability": 1235,
      "Ġcompressed": 1236,
      "ata": 1237,
      "Ġcont": 1238,
      "Ġtype": 1239,
      "culation": 1240,
      "idue": 1241,
      "igg": 1242,
      "Ġblock": 1243,
      "Ġtrigg": 1244,
      "ĠPause": 1245,
      "Ġcalculation": 1246,
      "Ġcontradicted": 1247,
      "Ġminim": 1248,
      "oice": 1249,
      "SCAL": 1250,
      "SCALATE": 1251,
      "Ġminimum": 1252,
      "Ġbranch": 1253,
      "82": 1254,
      "Ġdefin": 1255,
      "peer": 1256,
      "Ġmode": 1257,
      "Ġdocument": 1258,
      "olution": 1259,
      "rough": 1260,
      "AC": 1261,
      "Ġauthorized": 1262,
      "ATION": 1263,
      "ill": 1264,
      "rete": 1265,
      "Ġconcrete": 1266,
      "rimary": 1267,
      "Ġwill": 1268,
      "us": 1269,
      "BOUNDARY": 1270,
      "STOP": 1271,
      "Ġ1": 1272,
      "Ġmore": 1273,
      "ĠIn": 1274,
      "Ġvisi": 1275,
      "agnosis": 1276,
      "Ġask": 1277,
      "roughput": 1278,
      "ĠIf": 1279,
      "Ġmand": 1280,
      "itive": 1281,
      "Ġconditions": 1282,
      "Ġdefinitive": 1283,
      "formation": 1284,
      "Ġconsequ": 1285,
      "ecompo": 1286,
      "visory": 1287,
      "ined": 1288,
      "preserve": 1289,
      "EV": 1290,
      "',": 1291,
      "pera": 1292,
      "Given": 1293,
      "Recommended": 1294,
      "Ġdomain": 1295,
      "very": 1296,
      "ond": 1297,
      "Case": 1298,
      "dge": 1299,
      "hip": 1300,
      "Ġexists": 1301,
      "Ġmoderate": 1302,
      "Ġpreserves": 1303,
      "Ġtruth": 1304,
      "Ġme": 1305,
      "our": 1306,
      "Ġerasing": 1307,
      "Ġbound": 1308,
      "Ġcompression": 1309,
      "roduce": 1310,
      "atory": 1311,
      "Ġmandatory": 1312,
      "Ġdistin": 1313,
      "Ġshar": 1314,
      "Ġrequested": 1315,
      "Ġits": 1316,
      "vention": 1317,
      "Ġconsent": 1318,
      "ving": 1319,
      "Ġsupports": 1320,
      "Ġknow": 1321,
      "issent": 1322,
      "coherence": 1323,
      "Ġlawfully": 1324,
      "ext": 1325,
      "Ġconceal": 1326,
      "sti": 1327,
      "Ġ48": 1328,
      "legitimacy": 1329,
      "cally": 1330,
      "Ġ72": 1331,
      "ene": 1332,
      "Ġ2": 1333,
      "strong": 1334,
      "Ġinto": 1335,
      "ulti": 1336,
      "Ġar": 1337,
      "Ġcreate": 1338,
      "Ġcoherence": 1339,
      "Ġfi": 1340,
      "Ġdistinctions": 1341,
      "produce": 1342,
      "Ġrecord": 1343,
      "Ġsuppor": 1344,
      "act": 1345,
      "Ġsharper": 1346,
      "external": 1347,
      "Ġconsul": 1348,
      "Ġtruths": 1349,
      "scene": 1350,
      "Ġsafe": 1351,
      "Ġconsulted": 1352,
      "Ġnoted": 1353,
      "forcement": 1354,
      "Ġman": 1355,
      "Ġrequest": 1356,
      "Residue": 1357,
      "Ġtwo": 1358,
      "Ġdif": 1359,
      "enforcement": 1360,
      "Ġbo": 1361,
      "Ġsupported": 1362,
      "OM": 1363,
      "Ġrecommended": 1364,
      "Ġsparse": 1365,
      "ĠHold": 1366,
      "go": 1367,
      "Ġrem": 1368,
      "Ġstandard": 1369,
      "Ġclo": 1370,
      "Ġundo": 1371,
      "Ġimmediate": 1372,
      "Ġundocumented": 1373,
      "ays": 1374,
      "back": 1375,
      "Ġdata": 1376,
      "cur": 1377,
      "ged": 1378,
      "Ġauthorize": 1379,
      "Ġval": 1380,
      "lap": 1381,
      "ĠPrior": 1382,
      "ward": 1383,
      "?\",": 1384,
      "reak": 1385,
      "art": 1386,
      "Ġrole": 1387,
      "peed": 1388,
      "pec": 1389,
      "yn": 1390,
      "ational": 1391,
      "arm": 1392,
      "Ġprior": 1393,
      "peting": 1394,
      "Ġoper": 1395,
      "ron": 1396,
      "ĠEvery": 1397,
      "ration": 1398,
      "ery": 1399,
      "eer": 1400,
      "ress": 1401,
      "Ġquery": 1402,
      "Ġextend": 1403,
      "EN": 1404,
      "uses": 1405,
      "Ġcause": 1406,
      "Ġcrossed": 1407,
      "Ġwork": 1408,
      "Ma": 1409,
      "Ġdecid": 1410,
      "viron": 1411,
      "vironment": 1412,
      "Majority": 1413,
      "Hold": 1414,
      "Ġlimited": 1415,
      "Ġparties": 1416,
      "Ġenvironment": 1417,
      "Ġtre": 1418,
      "Ġsc": 1419,
      "cessary": 1420,
      "Ġclosed": 1421,
      "Ġcommittee": 1422,
      "epar": 1423,
      "Ġclass": 1424,
      "ject": 1425,
      "Ġj": 1426,
      "Ġunilaterally": 1427,
      "Ġbreak": 1428,
      "ariation": 1429,
      "Ġright": 1430,
      "Ġaddressing": 1431,
      "Ġdecided": 1432,
      "Ġpauses": 1433,
      "sufficient": 1434,
      "Ġoc": 1435,
      "Ġoccur": 1436,
      "Ġinsufficient": 1437,
      "Ġblocker": 1438,
      "Ġsoft": 1439,
      "In": 1440,
      "ding": 1441,
      "eparate": 1442,
      "utput": 1443,
      "Ġlast": 1444,
      "Ġacknowledgment": 1445,
      "Ġupon": 1446,
      "Ġdirec": 1447,
      "val": 1448,
      "Ġsub": 1449,
      "bounded": 1450,
      "Ġnecessary": 1451,
      "Ġbetter": 1452,
      "Ġescalated": 1453,
      "ection": 1454,
      "Ġra": 1455,
      "Ġstructure": 1456,
      "Ġdeterm": 1457,
      "throughput": 1458,
      "ener": 1459,
      "ub": 1460,
      "Ġdisclo": 1461,
      "ave": 1462,
      "ents": 1463,
      "ey": 1464,
      "Ġthen": 1465,
      "identify": 1466,
      "we": 1467,
      "Pause": 1468,
      "90": 1469,
      "Ġload": 1470,
      "ween": 1471,
      "Ġbetween": 1472,
      "Ġimp": 1473,
      "Ġnow": 1474,
      "earing": 1475,
      "amined": 1476,
      "bearing": 1477,
      "Ġ-": 1478,
      "=\"": 1479,
      "ines": 1480,
      "ati": 1481,
      "ĠExecution": 1482,
      "Must": 1483,
      "Recommendation": 1484,
      "Edge": 1485,
      "documented": 1486,
      "conflicting": 1487,
      "Ġdecisions": 1488,
      "gn": 1489,
      "Ġoperating": 1490,
      "Ġjud": 1491,
      "Ġaccoun": 1492,
      "Ġdetermines": 1493,
      "lback": 1494,
      "ected": 1495,
      "Ġstructur": 1496,
      "Ġerased": 1497,
      "Ġforward": 1498,
      "Ġcar": 1499,
      "ĠState": 1500,
      "tial": 1501,
      "ollap": 1502,
      "lied": 1503,
      "Ġapplied": 1504,
      "Ġnego": 1505,
      "Ġnegoti": 1506,
      "gulatory": 1507,
      "Ġoptions": 1508,
      "ĠBOUNDARY": 1509,
      "Ġmake": 1510,
      "Ġsurvive": 1511,
      "ublic": 1512,
      "Ġover": 1513,
      "ĠVariation": 1514,
      "Current": 1515,
      "Action": 1516,
      "Decompo": 1517,
      "Ġjudgment": 1518,
      "ĠAny": 1519,
      "Ġcomplete": 1520,
      "ners": 1521,
      "lev": 1522,
      "MEM": 1523,
      "levant": 1524,
      "arity": 1525,
      "Ġdays": 1526,
      "Ġfix": 1527,
      "erves": 1528,
      "AU": 1529,
      "Ġrel": 1530,
      "ynth": 1531,
      "Ġcomm": 1532,
      "gan": 1533,
      "Ġlost": 1534,
      "ganiz": 1535,
      "Ġob": 1536,
      "Ġincom": 1537,
      "Ġthem": 1538,
      "Ġplan": 1539,
      "esson": 1540,
      "sessment": 1541,
      "ssessment": 1542,
      "Assessment": 1543,
      "gress": 1544,
      "velop": 1545,
      "Ġfe": 1546,
      "Ġprot": 1547,
      "mis": 1548,
      "Ġinter": 1549,
      "Ġdiffe": 1550,
      "Ġ90": 1551,
      "ĠSTOP": 1552,
      "Ġrelations": 1553,
      "Ġvalue": 1554,
      "Ġoptim": 1555,
      "alse": 1556,
      "velopment": 1557,
      "Ġrelationship": 1558,
      "acket": 1559,
      "Ġdefer": 1560,
      "Ġpacket": 1561,
      "ĠOutput": 1562,
      "Ġstands": 1563,
      "oot": 1564,
      "Ġom": 1565,
      "Ġomit": 1566,
      "ollapse": 1567,
      "Key": 1568,
      "IX": 1569,
      "Ġincomplete": 1570,
      "ident": 1571,
      "Ġaff": 1572,
      "compress": 1573,
      "Ġconcl": 1574,
      "eck": 1575,
      "exist": 1576,
      "lear": 1577,
      "repair": 1578,
      "Ġoperations": 1579,
      "mature": 1580,
      "stit": 1581,
      "tability": 1582,
      "stitution": 1583,
      "Ġtrans": 1584,
      "Ġaccess": 1585,
      "Ġrequirements": 1586,
      "orrected": 1587,
      "Ġexternal": 1588,
      "FIX": 1589,
      "Corrected": 1590,
      "inority": 1591,
      "65": 1592,
      "Ġdid": 1593,
      "Ġcarri": 1594,
      "Ġmeet": 1595,
      "Ġdeli": 1596,
      "partial": 1597,
      "moderate": 1598,
      "immediate": 1599,
      "Ġunilateral": 1600,
      "collapse": 1601,
      "Ġlocally": 1602,
      "ogn": 1603,
      "ile": 1604,
      "Ġproceeded": 1605,
      "pl": 1606,
      "Full": 1607,
      "irst": 1608,
      "pendent": 1609,
      "Ġdifferent": 1610,
      "dependent": 1611,
      "Ġpeer": 1612,
      "Ġeven": 1613,
      "idden": 1614,
      "ĠMulti": 1615,
      "ral": 1616,
      "Ġdocumentation": 1617,
      "Ġwe": 1618,
      "ception": 1619,
      "Ġpoint": 1620,
      "ies": 1621,
      "Ġfin": 1622,
      "ific": 1623,
      "Ġapply": 1624,
      "Ġexecutive": 1625,
      "Ġfirst": 1626,
      "Ġinteg": 1627,
      "Ġoutcom": 1628,
      "ynthes": 1629,
      "55": 1630,
      "Ġrul": 1631,
      "ish": 1632,
      "Ġmost": 1633,
      "Ġbounds": 1634,
      "Ġbecome": 1635,
      "Ġchanged": 1636,
      "ib": 1637,
      "pas": 1638,
      "ingle": 1639,
      "Ġtrigger": 1640,
      "Ġboth": 1641,
      "Ġbypas": 1642,
      "Ġsingle": 1643,
      "Ġflattening": 1644,
      "len": 1645,
      "Ġneed": 1646,
      "75": 1647,
      "Ġcorrectly": 1648,
      "00": 1649,
      "Ġ/": 1650,
      "Ġalone": 1651,
      "Ġexist": 1652,
      "ort": 1653,
      "ures": 1654,
      "Ġoutcome": 1655,
      "Ġdeferral": 1656,
      "Sec": 1657,
      "Ġfa": 1658,
      "Ġintervention": 1659,
      "Authority": 1660,
      "rac": 1661,
      "Ġrol": 1662,
      "Ġmaking": 1663,
      "cident": 1664,
      "95": 1665,
      "Ġcontested": 1666,
      "Ġlesson": 1667,
      "Ġsol": 1668,
      "89": 1669,
      "Ġcompeting": 1670,
      "ĠESCALATE": 1671,
      "ĠPublic": 1672,
      "ollow": 1673,
      "Ġclear": 1674,
      "echn": 1675,
      "Ġfollow": 1676,
      "urface": 1677,
      "thers": 1678,
      "Ġothers": 1679,
      "Ġvoice": 1680,
      "Ġharm": 1681,
      "pre": 1682,
      "aces": 1683,
      "name": 1684,
      "are": 1685,
      "Ġproduce": 1686,
      "ognition": 1687,
      "recognition": 1688,
      "Ġcorrected": 1689,
      "Ġrollback": 1690,
      "Ġseparate": 1691,
      "ry": 1692,
      "isting": 1693,
      "LE": 1694,
      "Ġvisible": 1695,
      "closes": 1696,
      "ppen": 1697,
      "Ġhappen": 1698,
      "sparse": 1699,
      "Ġlimits": 1700,
      "alance": 1701,
      "hain": 1702,
      "JU": 1703,
      "Ġorganiz": 1704,
      "JUDGE": 1705,
      "tle": 1706,
      "Ġchain": 1707,
      "Ġwai": 1708,
      "ACTION": 1709,
      "ĠNO": 1710,
      "udit": 1711,
      "Ġprimary": 1712,
      "92": 1713,
      "Ġdest": 1714,
      "revi": 1715,
      "vation": 1716,
      "urality": 1717,
      "CE": 1718,
      "Ġjust": 1719,
      "Ġstructural": 1720,
      "Com": 1721,
      "tical": 1722,
      "ĠWhat": 1723,
      "Ġabout": 1724,
      "quest": 1725,
      "SI": 1726,
      "Ġpost": 1727,
      "Ġchoice": 1728,
      "Ġdiagnosis": 1729,
      "oo": 1730,
      "Ġdirection": 1731,
      "els": 1732,
      "Ġbreaks": 1733,
      "Ġexamined": 1734,
      "Ġfeels": 1735,
      "Ġfore": 1736,
      "false": 1737,
      "ĠQ": 1738,
      "ences": 1739,
      "Ġsolves": 1740,
      "ID": 1741,
      "Ġdisclosed": 1742,
      "ere": 1743,
      "erest": 1744,
      "Request": 1745,
      "Ġinterest": 1746,
      "Ġasks": 1747,
      "pective": 1748,
      "Ġadvisory": 1749,
      "rated": 1750,
      "Ġgave": 1751,
      "ĠQu": 1752,
      "Ġworks": 1753,
      "ĠConstraint": 1754,
      "Ġconsequences": 1755,
      "ĠAccount": 1756,
      "encies": 1757,
      "Ġoptimal": 1758,
      "ITY": 1759,
      "Ġposture": 1760,
      "ĠĠĠĠ": 1761,
      "Ġwaiting": 1762,
      "Ġwhile": 1763,
      "Ġdependencies": 1764,
      "REC": 1765,
      "ET": 1766,
      "ATIONAL": 1767,
      "Ad": 1768,
      "Ġpositions": 1769,
      "Ġthese": 1770,
      "ENCE": 1771,
      "Ġcalib": 1772,
      "Ġcalibrated": 1773,
      "iagnosis": 1774,
      "Dissent": 1775,
      "Ġconsequence": 1776,
      "BLE": 1777,
      "Ġdelib": 1778,
      "ACK": 1779,
      "Ġdeliberate": 1780,
      "Bounded": 1781,
      "ĠCE": 1782,
      "Constraint": 1783,
      "eneric": 1784,
      "IL": 1785,
      "Ġfollows": 1786,
      "ACKET": 1787,
      "ĠQuality": 1788,
      "roy": 1789,
      "perating": 1790,
      "83": 1791,
      "TH": 1792,
      "Ġplaces": 1793,
      "UATION": 1794,
      "ource": 1795,
      "Ġdestroy": 1796,
      "Root": 1797,
      "93": 1798,
      "Advisory": 1799,
      "Operating": 1800,
      "REV": 1801,
      "ORITY": 1802,
      "ĠActions": 1803,
      "XT": 1804,
      "ĠĠĠĠĠ": 1805,
      "AUTH": 1806,
      "SIBLE": 1807,
      "Time": 1808,
      "Ġexceeding": 1809,
      "perative": 1810,
      "ĠOperative": 1811,
      "Diagnosis": 1812,
      "Decomposing": 1813,
      "OPER": 1814,
      "OPERATIONAL": 1815,
      "AUTHORITY": 1816,
      "TIME": 1817,
      "CONTE": 1818,
      "Ġcrosses": 1819,
      "OMME": 1820,
      "ESCALATE": 1821,
      "RECOMME": 1822,
      "IDENCE": 1823,
      "NDATION": 1824,
      "SIT": 1825,
      "ĠCEIL": 1826,
      "ERSIBLE": 1827,
      "RECOMMENDATION": 1828,
      "EVIDENCE": 1829,
      "REVERSIBLE": 1830,
      "CONTEXT": 1831,
      "SITUATION": 1832,
      "At": 1833,
      "ĠGiven": 1834,
      "Answer": 1835,
      "Reversibility": 1836,
      "Risk": 1837,
      "Ġmakes": 1838,
      "ondary": 1839,
      "Primary": 1840,
      "ĠExceed": 1841,
      "Secondary": 1842,
      "ĠExceeding": 1843,
      "ĠPACKET": 1844,
      "ym": 1845,
      "Resolution": 1846,
      "91": 1847,
      "62": 1848,
      "Ġconver": 1849,
      "map": 1850,
      "ci": 1851,
      "84": 1852,
      "63": 1853,
      "78": 1854,
      "66": 1855,
      "73": 1856,
      "68": 1857,
      "81": 1858,
      "61": 1859,
      "Ġwhy": 1860,
      "85": 1861,
      "64": 1862,
      "77": 1863,
      "58": 1864,
      "59": 1865,
      "79": 1866,
      "isibility": 1867,
      "57": 1868,
      "Ġquestions": 1869,
      "67": 1870,
      "ES": 1871,
      "existence": 1872,
      "69": 1873,
      "admap": 1874,
      "fra": 1875,
      "76": 1876,
      "Ġinstitution": 1877,
      "86": 1878,
      "87": 1879,
      "oexistence": 1880,
      "iveness": 1881,
      "ĠRegulatory": 1882,
      "ĠUse": 1883,
      "ctive": 1884,
      "Ġknown": 1885,
      "ification": 1886,
      "ĠBut": 1887,
      "herent": 1888,
      "cial": 1889,
      "lso": 1890,
      "Ġalso": 1891,
      "omati": 1892,
      "ransition": 1893,
      "Ġpreservation": 1894,
      "ĠY": 1895,
      "Ġtool": 1896,
      "Ġroadmap": 1897,
      "Ġstability": 1898,
      "Ġlet": 1899,
      "Ġcoherent": 1900,
      "rgency": 1901,
      "Ġlong": 1902,
      "jectory": 1903,
      "rajectory": 1904,
      "Ġproductive": 1905,
      "Ġindecision": 1906,
      "xi": 1907,
      "agement": 1908,
      "Ġserves": 1909,
      "Ġvisibility": 1910,
      "edaction": 1911,
      "xiety": 1912,
      "Ġanxiety": 1913,
      "Ġharms": 1914,
      "times": 1915,
      "Ġdirectionally": 1916,
      "Ġdeception": 1917,
      "Ġresolving": 1918,
      "Ġconcealment": 1919,
      "Ġconcealed": 1920,
      "Ġtriggers": 1921,
      "Ġdestroys": 1922,
      "Ġsometimes": 1923,
      "Ġappe": 1924,
      "Ġknowing": 1925,
      "Ġliveness": 1926,
      "Ġforecloses": 1927,
      "Ġrather": 1928,
      "Ġharder": 1929,
      "Ġplanning": 1930,
      "Ġperson": 1931,
      ".,": 1932,
      "ĠYES": 1933,
      "yond": 1934,
      "Ġbeyond": 1935,
      "Ġframe": 1936,
      "udent": 1937,
      "ross": 1938,
      "esign": 1939,
      "sible": 1940,
      "Ġ3": 1941,
      "ope": 1942,
      "ric": 1943,
      "Ġmajority": 1944,
      "ants": 1945,
      "Ġprocess": 1946,
      "ĠMultiple": 1947,
      "versible": 1948,
      "ĠRol": 1949,
      "ĠLong": 1950,
      "Ġrest": 1951,
      "Ġrelevant": 1952,
      "ner": 1953,
      "Ġconfirm": 1954,
      "ating": 1955,
      "Ġbas": 1956,
      "Ġdep": 1957,
      "ture": 1958,
      "Ġcreates": 1959,
      "Ġvari": 1960,
      "Ġsolution": 1961,
      "Ġsel": 1962,
      "ĠAction": 1963,
      "ĠPro": 1964,
      "loy": 1965,
      "emo": 1966,
      "ous": 1967,
      "Ġmanag": 1968,
      "iti": 1969,
      "Ġintegr": 1970,
      "Ġspeed": 1971,
      "orical": 1972,
      "Ġintegrity": 1973,
      "Ġmanaged": 1974,
      "Ġprogress": 1975,
      "hase": 1976,
      "Urgency": 1977,
      "Balance": 1978,
      "Redaction": 1979,
      "Trajectory": 1980,
      "Visibility": 1981,
      "Stability": 1982,
      "Rate": 1983,
      "Coexistence": 1984,
      "version": 1985,
      "Ġruling": 1986,
      "Prior": 1987,
      "ĠUn": 1988,
      "rival": 1989,
      "La": 1990,
      "usion": 1991,
      "Ġversion": 1992,
      "Ġdeploy": 1993,
      "generic": 1994,
      "istorical": 1995,
      "ging": 1996,
      "Ġaffect": 1997,
      "uring": 1998,
      "ppres": 1999,
      "ests": 2000,
      "Ġbasis": 2001,
      "Ġredu": 2002,
      "Ġ24": 2003,
      "Ġreduced": 2004,
      "ains": 2005,
      "saf": 2006,
      "Ġconclusion": 2007,
      "Ġsurf": 2008,
      "echnical": 2009,
      "timate": 2010,
      "ĠW": 2011,
      "vice": 2012,
      "ails": 2013,
      "pro": 2014,
      "Ġlear": 2015,
      "unction": 2016,
      "Ġclarity": 2017,
      "Ġstart": 2018,
      "ĠGovern": 2019,
      "ght": 2020,
      "ECT": 2021,
      "Ġtreated": 2022,
      "?\"}": 2023,
      "tain": 2024,
      "Ġaccu": 2025,
      "Ġadop": 2026,
      "Ġadopted": 2027,
      "cep": 2028,
      "Ġk": 2029,
      "SE": 2030,
      "ĠBo": 2031,
      "Ġaccep": 2032,
      "Ġasked": 2033,
      "uity": 2034,
      "app": 2035,
      "racy": 2036,
      "ĠLeg": 2037,
      "mitted": 2038,
      "mem": 2039,
      "Ġactu": 2040,
      "ECTOR": 2041,
      "IM": 2042,
      "Ġdeployment": 2043,
      "Ġinst": 2044,
      "Ġdomin": 2045,
      "Ġomitted": 2046,
      "Ġwants": 2047,
      "Ġdele": 2048,
      "Ġroot": 2049,
      "AIN": 2050,
      "Ġuse": 2051,
      "Ġdominant": 2052,
      "pt": 2053,
      "acing": 2054,
      "Ġgap": 2055,
      "OMAIN": 2056,
      "Ġaddressed": 2057,
      "DOMAIN": 2058,
      "ride": 2059,
      "rable": 2060,
      "emory": 2061,
      "Ġesc": 2062,
      "IMIT": 2063,
      "ĠLIMIT": 2064,
      "ERT": 2065,
      "ALERT": 2066,
      "Ġmatter": 2067,
      "No": 2068,
      "line": 2069,
      "uish": 2070,
      "Any": 2071,
      "cl": 2072,
      "Ġ--": 2073,
      "ailed": 2074,
      "Ġaccepted": 2075,
      "eld": 2076,
      "Ġreversible": 2077,
      "igence": 2078,
      "Ġcontain": 2079,
      "ruction": 2080,
      "Ġquestioning": 2081,
      "Ġcontains": 2082,
      "suppres": 2083,
      "memory": 2084,
      "Ġsum": 2085,
      "calate": 2086,
      "Ġcontract": 2087,
      "Ġsummary": 2088,
      "od": 2089,
      "scalate": 2090,
      "==": 2091,
      "safe": 2092,
      "Ġir": 2093,
      "Ġhad": 2094,
      "reement": 2095,
      "rib": 2096,
      "igno": 2097,
      "Ġigno": 2098,
      "--": 2099,
      "fer": 2100,
      "anti": 2101,
      "Ġperspective": 2102,
      "ware": 2103,
      "ynthesis": 2104,
      "Ġow": 2105,
      "Ex": 2106,
      "Ġsubst": 2107,
      "Ġactionable": 2108,
      "mission": 2109,
      "Ġsurfacing": 2110,
      "Ġfixed": 2111,
      "ken": 2112,
      "ustom": 2113,
      "Ġdevelopment": 2114,
      "ustomer": 2115,
      "Ġsynthesis": 2116,
      "ĠCompress": 2117,
      "iligence": 2118,
      "ead": 2119,
      "Th": 2120,
      "por": 2121,
      "GO": 2122,
      "Ġdisag": 2123,
      "Ġfac": 2124,
      "Ġcontest": 2125,
      "Ġcheck": 2126,
      "ush": 2127,
      "Ġexpo": 2128,
      "ise": 2129,
      "Ġsubstanti": 2130,
      "Ġsubstantiated": 2131,
      "Ġstructures": 2132,
      "Ġacknowledged": 2133,
      "ered": 2134,
      "Ġcommun": 2135,
      "Ġdist": 2136,
      "Ġform": 2137,
      "fort": 2138,
      "Ġbec": 2139,
      "Ġbecause": 2140,
      "gine": 2141,
      "Ġcarries": 2142,
      "Ġdeleted": 2143,
      "rit": 2144,
      "comfort": 2145,
      "Ġpremature": 2146,
      "Inter": 2147,
      "ympt": 2148,
      "Ġsympt": 2149,
      "tification": 2150,
      "'s": 2151,
      "Ġmulti": 2152,
      "unsafe": 2153,
      "ĠComm": 2154,
      "Ġtransition": 2155,
      "ait": 2156,
      "sured": 2157,
      "Minority": 2158,
      "Ġboard": 2159,
      "igration": 2160,
      "Ġholds": 2161,
      "Ġpreserving": 2162,
      "Ġignored": 2163,
      "Ġgu": 2164,
      "`.\",": 2165,
      "Ġdevice": 2166,
      "24": 2167,
      "ĠSurface": 2168,
      "ital": 2169,
      "Ġirre": 2170,
      "Ġaudit": 2171,
      "Ġsk": 2172,
      "nership": 2173,
      "rement": 2174,
      "uted": 2175,
      "Ġassumed": 2176,
      "pecific": 2177,
      "ics": 2178,
      "ering": 2179,
      "lay": 2180,
      "ributed": 2181,
      "vor": 2182,
      "ens": 2183,
      "NE": 2184,
      "gineering": 2185,
      "Ġgaps": 2186,
      "Ġproces": 2187,
      "jec": 2188,
      "ell": 2189,
      "erasure": 2190,
      "Ġmanagement": 2191,
      "tment": 2192,
      "Ġprocesses": 2193,
      "Ġstandards": 2194,
      "Ġcul": 2195,
      "Ġchoo": 2196,
      "thics": 2197,
      "Ġinterests": 2198,
      "Ġsubmission": 2199,
      "Ġnegotiation": 2200,
      "risis": 2201,
      "curement": 2202,
      "oal": 2203,
      "Ġdiligence": 2204,
      "Ġagency": 2205,
      "iod": 2206,
      "Ġperiod": 2207,
      "rutin": 2208,
      "Ġscrutin": 2209,
      "constraint": 2210,
      "ments": 2211,
      "urable": 2212,
      "missing": 2213,
      "Ġconfl": 2214,
      "Ġused": 2215,
      "ero": 2216,
      "Ġchoosing": 2217,
      "Ġdurable": 2218,
      "closure": 2219,
      "ENTI": 2220,
      "overconfidence": 2221,
      "development": 2222,
      "Ġconverted": 2223,
      "NEL": 2224,
      "ENTINEL": 2225,
      "minority": 2226,
      "Ġmis": 2227,
      "override": 2228,
      "VECTOR": 2229,
      "erosion": 2230,
      "Ġag": 2231,
      "premature": 2232,
      "dissent": 2233,
      "suppression": 2234,
      "Ġdesign": 2235,
      "ĠGovernance": 2236,
      "ring": 2237,
      "Ġrequests": 2238,
      "ailing": 2239,
      "Ġgran": 2240,
      "Ġclearance": 2241,
      "cern": 2242,
      "Ġgranted": 2243,
      "lict": 2244,
      "ransformation": 2245,
      "Ġacross": 2246,
      "ĠDocument": 2247,
      "ession": 2248,
      "Ġcrossing": 2249,
      "ateg": 2250,
      "Ġorganization": 2251,
      "Ġbu": 2252,
      "ĠSaf": 2253,
      "ĠDocumentation": 2254,
      "frame": 2255,
      "Ġcarried": 2256,
      "ĠSafety": 2257,
      "BIT": 2258,
      "ĠNovel": 2259,
      "ĠBoth": 2260,
      "ĠInformation": 2261,
      "Ġskip": 2262,
      "roduct": 2263,
      "Ġcer": 2264,
      "ĠRoles": 2265,
      "ĠCompeting": 2266,
      "ĠTechnical": 2267,
      "Ġsession": 2268,
      "stic": 2269,
      "Ġdiagno": 2270,
      "gitimate": 2271,
      "urity": 2272,
      "Ġlegitimate": 2273,
      "Ġtreat": 2274,
      "ĠLegacy": 2275,
      "Ġdiagnostic": 2276,
      "Ġconditional": 2277,
      "wrong": 2278,
      "oftware": 2279,
      "aries": 2280,
      "Ġremains": 2281,
      "Ġansw": 2282,
      "Ġanswered": 2283,
      "Ġboundaries": 2284,
      "tinuity": 2285,
      "comfortable": 2286,
      "Ġuncomfortable": 2287,
      "Ġdelay": 2288,
      "Ġspecific": 2289,
      "ansion": 2290,
      "Ġdisagreement": 2291,
      "Ġnoise": 2292,
      "Ġwell": 2293,
      "Ġhidden": 2294,
      "ecompose": 2295,
      "Ġel": 2296,
      "Ġactually": 2297,
      "Ġlog": 2298,
      "Ġfavor": 2299,
      "Ġconcern": 2300,
      "Ġselection": 2301,
      "tlen": 2302,
      "ifting": 2303,
      "ost": 2304,
      "ottlen": 2305,
      "ottleneck": 2306,
      "Ġbottleneck": 2307,
      "istinguish": 2308,
      "attern": 2309,
      "ify": 2310,
      "Ġsame": 2311,
      "Ġele": 2312,
      "Ġtra": 2313,
      "ize": 2314,
      "Ġproject": 2315,
      "rives": 2316,
      "udents": 2317,
      "Ġarrives": 2318,
      "allen": 2319,
      "emotion": 2320,
      "Ġexpansion": 2321,
      "ince": 2322,
      "Ġexpand": 2323,
      "revious": 2324,
      "Ġsince": 2325,
      "Previous": 2326,
      "Ġpattern": 2327,
      "Ġrequiring": 2328,
      "Ġplurality": 2329,
      "ors": 2330,
      "Ġbuil": 2331,
      "ritical": 2332,
      "Pro": 2333,
      "sur": 2334,
      "Ġsim": 2335,
      "Cl": 2336,
      "Fin": 2337,
      "ĠFin": 2338,
      "Ġchallen": 2339,
      "thing": 2340,
      "Ġisol": 2341,
      "Ġweigh": 2342,
      "reserve": 2343,
      "Proceeding": 2344,
      "Ġappro": 2345,
      "Ġsil": 2346,
      "Ġfamily": 2347,
      "Ġlogged": 2348,
      "Ġaround": 2349,
      "ared": 2350,
      "Ġpreserved": 2351,
      "Ġsilence": 2352,
      "ited": 2353,
      "amed": 2354,
      "Ġbuilding": 2355,
      "class": 2356,
      "Ġcertainty": 2357,
      "Conf": 2358,
      "Ġidentifi": 2359,
      "Ġobst": 2360,
      "pressured": 2361,
      "Ġhistorical": 2362,
      "Ġidentifiable": 2363,
      "Ġprematurely": 2364,
      "Ġalign": 2365,
      "role": 2366,
      "ĠDecompose": 2367,
      "Ġfast": 2368,
      "Ġcomp": 2369,
      "tiv": 2370,
      "Ġaccounts": 2371,
      "motion": 2372,
      "Ġpic": 2373,
      "Ġpos": 2374,
      "rely": 2375,
      "Ġwait": 2376,
      "Ġpicture": 2377,
      "tes": 2378,
      "cealment": 2379,
      "Ġrepl": 2380,
      "Ġpast": 2381,
      "Ġpart": 2382,
      "Ġsent": 2383,
      "Ġweight": 2384,
      "Ġsentence": 2385,
      "Ġprotect": 2386,
      "lowed": 2387,
      "ĠActing": 2388,
      "Ġdistill": 2389,
      "Ġelements": 2390,
      "Ġtitle": 2391,
      "paired": 2392,
      "Ġrepaired": 2393,
      "present": 2394,
      "chit": 2395,
      "chitect": 2396,
      "Ġexposure": 2397,
      "Ġgener": 2398,
      "tic": 2399,
      "chitecture": 2400,
      "Ġneeded": 2401,
      "ind": 2402,
      "Ġfinal": 2403,
      "ORGE": 2404,
      "ative": 2405,
      "resol": 2406,
      "aging": 2407,
      "Ġwinner": 2408,
      "ported": 2409,
      "knowledge": 2410,
      "sumption": 2411,
      "assumption": 2412,
      "endor": 2413,
      "Ġmean": 2414,
      "Ġreported": 2415,
      "**": 2416,
      "Ġgeneral": 2417,
      "Ġleave": 2418,
      "Ġprev": 2419,
      "ĠVer": 2420,
      "Ġestimate": 2421,
      "rivalry": 2422,
      "ĠTest": 2423,
      "accountable": 2424,
      "student": 2425,
      "scope": 2426,
      "Ġknowledge": 2427,
      "ĠEdge": 2428,
      "edu": 2429,
      "infl": 2430,
      "inflation": 2431,
      "Ġexpanded": 2432,
      "Ġflagging": 2433,
      "reep": 2434,
      "creep": 2435,
      "ĠJ": 2436,
      "adoption": 2437,
      "imeter": 2438,
      "Ġremained": 2439,
      "Ġgoal": 2440,
      "Ġincident": 2441,
      "Ġaut": 2442,
      "sive": 2443,
      "IN": 2444,
      "ĠVerify": 2445,
      "flu": 2446,
      "Ġinflu": 2447,
      "roken": 2448,
      "teg": 2449,
      "des": 2450,
      "Preserve": 2451,
      "Sel": 2452,
      "Select": 2453,
      "fact": 2454,
      "reat": 2455,
      "resolved": 2456,
      "Ġunresolved": 2457,
      "ual": 2458,
      "Ġfails": 2459,
      "Ġinfluence": 2460,
      "Ġinstance": 2461,
      "tegration": 2462,
      "Oper": 2463,
      "ensive": 2464,
      "Ġfunction": 2465,
      "Ġchallenge": 2466,
      "ĠEach": 2467,
      "Ġprotection": 2468,
      "ned": 2469,
      "isible": 2470,
      "Ġautomati": 2471,
      "Ġrepe": 2472,
      "Ġartif": 2473,
      "stal": 2474,
      "Ġline": 2475,
      "gin": 2476,
      "ĠPolicy": 2477,
      "Ġaver": 2478,
      "Ġnames": 2479,
      "Ġcompon": 2480,
      "Ġautomatically": 2481,
      "Ġcontin": 2482,
      "rateg": 2483,
      "Ġworking": 2484,
      "fect": 2485,
      "ĠEthics": 2486,
      "IS": 2487,
      "Ġreplace": 2488,
      "Ġisolated": 2489,
      "Ġlens": 2490,
      "resh": 2491,
      "ĠPart": 2492,
      "Ġaccuracy": 2493,
      "Ġsch": 2494,
      "Ġcomes": 2495,
      "Ġelse": 2496,
      "Ġvariable": 2497,
      "Ġperfect": 2498,
      "hort": 2499,
      "Ġera": 2500,
      "Ġerase": 2501,
      "Ġreplacement": 2502,
      "enting": 2503,
      "Ġsa": 2504,
      "Ġproduces": 2505,
      "Ġremove": 2506,
      "ynthesize": 2507,
      "Ġnegotiable": 2508,
      "Ġartifici": 2509,
      "Ġlearned": 2510,
      "lying": 2511,
      "Ġinvisible": 2512,
      "Ġpersists": 2513,
      "ĠEverything": 2514,
      "Ġintact": 2515,
      "Ġassi": 2516,
      "oration": 2517,
      "omatic": 2518,
      "edule": 2519,
      "Ġperimeter": 2520,
      "Ġrarely": 2521,
      "Ġrecommending": 2522,
      "appear": 2523,
      "Ġcontinue": 2524,
      "Ġsaid": 2525,
      "Ġdisappear": 2526,
      "Ġkind": 2527,
      "Ġmoved": 2528,
      "Ġweights": 2529,
      "Ġunderlying": 2530,
      "egitimacy": 2531,
      "brevi": 2532,
      "Ġabbrevi": 2533,
      "Ġabbreviated": 2534,
      "lurality": 2535,
      "Ġsomeone": 2536,
      "Ġsituations": 2537,
      "Ġirrelevant": 2538,
      "ĠTheir": 2539,
      "Ġsymptomatic": 2540,
      "Ġbegin": 2541,
      "Ġtools": 2542,
      "Ġappeared": 2543,
      "Ġhappened": 2544,
      "Ġbeginning": 2545,
      "Ġoverr": 2546,
      "uding": 2547,
      "acle": 2548,
      "Ġfresh": 2549,
      "Ġfinality": 2550,
      "Ġomits": 2551,
      "Ġrepeat": 2552,
      "Ġgues": 2553,
      "Ġartificially": 2554,
      "plification": 2555,
      "ĠDest": 2556,
      "Ġmeets": 2557,
      "Ġaccounting": 2558,
      "Ġfixing": 2559,
      "Ġschedule": 2560,
      "Ġunn": 2561,
      "Ġunnamed": 2562,
      "Ġpresenting": 2563,
      "examined": 2564,
      "ĠUnexamined": 2565,
      "Ġrestoration": 2566,
      "Ġoverridden": 2567,
      "Ġaveraging": 2568,
      "Ġobstacle": 2569,
      "Ġconcluding": 2570,
      "gia": 2571,
      "Ġnostal": 2572,
      "Ġnostalgia": 2573,
      "swork": 2574,
      "Ġguesswork": 2575,
      "Ġcomponents": 2576,
      "Ġcited": 2577,
      "Ġdistillation": 2578,
      "Ġsimplification": 2579,
      "Ġbroken": 2580,
      "Ġtight": 2581,
      "Ġcour": 2582,
      "zard": 2583,
      "Ġhazard": 2584,
      "Ġbypasses": 2585,
      "ĠTake": 2586,
      "ĠConcealment": 2587,
      "ĠDestruction": 2588,
      "Ġtransmitted": 2589,
      "gning": 2590,
      "Ġassigning": 2591,
      "Ġconflate": 2592,
      "tesy": 2593,
      "Ġcourtesy": 2594,
      "aled": 2595,
      "Ġpossible": 2596,
      "Ġunaccountable": 2597,
      "Ġappealed": 2598,
      "Ġstudents": 2599,
      "Ġsolutions": 2600,
      "Ġcontradicts": 2601,
      "rategic": 2602,
      "ĠEscalate": 2603,
      "ĠTh": 2604,
      "ĠFailing": 2605,
      "SENTINEL": 2606,
      "Ġeff": 2607,
      "Ġimplic": 2608,
      "Ġtake": 2609,
      "itiz": 2610,
      "Ġeffect": 2611,
      "RIS": 2612,
      "RISM": 2613,
      "Ġsha": 2614,
      "Ġinformation": 2615,
      "liance": 2616,
      "Ġmet": 2617,
      "ĠRecommend": 2618,
      "rchitecture": 2619,
      "diction": 2620,
      "sue": 2621,
      "uris": 2622,
      "Ġduring": 2623,
      "akes": 2624,
      "urisdiction": 2625,
      "..": 2626,
      "Ġlead": 2627,
      "Ġissue": 2628,
      "Ġcommit": 2629,
      "Ġprevents": 2630,
      "Ġsignific": 2631,
      "sitive": 2632,
      "`.": 2633,
      "Compress": 2634,
      "neg": 2635,
      "Ġorganizational": 2636,
      "del": 2637,
      "dings": 2638,
      "ORBIT": 2639,
      "row": 2640,
      "ized": 2641,
      "negative": 2642,
      "Memory": 2643,
      "Ġdefen": 2644,
      "Surface": 2645,
      "Ġdefensible": 2646,
      "Ġvalu": 2647,
      "Ġdeb": 2648,
      "ĠTwo": 2649,
      "If": 2650,
      "Un": 2651,
      "Ġbypassed": 2652,
      "Ġclaims": 2653,
      "Ġconfirmed": 2654,
      "Integration": 2655,
      "Ġimpact": 2656,
      "Ġjus": 2657,
      "Ġsignificant": 2658,
      "ufact": 2659,
      "Short": 2660,
      "Execution": 2661,
      "Separate": 2662,
      "Intervention": 2663,
      "Clarity": 2664,
      "Progress": 2665,
      "Identify": 2666,
      "Coherence": 2667,
      "Compression": 2668,
      "Plurality": 2669,
      "Repair": 2670,
      "Distinguish": 2671,
      "Continuity": 2672,
      "Legitimacy": 2673,
      "Synthesize": 2674,
      "Throughput": 2675,
      "Lawful": 2676,
      "Speed": 2677,
      "Finality": 2678,
      "Transformation": 2679,
      "doc": 2680,
      "Uncertainty": 2681,
      "Decompose": 2682,
      "ention": 2683,
      "Ġstructurally": 2684,
      "nal": 2685,
      "Ġdirective": 2686,
      "plement": 2687,
      "Last": 2688,
      "UL": 2689,
      "Ġstatement": 2690,
      "Ġlive": 2691,
      "HO": 2692,
      "omain": 2693,
      "dif": 2694,
      "Ġscope": 2695,
      "ger": 2696,
      "Ġflagged": 2697,
      "Ġfield": 2698,
      "Ġ\\": 2699,
      "Ġinform": 2700,
      "FORGE": 2701,
      "ading": 2702,
      "ade": 2703,
      "Ġscar": 2704,
      "ULSE": 2705,
      "Ġstakeholders": 2706,
      "read": 2707,
      "Ġeval": 2708,
      "Ġpol": 2709,
      "Ġrepresent": 2710,
      "Ġimplement": 2711,
      "ecting": 2712,
      "ITH": 2713,
      "Ġthree": 2714,
      "Ġword": 2715,
      "clud": 2716,
      "Ġdue": 2717,
      "ĠWITH": 2718,
      "ow": 2719,
      "Ġvariant": 2720,
      "ĠWITHIN": 2721,
      "Ġdet": 2722,
      "Ġser": 2723,
      "alth": 2724,
      "tected": 2725,
      "ordin": 2726,
      "fers": 2727,
      "lient": 2728,
      "mer": 2729,
      "Ġcoordin": 2730,
      "ortion": 2731,
      "rors": 2732,
      "fit": 2733,
      "domain": 2734,
      "Det": 2735,
      "vo": 2736,
      "Ġcoordination": 2737,
      "void": 2738,
      "Ġavoid": 2739,
      "Ġtransfer": 2740,
      "struct": 2741,
      "Ġformal": 2742,
      "Ġrestric": 2743,
      "ditional": 2744,
      "inical": 2745,
      "Ġshap": 2746,
      "Ġsignificantly": 2747,
      "Ġinformal": 2748,
      "urisdictional": 2749,
      "Ġdiffers": 2750,
      "tivity": 2751,
      "vices": 2752,
      "ĠSu": 2753,
      "any": 2754,
      "licts": 2755,
      "Ġconflicts": 2756,
      "rite": 2757,
      "known": 2758,
      "Ġfacts": 2759,
      "up": 2760,
      "Ġdetailed": 2761,
      "Ġunknown": 2762,
      "atus": 2763,
      "Ġlevels": 2764,
      "MI": 2765,
      "asc": 2766,
      "verage": 2767,
      "OUN": 2768,
      "ĠAt": 2769,
      "ascading": 2770,
      "uman": 2771,
      "block": 2772,
      "Ġsp": 2773,
      "push": 2774,
      "deserves": 2775,
      "DE": 2776,
      "Operational": 2777,
      "ĠGoverning": 2778,
      "mergency": 2779,
      "mak": 2780,
      "Detailed": 2781,
      "structure": 2782,
      "Ġinput": 2783,
      "way": 2784,
      "BOUN": 2785,
      "wn": 2786,
      "ĠSpeed": 2787,
      "ber": 2788,
      "ĠCustomer": 2789,
      "Ġprovide": 2790,
      "ĠProduct": 2791,
      "FA": 2792,
      "pa": 2793,
      "ĠSoftware": 2794,
      "Ġdown": 2795,
      "FAMI": 2796,
      "AUSE": 2797,
      "ĠCrisis": 2798,
      "ĠTrans": 2799,
      "true": 2800,
      "call": 2801,
      "PAUSE": 2802,
      "ĠCommun": 2803,
      "ĠAudit": 2804,
      "ĠUncertainty": 2805,
      "cludes": 2806,
      "ural": 2807,
      "====": 2808,
      "work": 2809,
      "ature": 2810,
      "govern": 2811,
      "Ġpresented": 2812,
      "sel": 2813,
      "Ġsupp": 2814,
      "Ġmigration": 2815,
      "Ġdistortion": 2816,
      "self": 2817,
      "cip": 2818,
      "Ġsystems": 2819,
      "Ġjustification": 2820,
      "Ġexecu": 2821,
      "arly": 2822,
      "Ġengineering": 2823,
      "Ġphase": 2824,
      "Ġprotected": 2825,
      "havi": 2826,
      "Ġcommunication": 2827,
      "Ġobjec": 2828,
      "gy": 2829,
      "havior": 2830,
      "Ġhand": 2831,
      "Ġadditional": 2832,
      "ĠEmotion": 2833,
      "Ġprocurement": 2834,
      "frastructure": 2835,
      "ĠMo": 2836,
      "gen": 2837,
      "Ġhead": 2838,
      "Ġdistributed": 2839,
      "Ġservices": 2840,
      "Ġbehavior": 2841,
      "Ġdr": 2842,
      "sures": 2843,
      "ĠCh": 2844,
      "ep": 2845,
      "Ġevaluation": 2846,
      "Ġaccountability": 2847,
      "Ġrules": 2848,
      "igital": 2849,
      "write": 2850,
      "Ġstatus": 2851,
      "run": 2852,
      "Ġtri": 2853,
      "source": 2854,
      "urther": 2855,
      "Ġfurther": 2856,
      "Ġintegration": 2857,
      "Ġframework": 2858,
      "Ġroom": 2859,
      "ield": 2860,
      "ĠPhase": 2861,
      "achine": 2862,
      "ancial": 2863,
      "cy": 2864,
      "Ġcent": 2865,
      "putational": 2866,
      "limit": 2867,
      "atency": 2868,
      "Ġproduction": 2869,
      "ĠModel": 2870,
      "PRISM": 2871,
      "ount": 2872,
      "pliance": 2873,
      "Ġlearning": 2874,
      "ulner": 2875,
      "ulnerable": 2876,
      "ync": 2877,
      "level": 2878,
      "Ġsuppress": 2879,
      "rency": 2880,
      "parency": 2881,
      "Ġframeworks": 2882,
      "versight": 2883,
      "Ġtech": 2884,
      "ganization": 2885,
      "nolo": 2886,
      "Ġtechnolo": 2887,
      "Ġoversight": 2888,
      "Ġalignment": 2889,
      "Ġfeature": 2890,
      "Ġpush": 2891,
      "Ġpe": 2892,
      "Ġrecall": 2893,
      "governed": 2894,
      "Ġparam": 2895,
      "city": 2896,
      "ocial": 2897,
      "rint": 2898,
      "lig": 2899,
      "mic": 2900,
      "Ġeng": 2901,
      "cces": 2902,
      "Ġatt": 2903,
      "ccession": 2904,
      "Ġz": 2905,
      "Ġobjective": 2906,
      "Ġstartup": 2907,
      "new": 2908,
      "ople": 2909,
      "Ġcompany": 2910,
      "vestment": 2911,
      "Ġpeople": 2912,
      "Ġtechnology": 2913,
      "riting": 2914,
      "care": 2915,
      "critical": 2916,
      "gulated": 2917,
      "Ġcult": 2918,
      "Ġpop": 2919,
      "rict": 2920,
      "try": 2921,
      "harm": 2922,
      "Ġcenter": 2923,
      "Ġprevention": 2924,
      "iation": 2925,
      "orizon": 2926,
      "lower": 2927,
      "Ġcommon": 2928,
      "althcare": 2929,
      "Ġpopulation": 2930,
      "Ġcoexist": 2931,
      "icies": 2932,
      "ones": 2933,
      "Ġhandoff": 2934,
      "Ġscarcity": 2935,
      "Ġreviewable": 2936,
      "Ġaffected": 2937,
      "stage": 2938,
      "Ġimplications": 2939,
      "Ġtrading": 2940,
      "Ġrestricted": 2941,
      "oices": 2942,
      "itization": 2943,
      "Ġdepar": 2944,
      "Ġtransformation": 2945,
      "Ġexpected": 2946,
      "Ġavoidance": 2947,
      "Ġdisclosures": 2948,
      "aliation": 2949,
      "blower": 2950,
      "ĠK": 2951,
      "lame": 2952,
      "erger": 2953,
      "Ġcultures": 2954,
      "oint": 2955,
      "Ġzones": 2956,
      "Ġfacility": 2957,
      "ufacturing": 2958,
      "organization": 2959,
      "Ġpushes": 2960,
      "Ġreorganization": 2961,
      "Ġownership": 2962,
      "Ġdisru": 2963,
      "Ġscrutiny": 2964,
      "Ġbar": 2965,
      "metry": 2966,
      "apital": 2967,
      "Ġvs": 2968,
      "Ġcomment": 2969,
      "Ġoverlap": 2970,
      "Ġoblig": 2971,
      "Ġul": 2972,
      "ptime": 2973,
      "Ġultimate": 2974,
      "edical": 2975,
      "Ġchoices": 2976,
      "Ġengagement": 2977,
      "Ġhorizon": 2978,
      "surance": 2979,
      "Ġquan": 2980,
      "writing": 2981,
      "Ġquantification": 2982,
      "Ġunderwriting": 2983,
      "incident": 2984,
      "Ġstrict": 2985,
      "Ġdepartment": 2986,
      "Ġshifting": 2987,
      "Ġtransitional": 2988,
      "Ġpolicies": 2989,
      "agency": 2990,
      "ademic": 2991,
      "Ġshapes": 2992,
      "profit": 2993,
      "Ġtrial": 2994,
      "onprofit": 2995,
      "Ġparamount": 2996,
      "Ġdocumentable": 2997,
      "Ġdisruption": 2998,
      "Ġpathway": 2999,
      "Ġasym": 3000,
      "utical": 3001,
      "aceutical": 3002,
      "harmaceutical": 3003,
      "function": 3004,
      "Ġasymmetry": 3005,
      "limited": 3006,
      "Ġcommer": 3007,
      "Ġcommercial": 3008,
      "quisi": 3009,
      "quisition": 3010,
      "Ġacquisition": 3011,
      "Ġculture": 3012,
      "mul": 3013,
      "cational": 3014,
      "Ġobligation": 3015,
      "nel": 3016,
      "Ġvalued": 3017,
      "Ġcontractual": 3018,
      "Ġattention": 3019,
      "edia": 3020,
      "Ġpositive": 3021,
      "functional": 3022,
      "Ġaccumul": 3023,
      "Ġvent": 3024,
      "Ġventure": 3025,
      "Ġnegotiated": 3026,
      "Ġoutage": 3027,
      "Ġrenew": 3028,
      "Ġrenewal": 3029,
      "Ġowners": 3030,
      "Ġpersonnel": 3031,
      "Ġtails": 3032,
      "arters": 3033,
      "quarters": 3034,
      "Ġheadquarters": 3035,
      "Ġsprint": 3036,
      "Ġdebt": 3037,
      "Ġexpensive": 3038,
      "Ġaccumulating": 3039,
      "Ġcommunic": 3040,
      "Ġcommunications": 3041,
      "Ġscrutinized": 3042,
      "Ġrevis": 3043,
      "trap": 3044,
      "LA": 3045,
      "stitutional": 3046,
      "ĠCompliance": 3047,
      "ĠRisk": 3048,
      "py": 3049,
      "PA": 3050,
      "ĠKey": 3051,
      "ĠMigration": 3052,
      "Ġacting": 3053,
      "active": 3054,
      "ĠNew": 3055,
      "ĠAs": 3056,
      "Ġmem": 3057,
      "ĠRet": 3058,
      "earch": 3059,
      "ĠMis": 3060,
      "ĠStruct": 3061,
      ".\"": 3062,
      "ĠContext": 3063,
      "ĠLatency": 3064,
      "tract": 3065,
      "PULSE": 3066,
      "OL": 3067,
      "ĠActive": 3068,
      "ĠKnow": 3069,
      "istributed": 3070,
      "ĠExisting": 3071,
      "orkforce": 3072,
      "ĠStudent": 3073,
      "ĠLe": 3074,
      "ĠOb": 3075,
      "ĠConflict": 3076,
      "ĠEr": 3077,
      "ĠChange": 3078,
      "ledge": 3079,
      "curacy": 3080,
      "ĠAccuracy": 3081,
      "pen": 3082,
      "ĠCommand": 3083,
      "ecurity": 3084,
      "ĠVulnerable": 3085,
      "ĠProcess": 3086,
      "ĠClient": 3087,
      "ĠIP": 3088,
      "gent": 3089,
      "ĠDesign": 3090,
      "ĠKnowledge": 3091,
      "ĠInstitutional": 3092,
      "ĠTransparency": 3093,
      "Ġmember": 3094,
      "ĠRoot": 3095,
      "ĠHarm": 3096,
      "ĠAsync": 3097,
      "pply": 3098,
      "ĠResource": 3099,
      "ĠErrors": 3100,
      "ĠRecommendations": 3101,
      "Ġneeds": 3102,
      "ĠProtected": 3103,
      "histle": 3104,
      "ĠRetaliation": 3105,
      "histleblower": 3106,
      "ĠHead": 3107,
      "RB": 3108,
      "ĠReputational": 3109,
      "sulting": 3110,
      "ĠCapital": 3111,
      "ngineering": 3112,
      "anufacturing": 3113,
      "ĠFDA": 3114,
      "Ġqual": 3115,
      "ECI": 3116,
      "ĠLeverage": 3117,
      "ĠObjec": 3118,
      "ĠNovelty": 3119,
      "ĠFindings": 3120,
      "DECI": 3121,
      "atient": 3122,
      "ealthcare": 3123,
      "ĠBlame": 3124,
      "ĠIRB": 3125,
      "ĠPatient": 3126,
      "ĠRegulated": 3127,
      "ĠUptime": 3128,
      "ĠStakehold": 3129,
      "ĠFalse": 3130,
      "ĠRemo": 3131,
      "ĠDue": 3132,
      "ĠThreat": 3133,
      "ĠCascading": 3134,
      "ĠMission": 3135,
      "ĠDead": 3136,
      "ĠDissent": 3137,
      "ĠPeer": 3138,
      "ĠDeadline": 3139,
      "ĠHistorical": 3140,
      "ducational": 3141,
      "ERPA": 3142,
      "ĠFERPA": 3143,
      "ĠPrioritization": 3144,
      "ĠRollback": 3145,
      "ĠMedia": 3146,
      "ĠStakeholders": 3147,
      "ĠPartners": 3148,
      "ĠStructural": 3149,
      "ĠObjectivity": 3150,
      "ĠVendor": 3151,
      "ĠTransition": 3152,
      "Actions": 3153,
      "ĠJurisdictional": 3154,
      "ĠRemote": 3155,
      "ĠCommunication": 3156,
      "Ġyou": 3157,
      "ĠHeadcount": 3158,
      "Ġdecide": 3159,
      "ecisions": 3160,
      "urgent": 3161,
      "Ġpermitted": 3162,
      "Decisions": 3163,
      "Ġblocked": 3164,
      "ĠCON": 3165,
      "Ġurgent": 3166,
      "ient": 3167,
      "OLD": 3168,
      "ĠCONF": 3169,
      "Ġincludes": 3170,
      "ĠHOLD": 3171,
      "Ġacknowledging": 3172,
      "her": 3173,
      "Ġimpro": 3174,
      "ECHO": 3175,
      "ically": 3176,
      "herit": 3177,
      "LAS": 3178,
      "Ġrefl": 3179,
      "TLAS": 3180,
      "ator": 3181,
      "Ġcase": 3182,
      "allowed": 3183,
      "Ġimproved": 3184,
      "Ġacute": 3185,
      "ither": 3186,
      "heritance": 3187,
      "Ġtechn": 3188,
      "Ġtechnically": 3189,
      "HA": 3190,
      "dis": 3191,
      "Ġret": 3192,
      "ark": 3193,
      "System": 3194,
      "Ġeither": 3195,
      "Ġexplicitly": 3196,
      "Ġindependent": 3197,
      "md": 3198,
      "Ġplus": 3199,
      "Ġindependently": 3200,
      "Team": 3201,
      "Ġcommitment": 3202,
      "Three": 3203,
      "Ġmultiple": 3204,
      "Ġdiver": 3205,
      "HADE": 3206,
      "Output": 3207,
      "Ġclaiming": 3208,
      "Ġbin": 3209,
      "Ġlower": 3210,
      "Ġnote": 3211,
      "Ġagree": 3212,
      "Ġacknowledge": 3213,
      "di": 3214,
      "Most": 3215,
      "Ġexistence": 3216,
      "Architecture": 3217,
      "urden": 3218,
      "Ġdrifting": 3219,
      "pped": 3220,
      "tained": 3221,
      "Ġdiverge": 3222,
      "Ġprof": 3223,
      "Ġinc": 3224,
      "----": 3225,
      "Ġ+": 3226,
      "Ġexception": 3227,
      "Ġstays": 3228,
      "ances": 3229,
      "inter": 3230,
      "Ġcomple": 3231,
      "making": 3232,
      "pret": 3233,
      "Ġ**": 3234,
      "Ġstances": 3235,
      "Ġfact": 3236,
      "Ġimport": 3237,
      "Ġabsent": 3238,
      "ĠHow": 3239,
      "lesson": 3240,
      "big": 3241,
      "Su": 3242,
      "Document": 3243,
      "Regulatory": 3244,
      "Product": 3245,
      "Confirm": 3246,
      "Ġselecting": 3247,
      "Customer": 3248,
      "ĠInter": 3249,
      "Ġexecuted": 3250,
      "Escalate": 3251,
      "Software": 3252,
      "Crisis": 3253,
      "Ġimportant": 3254,
      "\\\\": 3255,
      "classification": 3256,
      "Ġinternal": 3257,
      "stakes": 3258,
      "get": 3259,
      "Ġscal": 3260,
      "Ġscale": 3261,
      "Ġallowed": 3262,
      "Ġtreating": 3263,
      "Internal": 3264,
      "Ġaccount": 3265,
      "Ġremo": 3266,
      "ĠCl": 3267,
      "ert": 3268,
      "survi": 3269,
      "venient": 3270,
      "Ġmodif": 3271,
      "mist": 3272,
      "Ġarbit": 3273,
      "Ġwrit": 3274,
      "title": 3275,
      "inheritance": 3276,
      "Ġshort": 3277,
      "lish": 3278,
      "sh": 3279,
      "Ġcritical": 3280,
      "Ġbinding": 3281,
      "AIL": 3282,
      "ources": 3283,
      "aim": 3284,
      "ready": 3285,
      "Ġcor": 3286,
      "ier": 3287,
      "FAIL": 3288,
      "urpo": 3289,
      "lished": 3290,
      "claim": 3291,
      "core": 3292,
      "70": 3293,
      "Ġremoved": 3294,
      "Ġlosing": 3295,
      "compressed": 3296,
      "Ġasking": 3297,
      "ite": 3298,
      "Ġstri": 3299,
      "Ġstripped": 3300,
      "sign": 3301,
      "Ġclaimed": 3302,
      "ood": 3303,
      "emy": 3304,
      "Ġtechnical": 3305,
      "rol": 3306,
      "ĠWh": 3307,
      "ĠSystem": 3308,
      "ĠOper": 3309,
      "trans": 3310,
      "transfer": 3311,
      "Ġconverge": 3312,
      "ATLAS": 3313,
      "stains": 3314,
      "Ġabstains": 3315,
      "Four": 3316,
      "Ġoperator": 3317,
      "ured": 3318,
      "Ġmemory": 3319,
      "Ġend": 3320,
      "Ġcompleted": 3321,
      "Ġrich": 3322,
      "Ġkey": 3323,
      "mistakes": 3324,
      "Ġrevised": 3325,
      "etic": 3326,
      "wh": 3327,
      "Ġimplementation": 3328,
      "Ġconsented": 3329,
      "25": 3330,
      "led": 3331,
      "orld": 3332,
      "Ġmat": 3333,
      "Ġpartially": 3334,
      "ĠIDA": 3335,
      "cipline": 3336,
      "Ġreviewed": 3337,
      "60": 3338,
      "orrect": 3339,
      "istic": 3340,
      "Ġdeferred": 3341,
      "addres": 3342,
      "addressed": 3343,
      "Ġunaddressed": 3344,
      "eep": 3345,
      "section": 3346,
      "Ġregulatory": 3347,
      "eri": 3348,
      "equ": 3349,
      "stance": 3350,
      "Ġapproval": 3351,
      "Ġtem": 3352,
      "tension": 3353,
      "review": 3354,
      "ĠData": 3355,
      "Ġall": 3356,
      "ynthetic": 3357,
      "human": 3358,
      "Ġreflect": 3359,
      "direc": 3360,
      "\"],": 3361,
      "ĠSecurity": 3362,
      "requires": 3363,
      "Ġmissing": 3364,
      "synthetic": 3365,
      "Ġincorrect": 3366,
      "ĠArchitecture": 3367,
      "Ġ[\"": 3368,
      "ities": 3369,
      "type": 3370,
      "Ġactual": 3371,
      "SHADE": 3372,
      "Ġsource": 3373,
      "sal": 3374,
      "Ġvariation": 3375,
      "Ġmodifies": 3376,
      "Ġexceeds": 3377,
      "ĠReal": 3378,
      "renti": 3379,
      "ĠDigital": 3380,
      "context": 3381,
      "gation": 3382,
      "biguity": 3383,
      "Ġsymptom": 3384,
      "valid": 3385,
      "ĠCross": 3386,
      "phase": 3387,
      "goal": 3388,
      "ĠPost": 3389,
      "Ġwrites": 3390,
      "world": 3391,
      "selfish": 3392,
      "rentiation": 3393,
      "Ġtempor": 3394,
      "Ġmetric": 3395,
      "[]": 3396,
      "ĠField": 3397,
      "resolution": 3398,
      "ferentiation": 3399,
      "Ġproposal": 3400,
      "developmental": 3401,
      "ĠOperations": 3402,
      "problem": 3403,
      "differentiation": 3404,
      "erspective": 3405,
      "enemy": 3406,
      "discipline": 3407,
      "pushback": 3408,
      "survived": 3409,
      "fter": 3410,
      "tity": 3411,
      "ĠWorkforce": 3412,
      "ĠEmergency": 3413,
      "ĠContract": 3414,
      "ĠTeam": 3415,
      "ĠInternal": 3416,
      "oard": 3417,
      "Ġleg": 3418,
      "Ġproduced": 3419,
      "ĠLegal": 3420,
      "vious": 3421,
      "ĠBoard": 3422,
      "ĠOpen": 3423,
      "igin": 3424,
      "Ġorigin": 3425,
      "ĠFinancial": 3426,
      "ĠSuccession": 3427,
      "Ġsystemic": 3428,
      "ĠResearch": 3429,
      "ĠInfrastructure": 3430,
      "Ġrecogn": 3431,
      "Ġoriginal": 3432,
      "ĠDistributed": 3433,
      "ĠSocial": 3434,
      "ĠClinical": 3435,
      "ĠMerger": 3436,
      "perspective": 3437,
      "alf": 3438,
      "ĠPartnership": 3439,
      "ĠMedical": 3440,
      "ĠWhistleblower": 3441,
      "ĠInvestment": 3442,
      "ĠIncident": 3443,
      "ĠManufacturing": 3444,
      "ĠAcademic": 3445,
      "Ġarbitration": 3446,
      "ĠInsurance": 3447,
      "ĠEarly": 3448,
      "ĠHealthcare": 3449,
      "Ġafter": 3450,
      "ĠEngineering": 3451,
      "ĠSupply": 3452,
      "Ġunverified": 3453,
      "ĠPharmaceutical": 3454,
      "ĠConsulting": 3455,
      "ĠNonprofit": 3456,
      "ĠEducational": 3457,
      "ĠMachine": 3458,
      "Ġrecogniz": 3459,
      "OS": 3460,
      "ĠJoint": 3461,
      "ĠStrategic": 3462,
      "ĠAd": 3463,
      "all": 3464,
      "ĠProcurement": 3465,
      "Ġbeh": 3466,
      "Ġtemporary": 3467,
      "Ġmark": 3468,
      "ĠGovernment": 3469,
      "Ġrecognizable": 3470,
      "Ġbehalf": 3471,
      "Ġretained": 3472,
      "ifier": 3473,
      "Ġqualifier": 3474,
      "Ġextrac": 3475,
      "Ġextracted": 3476,
      "Ġrun": 3477,
      "ne": 3478,
      "Ġstrategic": 3479,
      "Ġremain": 3480,
      "Ġpause": 3481,
      "into": 3482,
      "Ġdelivery": 3483,
      "Ġref": 3484,
      "ĠOR": 3485,
      "Ġexisting": 3486,
      "Ġconvenient": 3487,
      "Ġhuman": 3488,
      "ird": 3489,
      "Ġâ": 3490,
      "Ġthird": 3491,
      "========": 3492,
      "Ġirreversible": 3493,
      "ocu": 3494,
      "ĠORBIT": 3495,
      "Ġresources": 3496,
      "000": 3497,
      "med": 3498,
      "Ġresource": 3499,
      "feed": 3500,
      "ĠJUDGE": 3501,
      "Ġsafely": 3502,
      "tab": 3503,
      "word": 3504,
      "usal": 3505,
      "Ġdisting": 3506,
      "port": 3507,
      "Ġconflict": 3508,
      "Ġdistinguish": 3509,
      "ms": 3510,
      "Ġapproach": 3511,
      "Ġfocu": 3512,
      "stand": 3513,
      "Ġestab": 3514,
      "Ġup": 3515,
      "Ġdistinguishing": 3516,
      "...": 3517,
      "Ġestablished": 3518,
      "pretation": 3519,
      "burden": 3520,
      "80": 3521,
      "Ġam": 3522,
      "urpose": 3523,
      "Ġassumes": 3524,
      "Ġpublic": 3525,
      "ĠSENTINEL": 3526,
      "Ġassess": 3527,
      "ĠG": 3528,
      "Ġconfiden": 3529,
      "preser": 3530,
      "learning": 3531,
      "Ġsuc": 3532,
      "Ġgeneric": 3533,
      "User": 3534,
      "ilib": 3535,
      "rium": 3536,
      "ilibrium": 3537,
      "Ġ[": 3538,
      "Ġitself": 3539,
      "nly": 3540,
      "Ġactor": 3541,
      "Ġregulator": 3542,
      "ĠVECTOR": 3543,
      "cated": 3544,
      "Ġtrade": 3545,
      "ases": 3546,
      "Ġactiv": 3547,
      "St": 3548,
      "ĠDistinguish": 3549,
      "Ġden": 3550,
      "2500": 3551,
      "Executive": 3552,
      "Ġgood": 3553,
      "Ġauthor": 3554,
      "overfeed": 3555,
      "Ġprac": 3556,
      "Only": 3557,
      "Ġaffects": 3558,
      "Ġver": 3559,
      "Ġaffecting": 3560,
      "Ġcontact": 3561,
      "Ġactivated": 3562,
      "eness": 3563,
      "iles": 3564,
      "Ġfailing": 3565,
      "Ġprofile": 3566,
      "Situations": 3567,
      "Ġrated": 3568,
      "Ġdeny": 3569,
      "ĠBound": 3570,
      "Committee": 3571,
      "Ġimplication": 3572,
      "sentence": 3573,
      "ĠAddres": 3574,
      "ĠAddress": 3575,
      "Peer": 3576,
      "Ġcarry": 3577,
      "Ġcloses": 3578,
      "Ġtaking": 3579,
      "tr": 3580,
      "ĠWhich": 3581,
      "conflict": 3582,
      "Ġflo": 3583,
      "Ġtoward": 3584,
      "reases": 3585,
      "ĠEC": 3586,
      "ab": 3587,
      "Ġidentify": 3588,
      "equilibrium": 3589,
      "Ġdownward": 3590,
      "Ġfloor": 3591,
      "Ġframed": 3592,
      "apped": 3593,
      "Ġcapped": 3594,
      "Ġconfident": 3595,
      "Ġdecreases": 3596,
      "standing": 3597,
      "Ġimplemented": 3598,
      "Ġ4": 3599,
      "prot": 3600,
      "Ġinstruction": 3601,
      "Ġlegal": 3602,
      "Ġrecorded": 3603,
      "reach": 3604,
      "Ġblocks": 3605,
      "Ġdes": 3606,
      "ĠPRISM": 3607,
      "gg": 3608,
      "Ġended": 3609,
      "held": 3610,
      "Ġwithheld": 3611,
      "Ġoutstanding": 3612,
      "sequent": 3613,
      "Ġsubsequent": 3614,
      "transformation": 3615,
      "ano": 3616,
      "anopy": 3617,
      "Ġsugg": 3618,
      "Ġrefusal": 3619,
      "oalition": 3620,
      "using": 3621,
      "Ġcompliance": 3622,
      "Ġfindings": 3623,
      "soft": 3624,
      "Ġ5": 3625,
      "purpose": 3626,
      "Ġexpl": 3627,
      "Ġmatrix": 3628,
      "Ġcollap": 3629,
      "Ġkeyed": 3630,
      "itigation": 3631,
      "Ġparticip": 3632,
      "Ġsuggests": 3633,
      "Ġnotes": 3634,
      "Ġreflects": 3635,
      "Ġaw": 3636,
      "mental": 3637,
      "ĠECHO": 3638,
      "izing": 3639,
      "Dis": 3640,
      "signal": 3641,
      "Ġru": 3642,
      "Ġprevail": 3643,
      "Ġparticipants": 3644,
      "Ġprevailing": 3645,
      "Dissenting": 3646,
      "Consensus": 3647,
      "Ġawait": 3648,
      "Ġoptimistic": 3649,
      "Ġmitigation": 3650,
      "Ġmisread": 3651,
      "Ġaccounted": 3652,
      "ĠExt": 3653,
      "Ġmanage": 3654,
      "Ġmanageable": 3655,
      "Ġagain": 3656,
      "`.\"}": 3657,
      "ract": 3658,
      "Ġmarked": 3659,
      "Public": 3660,
      "Ġrule": 3661,
      "Ġcalled": 3662,
      "Ġagainst": 3663,
      "protection": 3664,
      "Ġso": 3665,
      "gOS": 3666,
      "Ġexisted": 3667,
      "Ġpermit": 3668,
      "curate": 3669,
      "Ġaccurate": 3670,
      "Ġshow": 3671,
      "Data": 3672,
      "Ġnoting": 3673,
      "Ġcontrol": 3674,
      "Security": 3675,
      "Ġstudent": 3676,
      "Hidden": 3677,
      "Ġev": 3678,
      "Canopy": 3679,
      "HiddenCanopy": 3680,
      "Ġvalidation": 3681,
      "strained": 3682,
      "Ġnu": 3683,
      "ĠExtract": 3684,
      "RE": 3685,
      "ream": 3686,
      "Ġcateg": 3687,
      "Field": 3688,
      "Cross": 3689,
      "Ġtimeline": 3690,
      "Ġlonger": 3691,
      "Infrastructure": 3692,
      "Real": 3693,
      "Ġadj": 3694,
      "Ac": 3695,
      "Policy": 3696,
      "Ġmea": 3697,
      "Clinical": 3698,
      "Ġnuance": 3699,
      "Ġoverreach": 3700,
      "Contract": 3701,
      "Leg": 3702,
      "Legal": 3703,
      "Engineering": 3704,
      "Ethics": 3705,
      "Social": 3706,
      "Succession": 3707,
      "aran": 3708,
      "Financial": 3709,
      "sensitive": 3710,
      "Whistleblower": 3711,
      "Distributed": 3712,
      "Merger": 3713,
      "Operations": 3714,
      "Manufacturing": 3715,
      "Part": 3716,
      "Board": 3717,
      "Partnership": 3718,
      "Investment": 3719,
      "Post": 3720,
      "Medical": 3721,
      "Insurance": 3722,
      "Research": 3723,
      "Emergency": 3724,
      "Ġhy": 3725,
      "Ġdri": 3726,
      "Academic": 3727,
      "Nonprofit": 3728,
      "Ġvalidate": 3729,
      "Pharmaceutical": 3730,
      "Healthcare": 3731,
      "Supply": 3732,
      "Early": 3733,
      "Educational": 3734,
      "Consulting": 3735,
      "Open": 3736,
      "Joint": 3737,
      "Ġshows": 3738,
      "Strategic": 3739,
      "Procurement": 3740,
      "Incident": 3741,
      "Machine": 3742,
      "Digital": 3743,
      "Ġbypass": 3744,
      "Workforce": 3745,
      "Ġoutputs": 3746,
      "arantee": 3747,
      "Government": 3748,
      "Ġoverride": 3749,
      "Ġwor": 3750,
      "Ġprevious": 3751,
      "Ġretros": 3752,
      "Ġretrospective": 3753,
      "PI": 3754,
      "Ġmoving": 3755,
      "backend": 3756,
      "sf": 3757,
      "atisf": 3758,
      "thes": 3759,
      "pothes": 3760,
      "pothesis": 3761,
      "Ġhypothesis": 3762,
      "ef": 3763,
      "Ġcoop": 3764,
      "Ġguarantee": 3765,
      "Ġanswering": 3766,
      "RegOS": 3767,
      "man": 3768,
      "Ġoptimizing": 3769,
      "urn": 3770,
      "Ġendor": 3771,
      "Ġagreement": 3772,
      "Ġmeasu": 3773,
      "Ġmeasurable": 3774,
      "manent": 3775,
      "Ġresidue": 3776,
      "Ġcorners": 3777,
      "Ġbypassing": 3778,
      "Ġcategoriz": 3779,
      "Ġendorse": 3780,
      "Ġpermanent": 3781,
      "Ġstanding": 3782,
      "Ġpreserve": 3783,
      "peri": 3784,
      "Ġevery": 3785,
      "Ġretro": 3786,
      "stream": 3787,
      "Ġretroactive": 3788,
      "Ġretroactively": 3789,
      "Ġeach": 3790,
      "perimental": 3791,
      "Experimental": 3792,
      "rel": 3793,
      "les": 3794,
      "Ġinterpretation": 3795,
      "Ġread": 3796,
      "Ġlea": 3797,
      "Ġvalues": 3798,
      "Ġvi": 3799,
      "Ġexpert": 3800,
      "Ġsignals": 3801,
      "break": 3802,
      "Ġalter": 3803,
      "ank": 3804,
      "delays": 3805,
      "Ġauthorities": 3806,
      "Ġcurrently": 3807,
      "01": 3808,
      "Ġdownstream": 3809,
      "Ġresists": 3810,
      "residue": 3811,
      "urns": 3812,
      "Ġescalating": 3813,
      "Ġreframe": 3814,
      "gos": 3815,
      "regos": 3816,
      "Ġnear": 3817,
      "tically": 3818,
      "clarity": 3819,
      "ness": 3820,
      "Ġprofiles": 3821,
      "Ġallo": 3822,
      "Ġdebating": 3823,
      "Ġtac": 3824,
      "Ġconfusing": 3825,
      "Ġorganizationally": 3826,
      "Ġmanufact": 3827,
      "Ġmanufactured": 3828,
      "maker": 3829,
      "Ġallocated": 3830,
      "Ġtactical": 3831,
      "cont": 3832,
      "acred": 3833,
      "Ġequ": 3834,
      "reats": 3835,
      "Ġexpose": 3836,
      "tives": 3837,
      "treats": 3838,
      "ĠRate": 3839,
      "to": 3840,
      "ĠMemory": 3841,
      "ĠVisibility": 3842,
      "udget": 3843,
      "Ġcore": 3844,
      "Ġtrust": 3845,
      "ĠBounded": 3846,
      "ario": 3847,
      "enario": 3848,
      "imin": 3849,
      "ĠUrgency": 3850,
      "ĠRedaction": 3851,
      "ĠBalance": 3852,
      "ĠTrajectory": 3853,
      "ĠCoexistence": 3854,
      "Ġoperational": 3855,
      "gibility": 3856,
      "Ġpaths": 3857,
      "ĠStability": 3858,
      "Ġreport": 3859,
      "Ġelimin": 3860,
      "enclo": 3861,
      "enclosure": 3862,
      "Ġcalls": 3863,
      "iteness": 3864,
      "utures": 3865,
      "Ġfocus": 3866,
      "Ġruntime": 3867,
      "Ġdeg": 3868,
      "burdens": 3869,
      "vered": 3870,
      "Ġsuppres": 3871,
      "tend": 3872,
      "classified": 3873,
      "Ġmisclassified": 3874,
      "softens": 3875,
      "Ġready": 3876,
      "Ġconflated": 3877,
      "Ġequal": 3878,
      "safety": 3879,
      "turns": 3880,
      "sibility": 3881,
      "Ġdifferen": 3882,
      "Ġtradeoff": 3883,
      "Ġbudget": 3884,
      "breaks": 3885,
      "Ġprioritiz": 3886,
      "entioned": 3887,
      "Ġdifferential": 3888,
      "by": 3889,
      "suppresses": 3890,
      "ĠAPI": 3891,
      "ĠFORGE": 3892,
      "Ġdelivered": 3893,
      "direction": 3894,
      "conceal": 3895,
      "conceals": 3896,
      "0000": 3897,
      "Ġambiguity": 3898,
      "Ġ\\\"": 3899,
      "point": 3900,
      "Ġpoints": 3901,
      "02": 3902,
      "king": 3903,
      "pretive": 3904,
      "ĠPULSE": 3905,
      "requ": 3906,
      "Ġburden": 3907,
      "awful": 3908,
      "Ġmodel": 3909,
      "Ġdifference": 3910,
      "Ġkeep": 3911,
      "Ġdisagree": 3912,
      "cut": 3913,
      "Ġshortcut": 3914,
      "Ġcontinuity": 3915,
      "Ġdownside": 3916,
      "Ġsatisf": 3917,
      "Ġlocal": 3918,
      "Ġflatten": 3919,
      "mark": 3920,
      "identity": 3921,
      "Ġuseful": 3922,
      "be": 3923,
      "ench": 3924,
      "enchmark": 3925,
      "Ġreject": 3926,
      "Ġexecute": 3927,
      "interpretive": 3928,
      "Ġhighest": 3929,
      "Ġsecurity": 3930,
      "Ġback": 3931,
      "ĠSeparate": 3932,
      "Ġcap": 3933,
      "Ġcustomer": 3934,
      "Ġcollapsing": 3935,
      "direct": 3936,
      "Ġviable": 3937,
      "analysis": 3938,
      "âĶ": 3939,
      "requis": 3940,
      "ĠThree": 3941,
      "purity": 3942,
      "truth": 3943,
      "**:": 3944,
      "interpret": 3945,
      "Ġprovided": 3946,
      "rich": 3947,
      "richment": 3948,
      "enrichment": 3949,
      "Ġprerequis": 3950,
      "Ġprerequisite": 3951,
      "Ġcle": 3952,
      "Ġmisinterpret": 3953,
      "Ġflattened": 3954,
      "coalition": 3955,
      "estions": 3956,
      "âĶĢ": 3957,
      "--------": 3958,
      "sacred": 3959,
      "risk": 3960,
      "Ġmove": 3961,
      "Ġcreated": 3962,
      "what": 3963,
      "early": 3964,
      "too": 3965,
      "questions": 3966,
      "Ġsucceed": 3967,
      "redic": 3968,
      "pati": 3969,
      "api": 3970,
      "Ġsharp": 3971,
      "speed": 3972,
      "Ġfactual": 3973,
      "preh": 3974,
      "prehensive": 3975,
      "preserved": 3976,
      "part": 3977,
      "protected": 3978,
      "Ġscarce": 3979,
      "utral": 3980,
      "Ġneutral": 3981,
      "ambiguity": 3982,
      "Ġidentifying": 3983,
      "Ġreflected": 3984,
      "should": 3985,
      "futures": 3986,
      "unready": 3987,
      "Ġfallback": 3988,
      "rip": 3989,
      "pol": 3990,
      "students": 3991,
      "eded": 3992,
      "Ġjustify": 3993,
      "Ġalert": 3994,
      "Ġlimitation": 3995,
      "Ġstructured": 3996,
      "Ġinstead": 3997,
      "Ġscenario": 3998,
      "branch": 3999,
      "future": 4000,
      "21": 4001,
      "necessary": 4002,
      "shar": 4003,
      "politeness": 4004,
      "sharper": 4005,
      "when": 4006,
      "noise": 4007,
      "needed": 4008,
      "signific": 4009,
      "significance": 4010,
      "legibility": 4011,
      "Ġcomprehensive": 4012,
      "Ġtrun": 4013,
      "Ġextensive": 4014,
      "Ġconverting": 4015,
      "Ġconstrained": 4016,
      "ĠStrip": 4017,
      "token": 4018,
      "âĶĢâĶĢ": 4019,
      "Ġclient": 4020,
      "ĠProduce": 4021,
      "Ġfive": 4022,
      "Ġnovel": 4023,
      "Ġwords": 4024,
      "rust": 4025,
      "Ġerrors": 4026,
      "Ġmovement": 4027,
      "tory": 4028,
      "Two": 4029,
      "ough": 4030,
      "-|": 4031,
      ":**": 4032,
      "relation": 4033,
      "fa": 4034,
      "================": 4035,
      "Ġjurisdictional": 4036,
      "esting": 4037,
      "Ġse": 4038,
      "Ġclinical": 4039,
      "Ġtest": 4040,
      "Ġvendor": 4041,
      "abil": 4042,
      "jection": 4043,
      "control": 4044,
      "aint": 4045,
      "formance": 4046,
      "Ġsurfaces": 4047,
      "mand": 4048,
      "ĠSHADE": 4049,
      "forced": 4050,
      "Ġpas": 4051,
      "Ġthey": 4052,
      "Ġnaming": 4053,
      "Ġmod": 4054,
      "Ġverification": 4055,
      "ization": 4056,
      "Ġderi": 4057,
      "pute": 4058,
      "Ġalready": 4059,
      "train": 4060,
      "Ġderive": 4061,
      "Ġdisclosure": 4062,
      "...\"}": 4063,
      "Ġstable": 4064,
      "Ġemotion": 4065,
      "arget": 4066,
      "Ġdrif": 4067,
      "points": 4068,
      "ĠATLAS": 4069,
      "Ġverify": 4070,
      "sists": 4071,
      "Ġevalu": 4072,
      "Ġgoverned": 4073,
      "Ġfound": 4074,
      "reed": 4075,
      "Ġinsists": 4076,
      "preservation": 4077,
      "als": 4078,
      "ode": 4079,
      "vid": 4080,
      "Ġbenchmark": 4081,
      "Ġentity": 4082,
      "Ġdirect": 4083,
      "Ġthreat": 4084,
      "Ġevent": 4085,
      "aw": 4086,
      "ular": 4087,
      "ook": 4088,
      "Ġitem": 4089,
      "270": 4090,
      "Ġexam": 4091,
      "Ġdefinition": 4092,
      "Ġdissol": 4093,
      "Ġdissolving": 4094,
      "2705": 4095,
      "Ġpri": 4096,
      "Ġperformance": 4097,
      "Ġsuccess": 4098,
      "](": 4099,
      "PU": 4100,
      "Ġwar": 4101,
      "plit": 4102,
      "Ġtrack": 4103,
      "Ġlar": 4104,
      "\\\"": 4105,
      "Ġappear": 4106,
      "eration": 4107,
      "pos": 4108,
      "ths": 4109,
      "redicted": 4110,
      "``": 4111,
      "vidual": 4112,
      "Ġrecords": 4113,
      "verity": 4114,
      "Ġbased": 4115,
      "eguard": 4116,
      "Ġcompl": 4117,
      "Ġcomplaint": 4118,
      "Ġcascading": 4119,
      "Ġleverage": 4120,
      "Ġmany": 4121,
      "Ġmon": 4122,
      "ully": 4123,
      "Ġlab": 4124,
      "Ġkeeps": 4125,
      "ped": 4126,
      "cei": 4127,
      "patible": 4128,
      "Ġexplan": 4129,
      "Ġnever": 4130,
      "Ġfully": 4131,
      "Ġisolation": 4132,
      "Ġdirectly": 4133,
      "Ġsafeguard": 4134,
      "ror": 4135,
      "Ġindi": 4136,
      "Ġdispute": 4137,
      "Ġoperate": 4138,
      "Ġcontradictory": 4139,
      "Ġincompatible": 4140,
      "ouch": 4141,
      "Ġtouch": 4142,
      "Ġtim": 4143,
      "Ġcontradiction": 4144,
      "Ġexperi": 4145,
      "Ġdemand": 4146,
      "Ġindividual": 4147,
      "Ġlarger": 4148,
      "acent": 4149,
      "Ġtrail": 4150,
      "Ġgroup": 4151,
      "Ġprob": 4152,
      "Ġtheir": 4153,
      "ised": 4154,
      "ze": 4155,
      "Ġcreep": 4156,
      "Ġrecon": 4157,
      "Ġdesigned": 4158,
      "Ġdefinitions": 4159,
      "Ġadjacent": 4160,
      "Ġsan": 4161,
      "Ġevaluated": 4162,
      "Ġ```": 4163,
      "mits": 4164,
      "Ġano": 4165,
      "Ġerror": 4166,
      "enefit": 4167,
      "ash": 4168,
      "Ġ6": 4169,
      "Ġaudited": 4170,
      "Ġexposes": 4171,
      "factor": 4172,
      "Ġappears": 4173,
      "Ġcreating": 4174,
      "Ġincon": 4175,
      "201": 4176,
      "Ġlabel": 4177,
      "ion": 4178,
      "Ġpriority": 4179,
      "Ġsplit": 4180,
      "Ġname": 4181,
      "Ġdriven": 4182,
      "thical": 4183,
      "Ġbenefit": 4184,
      "stood": 4185,
      "Ġunderstood": 4186,
      "Ġtracked": 4187,
      "Ġoutcomes": 4188,
      "eved": 4189,
      "Ġonce": 4190,
      "Ġoptimized": 4191,
      "Ġapproved": 4192,
      "emp": 4193,
      "Ġdegra": 4194,
      "Ġmonths": 4195,
      "Ġdetermine": 4196,
      "Ġextends": 4197,
      "Ġrecur": 4198,
      "---|": 4199,
      "Ġmodes": 4200,
      "Ġpriorities": 4201,
      "ody": 4202,
      "Ġsomething": 4203,
      "Ġpassed": 4204,
      "Ġowner": 4205,
      "Ġethical": 4206,
      "Ġtarget": 4207,
      "Ġcommand": 4208,
      "Ġann": 4209,
      "cular": 4210,
      "Ġrespon": 4211,
      "Ġcri": 4212,
      "Ġinputs": 4213,
      "Ġcoal": 4214,
      "Ġcoalition": 4215,
      "Ġga": 4216,
      "Ġdrift": 4217,
      "overy": 4218,
      "Ġanother": 4219,
      "Ġsound": 4220,
      "Ġtoo": 4221,
      "Ġpurpo": 4222,
      "Ġpurposes": 4223,
      "erms": 4224,
      "party": 4225,
      "riteri": 4226,
      "Ġrunning": 4227,
      "Ġresolve": 4228,
      "Ġworth": 4229,
      "Ġdeserves": 4230,
      "Ġdate": 4231,
      "Ġtimes": 4232,
      "body": 4233,
      "Ġrestriction": 4234,
      "Ġbeli": 4235,
      "posite": 4236,
      "Ġjurisdiction": 4237,
      "Ġpull": 4238,
      "mall": 4239,
      "Ġcycles": 4240,
      "stru": 4241,
      "Ġshare": 4242,
      "Ġsmall": 4243,
      "Ġresolves": 4244,
      "Ġannoun": 4245,
      "Ġreve": 4246,
      "Ġfoundational": 4247,
      "Ġthing": 4248,
      "Ġimplicit": 4249,
      "Ġprobabil": 4250,
      "Ġprobabilistic": 4251,
      "iled": 4252,
      "Ġreveals": 4253,
      "Ġfinding": 4254,
      "Ġpub": 4255,
      "Ġjudged": 4256,
      "sume": 4257,
      "Ġfactors": 4258,
      "certain": 4259,
      "Ġshaped": 4260,
      "Ġsolved": 4261,
      "Ġuncertain": 4262,
      "docs": 4263,
      "Ġconvers": 4264,
      "Ġca": 4265,
      "Ġunaware": 4266,
      "Ġconversation": 4267,
      "Ġsucceeds": 4268,
      "Ġdemanded": 4269,
      "Ġvalidated": 4270,
      "Ġleaves": 4271,
      "Ġgather": 4272,
      "Ġopposite": 4273,
      "Ġignores": 4274,
      "Ġthor": 4275,
      "Ġthorough": 4276,
      "Ġthoroughness": 4277,
      "Ġadvice": 4278,
      "Ġfocusing": 4279,
      "Ġannounced": 4280,
      "Ġfacing": 4281,
      "Ġpoliti": 4282,
      "Ġinconvenient": 4283,
      "Ġaddresses": 4284,
      "Ġpolitically": 4285,
      "Ġpulling": 4286,
      "entive": 4287,
      "Ġtouching": 4288,
      "Ġsupporting": 4289,
      "Ġworse": 4290,
      "Ġcooperation": 4291,
      "running": 4292,
      "Ġeliminates": 4293,
      "Ġgamed": 4294,
      "Ġformally": 4295,
      "Ġsigns": 4296,
      "Ġrequesting": 4297,
      "Ġcommitting": 4298,
      "close": 4299,
      "Ġrecurring": 4300,
      "Ġforeclose": 4301,
      "ĠAr": 4302,
      "Ġbelieved": 4303,
      "Ġadjust": 4304,
      "Ġanswerable": 4305,
      "Ġapprove": 4306,
      "Ġassume": 4307,
      "Ġstopped": 4308,
      "mea": 4309,
      "Ġdesp": 4310,
      "asuring": 4311,
      "measured": 4312,
      "Ġdespite": 4313,
      "Ġmeasuring": 4314,
      "Ġweighing": 4315,
      "Ġunmeasured": 4316,
      "Ġconfidently": 4317,
      "Ġuns": 4318,
      "poken": 4319,
      "Ġunspoken": 4320,
      "Ġmodification": 4321,
      "Ġinfer": 4322,
      "Ġsole": 4323,
      "Ġcorrelation": 4324,
      "Ġapplying": 4325,
      "Ġsanction": 4326,
      "Ġsanctioned": 4327,
      "Ġago": 4328,
      "Ġrevisited": 4329,
      "Ġobvious": 4330,
      "Ġnobody": 4331,
      "tiality": 4332,
      "Ġconfidentiality": 4333,
      "Ġdisclosing": 4334,
      "Ġconfidential": 4335,
      "Ġlabeled": 4336,
      "Ġcut": 4337,
      "Ġexperiments": 4338,
      "Ġparticular": 4339,
      "Ġsubmits": 4340,
      "Ġcutting": 4341,
      "Ġfals": 4342,
      "Ġunfa": 4343,
      "Ġunfavor": 4344,
      "Ġexcludes": 4345,
      "Ġunfavorable": 4346,
      "Ġcritically": 4347,
      "Ġobjection": 4348,
      "Ġexamining": 4349,
      "Ġchallenged": 4350,
      "Ġobstruction": 4351,
      "Ġlever": 4352,
      "Ġavoiding": 4353,
      "Ġsuppressing": 4354,
      "empts": 4355,
      "Ġdisclose": 4356,
      "Ġframings": 4357,
      "Ġdirections": 4358,
      "Ġpredicted": 4359,
      "arent": 4360,
      "ĠIntegration": 4361,
      "Ġconfirmation": 4362,
      "Ġapparent": 4363,
      "Ġheard": 4364,
      "Ġrecip": 4365,
      "Ġraised": 4366,
      "Ġapproaches": 4367,
      "Ġdirectives": 4368,
      "Ġhaving": 4369,
      "Ġcleared": 4370,
      "Ġcertify": 4371,
      "Ġimplicitly": 4372,
      "Ġdriving": 4373,
      "Ġcategorized": 4374,
      "Ġincorrectly": 4375,
      "Ġcategorization": 4376,
      "Ġagreed": 4377,
      "Ġincentive": 4378,
      "Ġcooperate": 4379,
      "Ġmaturity": 4380,
      "Ġdegrades": 4381,
      "Ġworked": 4382,
      "Ġreconc": 4383,
      "Ġprioritize": 4384,
      "Ġreconciled": 4385,
      "Ġmandate": 4386,
      "Ġdiscomfort": 4387,
      "inion": 4388,
      "Ġforming": 4389,
      "Ġopinion": 4390,
      "Ġpositioned": 4391,
      "intentioned": 4392,
      "Ġapprover": 4393,
      "Ġterms": 4394,
      "Ġcriteri": 4395,
      "diligence": 4396,
      "Ġcriterion": 4397,
      "Ġfalsification": 4398,
      "Ġpersonally": 4399,
      "Ġhear": 4400,
      "Ġrecipient": 4401,
      "Ġpressured": 4402,
      "board": 4403,
      "Ġpublished": 4404,
      "Ġemergency": 4405,
      "ationale": 4406,
      "Ġrationale": 4407,
      "Ġexplanations": 4408,
      "Ġtests": 4409,
      "Ġbalance": 4410,
      "comp": 4411,
      "Ġfinalize": 4412,
      "ĠâĢ": 4413,
      "NT": 4414,
      "Ġ100": 4415,
      "Ġrecommendations": 4416,
      "Ġtoken": 4417,
      "):": 4418,
      "fin": 4419,
      "finality": 4420,
      "`,": 4421,
      "Ġchecks": 4422,
      "load": 4423,
      "ane": 4424,
      "uous": 4425,
      "sitivity": 4426,
      "Ġambig": 4427,
      "ĠThroughput": 4428,
      "2192": 4429,
      "Ġsen": 4430,
      "Ġrank": 4431,
      "Ġnon": 4432,
      "decompose": 4433,
      "Ġ10": 4434,
      "ĠCoherence": 4435,
      "ING": 4436,
      "Ġfree": 4437,
      "Ġnor": 4438,
      "Ġfreeze": 4439,
      "bad": 4440,
      "Ġfron": 4441,
      "det": 4442,
      "ĠCommunity": 4443,
      "Ġrivalry": 4444,
      "2014": 4445,
      "oute": 4446,
      "MENT": 4447,
      "Ġsay": 4448,
      "ĠAI": 4449,
      "less": 4450,
      "PLE": 4451,
      "crib": 4452,
      "ashboard": 4453,
      "atch": 4454,
      "Ġidentity": 4455,
      "gmentation": 4456,
      "ĠContinuity": 4457,
      "Ġsteps": 4458,
      "Ġleast": 4459,
      "ĠCompression": 4460,
      "mal": 4461,
      "Ġcover": 4462,
      "ĠResidue": 4463,
      "trust": 4464,
      "ĠDes": 4465,
      "ĠFra": 4466,
      "Ġloo": 4467,
      "Ġenti": 4468,
      "ĠProgress": 4469,
      "member": 4470,
      "Ġscore": 4471,
      "ĠRepair": 4472,
      "ĠLegitimacy": 4473,
      "Ġsee": 4474,
      "ators": 4475,
      "ĠShort": 4476,
      "Ġprevent": 4477,
      "ulate": 4478,
      "ĠSynthesize": 4479,
      "ĠPlurality": 4480,
      "Ġremember": 4481,
      "ĠLawful": 4482,
      ":\\": 4483,
      "ĠIntervention": 4484,
      "ĠPreserve": 4485,
      "Ġ30": 4486,
      "Ġsimil": 4487,
      "cation": 4488,
      "ĠFinality": 4489,
      "sec": 4490,
      "ĠâĢĶ": 4491,
      "ĠClarity": 4492,
      "ĠTransformation": 4493,
      "Ġobser": 4494,
      "Ġhour": 4495,
      "tice": 4496,
      "Ġrecent": 4497,
      "ĠArtic": 4498,
      "Ġweak": 4499,
      "Ġsources": 4500,
      "js": 4501,
      "vision": 4502,
      "hook": 4503,
      "native": 4504,
      "gated": 4505,
      "Ġconn": 4506,
      "Ġteams": 4507,
      "os": 4508,
      "Ġwhose": 4509,
      "Ġundone": 4510,
      "Ġhours": 4511,
      "Ġambiguous": 4512,
      "ceived": 4513,
      "Ġmodeled": 4514,
      "255": 4515,
      "Ġresponsibility": 4516,
      "Ġdashboard": 4517,
      "fed": 4518,
      "ĠFrame": 4519,
      "Ġnormal": 4520,
      "ĠAl": 4521,
      "2550": 4522,
      "ĠRank": 4523,
      "Ġcauses": 4524,
      "Ġalternative": 4525,
      "Ġranked": 4526,
      "Ġwarran": 4527,
      "Ġsafer": 4528,
      "Ġsequ": 4529,
      "Ġpractice": 4530,
      "Ġsimilar": 4531,
      "Ġinvol": 4532,
      "efined": 4533,
      "Ġunderm": 4534,
      "detect": 4535,
      "Ġarbitr": 4536,
      "Ġsaying": 4537,
      "arrow": 4538,
      "Ġoperators": 4539,
      "Ġobserved": 4540,
      "Ġrevision": 4541,
      "Ġsense": 4542,
      "ĠWho": 4543,
      "Ġconstru": 4544,
      "Ġaccomp": 4545,
      "Ġaccompany": 4546,
      "Ġfinalized": 4547,
      "Ġgoverna": 4548,
      ":\\\\": 4549,
      "ĠEn": 4550,
      "Ġfollowed": 4551,
      "Ġpossibility": 4552,
      "ĠArticulate": 4553,
      "Ġundermined": 4554,
      "lane": 4555,
      "cus": 4556,
      "Ġdiscus": 4557,
      "cribe": 4558,
      "Ġconflating": 4559,
      "ĠSame": 4560,
      "Ġundefined": 4561,
      "Ġdiscussion": 4562,
      "Ġrecommender": 4563,
      "Ġperceived": 4564,
      "Ġarbitrary": 4565,
      "Ġreasonable": 4566,
      "Ġcei": 4567,
      "Ġass": 4568,
      "Ġgr": 4569,
      "Ġinvolves": 4570,
      "Ġseeking": 4571,
      "Ġaddress": 4572,
      "Ġbuy": 4573,
      "Ġauditors": 4574,
      "Ġdelegation": 4575,
      "Ġdelegated": 4576,
      "Ġoverfed": 4577,
      "Ġservice": 4578,
      "Ġsharply": 4579,
      "Ġsatisfaction": 4580,
      "cted": 4581,
      "uck": 4582,
      "Ġtree": 4583,
      "Ġconstructed": 4584,
      "Ġstuck": 4585,
      "Ġprovision": 4586,
      "Ġpractically": 4587,
      "Ġimplementable": 4588,
      "Ġsequence": 4589,
      "Ġtie": 4590,
      "quate": 4591,
      "Ġversions": 4592,
      "Ġappropriately": 4593,
      "adequate": 4594,
      "Ġinadequate": 4595,
      "Ġoptionality": 4596,
      "Ġtheory": 4597,
      "Ġrevise": 4598,
      "cri": 4599,
      "Ġfastest": 4600,
      "Ġpractical": 4601,
      "Ġsafest": 4602,
      "Ġflaw": 4603,
      "ĠDescribe": 4604,
      "Ġflawed": 4605,
      "Ġirreversibility": 4606,
      "ĠNarrow": 4607,
      "usable": 4608,
      "Ġconfirms": 4609,
      "Ġlooking": 4610,
      "Ġprovisional": 4611,
      "Ġwarrants": 4612,
      "Ġtestable": 4613,
      "gr": 4614,
      "ground": 4615,
      "Ġ20": 4616,
      "?,": 4617,
      "ten": 4618,
      "Ġself": 4619,
      "severity": 4620,
      "ix": 4621,
      "Ġdistinction": 4622,
      "Ġinterface": 4623,
      "ug": 4624,
      "tinction": 4625,
      "distinction": 4626,
      "orage": 4627,
      "ĠTransfer": 4628,
      "Ġdestruction": 4629,
      "coalitions": 4630,
      "Ġgenericization": 4631,
      "uit": 4632,
      "atuit": 4633,
      "Ġgratuit": 4634,
      "Ġgratuitous": 4635,
      "Ġ50": 4636,
      "Ġguide": 4637,
      "pectives": 4638,
      "Ġrecovery": 4639,
      "Ġenforced": 4640,
      "Ġloser": 4641,
      "Ġcould": 4642,
      "Keep": 4643,
      "Ġdam": 4644,
      "Ġendpoints": 4645,
      "lawful": 4646,
      "ĠRem": 4647,
      "56": 4648,
      "concealment": 4649,
      "ival": 4650,
      "Ġperspectives": 4651,
      "Ġconnection": 4652,
      "001": 4653,
      "bile": 4654,
      "gth": 4655,
      "Ġpay": 4656,
      "Ġcapability": 4657,
      "ĠCode": 4658,
      "Ġinheritance": 4659,
      "Ġfollowing": 4660,
      "ST": 4661,
      "Ġcompute": 4662,
      "28": 4663,
      "list": 4664,
      "MA": 4665,
      "page": 4666,
      "Ġmaterial": 4667,
      "Ġdamage": 4668,
      "specific": 4669,
      "licable": 4670,
      "Ġrepairs": 4671,
      "atural": 4672,
      "Ġstorage": 4673,
      "Ġrelation": 4674,
      "Ġtokens": 4675,
      "Ġbase": 4676,
      "Ġlen": 4677,
      "Ġinstru": 4678,
      "interpretation": 4679,
      "ole": 4680,
      "Ġwere": 4681,
      "Ġtrusted": 4682,
      "Ġnatural": 4683,
      "Ġ500": 4684,
      "Ġimmediately": 4685,
      "REP": 4686,
      "Ġbackground": 4687,
      "Ġpayload": 4688,
      "Ġagent": 4689,
      "step": 4690,
      "play": 4691,
      "teness": 4692,
      "Ġ40": 4693,
      "Ġsepar": 4694,
      "ags": 4695,
      "Ġâľ": 4696,
      "Ġentirely": 4697,
      "Ġcare": 4698,
      "Ġeliminated": 4699,
      "../": 4700,
      "getting": 4701,
      "Ġinstructions": 4702,
      "terpressure": 4703,
      "Ġforgetting": 4704,
      "Ġoptional": 4705,
      "Ġfit": 4706,
      "conditional": 4707,
      "ĠRival": 4708,
      "ĠRivalry": 4709,
      "Ġwritten": 4710,
      "ans": 4711,
      "erness": 4712,
      "tenderness": 4713,
      "Ġlength": 4714,
      "Ġseparated": 4715,
      "rontend": 4716,
      "Ġsatisfied": 4717,
      "Ġfragmentation": 4718,
      "Ġweb": 4719,
      "Ġmisclassification": 4720,
      "cluded": 4721,
      "itized": 4722,
      "Ġunconditional": 4723,
      "Ġincluded": 4724,
      "Ġsuppressed": 4725,
      "Ġtied": 4726,
      "Ġunsafe": 4727,
      "confident": 4728,
      "Ġcompleteness": 4729,
      "oud": 4730,
      "ĠRemove": 4731,
      "aced": 4732,
      "Ġmarking": 4733,
      "Ġinterim": 4734,
      "Ġinapp": 4735,
      "Ġinapplicable": 4736,
      "Ġaccepts": 4737,
      "constrained": 4738,
      "contra": 4739,
      "que": 4740,
      "ev": 4741,
      "ables": 4742,
      "pose": 4743,
      "Ġapproaching": 4744,
      "Ġrestore": 4745,
      "Ġdeprior": 4746,
      "Ġdeprioritized": 4747,
      "Ġmentioned": 4748,
      "Ġproduct": 4749,
      "Ġharmed": 4750,
      "Ġmobile": 4751,
      "Ġoverconfident": 4752,
      "Ġsurfaced": 4753,
      "Ġ256": 4754,
      "Ġdisplay": 4755,
      "Ġprioritized": 4756,
      "Ġcontained": 4757,
      "ened": 4758,
      "Ġ400": 4759,
      "Ġcompress": 4760,
      "Ġcard": 4761,
      "ipped": 4762,
      "Ġcollapse": 4763,
      "cript": 4764,
      "Ġwebhook": 4765,
      "vey": 4766,
      "Ġcorru": 4767,
      "Ġoffl": 4768,
      "Ġoffline": 4769,
      "Ġconvey": 4770,
      "second": 4771,
      "Ġbinary": 4772,
      "Ġstatements": 4773,
      "Ġqualified": 4774,
      "Ġdegree": 4775,
      "Ġoperation": 4776,
      "Ġcloud": 4777,
      "ifications": 4778,
      "Ġqualifications": 4779,
      "Ġchecklist": 4780,
      "Ġskipped": 4781,
      "Ġsituational": 4782,
      "readable": 4783,
      "Ġchanging": 4784,
      "lessly": 4785,
      "Ġtruncation": 4786,
      "Ġtruncated": 4787,
      "Ġcarelessly": 4788,
      "Ġaid": 4789,
      "band": 4790,
      "Ġtransmission": 4791,
      "wid": 4792,
      "width": 4793,
      "bandwidth": 4794,
      "Ġclause": 4795,
      "Ġtranscript": 4796,
      "Ġreplay": 4797,
      "live": 4798,
      "tier": 4799,
      "Ġgoverns": 4800,
      "Ġcorrupt": 4801,
      "ODE": 4802,
      "Ġprotects": 4803,
      "Ġbytes": 4804,
      "Ġstance": 4805,
      "prob": 4806,
      "probability": 4807,
      "portable": 4808,
      "Ġcit": 4809,
      "Ġcitations": 4810,
      "Ġrating": 4811,
      "Ġwaived": 4812,
      "Ġdistilled": 4813,
      "Ġqualification": 4814,
      "Ġspans": 4815,
      "Ġtags": 4816,
      "Ġcapture": 4817,
      "Ġcollapsed": 4818,
      "Ġroles": 4819,
      "contained": 4820,
      "layered": 4821,
      "range": 4822,
      "Ġ60": 4823,
      "Ġportion": 4824,
      "Ġ600": 4825,
      "Ġmodifier": 4826,
      "Ġfront": 4827,
      "Ġfrontline": 4828,
      "Ġlayered": 4829,
      "Ġeleven": 4830,
      "Ġshortened": 4831,
      "Ġblockers": 4832,
      "Ġindic": 4833,
      "Ġindicator": 4834,
      "Ġ128": 4835,
      "change": 4836,
      "keep": 4837,
      "Ġalive": 4838,
      "()": 4839,
      "balance": 4840,
      "Ġdecides": 4841,
      "ask": 4842,
      "Ġrejects": 4843,
      "mun": 4844,
      "Ġsurvival": 4845,
      "UM": 4846,
      "Ġdeliberately": 4847,
      "ĠâĨ": 4848,
      "ĠGPU": 4849,
      "counterpressure": 4850,
      "services": 4851,
      "frontend": 4852,
      "Ġlegacy": 4853,
      "clear": 4854,
      "âĶĢâĶĢâĶĢâĶĢ": 4855,
      "nder": 4856,
      "Ġsharpens": 4857,
      "AD": 4858,
      "Ġbackend": 4859,
      "Ġremade": 4860,
      "Ġdestroying": 4861,
      "Ġease": 4862,
      "ended": 4863,
      "ening": 4864,
      "Ġthrough": 4865,
      "Ġbefo": 4866,
      "Ġdeci": 4867,
      "ugging": 4868,
      "---|---|": 4869,
      "Ġwithi": 4870,
      "Ġproc": 4871,
      "Ġevading": 4872,
      "munity": 4873,
      "ecord": 4874,
      "Ġmiss": 4875,
      "community": 4876,
      "Ġbee": 4877,
      "Ġcru": 4878,
      "shing": 4879,
      "Ġcrushing": 4880,
      "CH": 4881,
      "under": 4882,
      "Ġroute": 4883,
      "DIT": 4884,
      "Ġearly": 4885,
      "expose": 4886,
      "Ġarchitecture": 4887,
      "public": 4888,
      "concern": 4889,
      "Ġcrisis": 4890,
      "contrast": 4891,
      "recall": 4892,
      "aque": 4893,
      "Ġopaque": 4894,
      "Ġsoftware": 4895,
      "Ġâľħ": 4896,
      "ref": 4897,
      "rate": 4898,
      "tent": 4899,
      "Ġ`/": 4900,
      "12": 4901,
      "OST": 4902,
      "ult": 4903,
      "pansion": 4904,
      "Ġhealth": 4905,
      "orrection": 4906,
      "CODE": 4907,
      ").": 4908,
      "05": 4909,
      "ĠAll": 4910,
      "health": 4911,
      "ccess": 4912,
      "ĠGen": 4913,
      "LO": 4914,
      "rc": 4915,
      "src": 4916,
      "audit": 4917,
      "Ġethics": 4918,
      "osity": 4919,
      "expansion": 4920,
      "iosity": 4921,
      "AT": 4922,
      "service": 4923,
      "lease": 4924,
      "rief": 4925,
      "Ġrelease": 4926,
      "extended": 4927,
      "Ġpan": 4928,
      "Ġenemy": 4929,
      "026": 4930,
      "OMPLE": 4931,
      "Ġorg": 4932,
      "curiosity": 4933,
      "GET": 4934,
      "================================": 4935,
      "wer": 4936,
      "Ġpanic": 4937,
      "correction": 4938,
      "pert": 4939,
      "uncertainty": 4940,
      "expert": 4941,
      "survives": 4942,
      "Ġpower": 4943,
      "Ġpositivity": 4944,
      "contact": 4945,
      "ĠCoalition": 4946,
      "softening": 4947,
      "ĠTrust": 4948,
      "grief": 4949,
      "Ġcode": 4950,
      "ph": 4951,
      "Ġforces": 4952,
      "ĠIm": 4953,
      "Ġclean": 4954,
      "Ġcorrection": 4955,
      "ampl": 4956,
      "ORT": 4957,
      ":/": 4958,
      "CR": 4959,
      "ĠMust": 4960,
      "Ġ2026": 4961,
      "ĠâĨĴ": 4962,
      "Ġexplain": 4963,
      "elligence": 4964,
      "ķĲ": 4965,
      "Ġdevelopmental": 4966,
      "eb": 4967,
      "Ġforms": 4968,
      "urning": 4969,
      "REPORT": 4970,
      "âķĲ": 4971,
      "Ġsolve": 4972,
      "Ġstay": 4973,
      "whole": 4974,
      "ED": 4975,
      "Ġcleanly": 4976,
      "\\\":": 4977,
      "atform": 4978,
      "success": 4979,
      "arch": 4980,
      "Ġcommunity": 4981,
      "âķĲâķĲ": 4982,
      "SION": 4983,
      "Ġarrange": 4984,
      "Ġarrangement": 4985,
      "Ġoverreached": 4986,
      "AN": 4987,
      "relational": 4988,
      "ĠIntent": 4989,
      "alert": 4990,
      "alertness": 4991,
      "Ġ=": 4992,
      "Ġrefusing": 4993,
      "PLO": 4994,
      "PLOY": 4995,
      "READ": 4996,
      "ĠIs": 4997,
      "](/": 4998,
      "ĠLo": 4999,
      "ĠOperation": 5000,
      "Ġdistinct": 5001,
      "move": 5002,
      "movement": 5003,
      "Ġ]": 5004,
      "pici": 5005,
      "picion": 5006,
      "suspicion": 5007,
      "Ġturning": 5008,
      "ĠStatus": 5009,
      "outer": 5010,
      "Ġ17": 5011,
      "US": 5012,
      "add": 5013,
      "ĠBack": 5014,
      "ĠDomain": 5015,
      "OMPLETE": 5016,
      "ĠAdd": 5017,
      "AUDIT": 5018,
      "TEM": 5019,
      "governance": 5020,
      "13": 5021,
      "ast": 5022,
      "Ġfiles": 5023,
      "ĠCore": 5024,
      "PLOYMENT": 5025,
      "Ġinfrastructure": 5026,
      "Ġmodels": 5027,
      "Ġmut": 5028,
      "Ġlaw": 5029,
      "2502": 5030,
      "amplified": 5031,
      "overamplified": 5032,
      "positivity": 5033,
      "03": 5034,
      "'t": 5035,
      "ĠCodex": 5036,
      "pect": 5037,
      "USION": 5038,
      "date": 5039,
      "FUSION": 5040,
      "Ġ8": 5041,
      "cker": 5042,
      "ĠPOST": 5043,
      "satisf": 5044,
      "satisfaction": 5045,
      "dissatisfaction": 5046,
      "Ġstronger": 5047,
      "04": 5048,
      "](../": 5049,
      "IG": 5050,
      "Write": 5051,
      "icature": 5052,
      "Ġunmist": 5053,
      "akable": 5054,
      "Ġcaricature": 5055,
      "Ġunmistakable": 5056,
      "AR": 5057,
      "\\\",": 5058,
      "Ġpartnership": 5059,
      "Ġfixes": 5060,
      "YS": 5061,
      "judgment": 5062,
      "11": 5063,
      "ebugging": 5064,
      "Debugging": 5065,
      "Ġ11": 5066,
      "rin": 5067,
      "YSTEM": 5068,
      "27": 5069,
      "patience": 5070,
      "impatience": 5071,
      "ius": 5072,
      "UR": 5073,
      "IC": 5074,
      "jsx": 5075,
      "Ġfinancial": 5076,
      "----------------": 5077,
      "architecture": 5078,
      "hy": 5079,
      "ariables": 5080,
      "20": 5081,
      "ĠSe": 5082,
      "da": 5083,
      "Ġ&": 5084,
      "ĠTra": 5085,
      "asks": 5086,
      "ĠBackend": 5087,
      "ĠSer": 5088,
      "ĠCre": 5089,
      "framed": 5090,
      "refusal": 5091,
      "Ġmachine": 5092,
      "gence": 5093,
      "vity": 5094,
      "Ġlegibility": 5095,
      "event": 5096,
      "Per": 5097,
      "gist": 5098,
      "raph": 5099,
      "frust": 5100,
      "GEN": 5101,
      "Ġgen": 5102,
      "first": 5103,
      "ĠâĶ": 5104,
      "ault": 5105,
      "ĠFIX": 5106,
      "IDE": 5107,
      "Ġintelligence": 5108,
      "hidden": 5109,
      "ample": 5110,
      "ĠSc": 5111,
      "INTE": 5112,
      "rom": 5113,
      "Ġpurity": 5114,
      "GU": 5115,
      "ĠFIXED": 5116,
      "ĠDate": 5117,
      "RATION": 5118,
      "entic": 5119,
      "ores": 5120,
      "Ġrival": 5121,
      "GUIDE": 5122,
      "ĠFix": 5123,
      "ĠRecord": 5124,
      "relevant": 5125,
      "visibility": 5126,
      "Ġ->": 5127,
      "test": 5128,
      "LL": 5129,
      "fix": 5130,
      "ĠEnd": 5131,
      "ibility": 5132,
      "](../../": 5133,
      "UMB": 5134,
      "CRUMB": 5135,
      "READCRUMB": 5136,
      "continuity": 5137,
      "Detect": 5138,
      "Ġmutation": 5139,
      "ĠStep": 5140,
      "Ġpoliteness": 5141,
      "ĠDef": 5142,
      "Ġtransparency": 5143,
      "uil": 5144,
      "ellig": 5145,
      "),": 5146,
      "stry": 5147,
      "Perform": 5148,
      "SYSTEM": 5149,
      "olo": 5150,
      "models": 5151,
      "Ġworkforce": 5152,
      "ĠCan": 5153,
      "ĠFor": 5154,
      "Ġhel": 5155,
      "ĠComplete": 5156,
      "Ġenclosure": 5157,
      "osti": 5158,
      "ostile": 5159,
      "stability": 5160,
      "API": 5161,
      "Ġbreakup": 5162,
      "Ġdigital": 5163,
      "ass": 5164,
      "base": 5165,
      "execution": 5166,
      "Ġendpoint": 5167,
      "Ġlatency": 5168,
      "Ġdead": 5169,
      "variables": 5170,
      "Ġdeadline": 5171,
      "ĠRoute": 5172,
      "ĠPer": 5173,
      "MENTATION": 5174,
      "Ġflow": 5175,
      "ĠApp": 5176,
      "10": 5177,
      "ke": 5178,
      "dec": 5179,
      "ects": 5180,
      "torical": 5181,
      "historical": 5182,
      "ancestry": 5183,
      "Ġregulated": 5184,
      "Ġinstitutional": 5185,
      "field": 5186,
      "Ġ#": 5187,
      "Ġasync": 5188,
      "Ġsacred": 5189,
      "Ġdiscipline": 5190,
      "Ġsignificance": 5191,
      "()`": 5192,
      "ards": 5193,
      "âĶĢâĶĢâĶĢâĶĢâĶĢâĶĢâĶĢâĶĢ": 5194,
      "Ġplatform": 5195,
      "Ġedu": 5196,
      "Ġworld": 5197,
      "standards": 5198,
      "Ġinvestment": 5199,
      "intervention": 5200,
      "ĠService": 5201,
      "hem": 5202,
      "Ġfutures": 5203,
      "ĠCheck": 5204,
      "elligibility": 5205,
      "Ġunready": 5206,
      "vability": 5207,
      "Ġrespect": 5208,
      "002": 5209,
      "ages": 5210,
      "progress": 5211,
      "Ġhealthcare": 5212,
      "ective": 5213,
      "Ġsocial": 5214,
      "anger": 5215,
      "antic": 5216,
      "Ġprioritization": 5217,
      "ĠPurpose": 5218,
      "rediction": 5219,
      "94": 5220,
      "Sc": 5221,
      "URE": 5222,
      "Ġtakes": 5223,
      "ĠCompon": 5224,
      "org": 5225,
      "Ġfile": 5226,
      "Ġshape": 5227,
      "staging": 5228,
      "remaking": 5229,
      "roadmap": 5230,
      "ĠSel": 5231,
      "presence": 5232,
      "Ġcontent": 5233,
      "ĠSelf": 5234,
      "perimeter": 5235,
      "intelligibility": 5236,
      "survivability": 5237,
      "ĠRun": 5238,
      "ĠSEC": 5239,
      "Ġblame": 5240,
      "VER": 5241,
      "ycle": 5242,
      "Ġrese": 5243,
      "file": 5244,
      "ĠSet": 5245,
      "Ġresearch": 5246,
      "state": 5247,
      "Ġsupply": 5248,
      "coexistence": 5249,
      "PLEMENTATION": 5250,
      "ĠPass": 5251,
      "LAW": 5252,
      "Ġvulnerable": 5253,
      "Ġsuccession": 5254,
      "onest": 5255,
      "regulatory": 5256,
      "threshold": 5257,
      "ll": 5258,
      "emantic": 5259,
      "ĠComponent": 5260,
      "Record": 5261,
      "merge": 5262,
      "liveness": 5263,
      "thresholds": 5264,
      "redaction": 5265,
      "Ġrow": 5266,
      "ĠFailure": 5267,
      "ĠRE": 5268,
      "loyment": 5269,
      "ciple": 5270,
      "rinciple": 5271,
      "Ġuptime": 5272,
      "frustration": 5273,
      "oring": 5274,
      "ITECT": 5275,
      "CHITECT": 5276,
      "CHITECTURE": 5277,
      "Ġpati": 5278,
      "Ġmanufacturing": 5279,
      "Ġmission": 5280,
      "Ġnonprofit": 5281,
      "Ġretaliation": 5282,
      "leblower": 5283,
      "Ġwhist": 5284,
      "Ġwhistleblower": 5285,
      "Ġoverfeed": 5286,
      "Ġauthentic": 5287,
      "Ġpatient": 5288,
      "reme": 5289,
      "Ġpharmaceutical": 5290,
      "Ġmerger": 5291,
      "Ġinsurance": 5292,
      "Ġeducational": 5293,
      "Ġgovernment": 5294,
      "Ġfer": 5295,
      "Ġcapital": 5296,
      "Ġferpa": 5297,
      "ĠDe": 5298,
      "Ġirb": 5299,
      "Ġ{": 5300,
      "Ġreputational": 5301,
      "GRATION": 5302,
      "Ġip": 5303,
      "Ġjoint": 5304,
      "Ġpartners": 5305,
      "Ġheadcount": 5306,
      "ĠOr": 5307,
      "Ġconsulting": 5308,
      "Ġacademic": 5309,
      "Ġremote": 5310,
      "Ġnovelty": 5311,
      "ravity": 5312,
      "Ġmedia": 5313,
      "rine": 5314,
      "ctrine": 5315,
      "Ġmedical": 5316,
      "seat": 5317,
      "14": 5318,
      "Ġfda": 5319,
      "--|": 5320,
      "ĠCR": 5321,
      "ĠUI": 5322,
      "Ġobjectivity": 5323,
      "benchmark": 5324,
      "ĠGET": 5325,
      "Ġbind": 5326,
      "Coalition": 5327,
      "ernel": 5328,
      "ps": 5329,
      "ĠAuditor": 5330,
      "DEPLOYMENT": 5331,
      "ĠImplement": 5332,
      "ĠDefault": 5333,
      "RO": 5334,
      "Ġsection": 5335,
      "min": 5336,
      "Ġsubstrate": 5337,
      "Ġbatch": 5338,
      "cc": 5339,
      "model": 5340,
      "CY": 5341,
      "ĠTo": 5342,
      "REPO": 5343,
      "json": 5344,
      "Ġdev": 5345,
      "GING": 5346,
      "Hub": 5347,
      "uild": 5348,
      "itHub": 5349,
      "STR": 5350,
      "ler": 5351,
      "GGING": 5352,
      "security": 5353,
      "valu": 5354,
      "ĠPattern": 5355,
      "vent": 5356,
      "Ġwarning": 5357,
      "23": 5358,
      "ĠUp": 5359,
      "MARY": 5360,
      "UMMARY": 5361,
      "irec": 5362,
      "Ġfrontend": 5363,
      "Trust": 5364,
      "match": 5365,
      "oll": 5366,
      "code": 5367,
      "22": 5368,
      "allenge": 5369,
      ".\\\"": 5370,
      "iness": 5371,
      "uration": 5372,
      "ĠGenius": 5373,
      "15": 5374,
      "overreach": 5375,
      "ATUS": 5376,
      "STATUS": 5377,
      "ĠâĶĤ": 5378,
      "ĠDE": 5379,
      "dist": 5380,
      "ĠHigh": 5381,
      "Ġformed": 5382,
      "ology": 5383,
      "cs": 5384,
      "db": 5385,
      "IMPLEMENTATION": 5386,
      "path": 5387,
      "protective": 5388,
      "READCRUMBS": 5389,
      "controlled": 5390,
      "Ġ7": 5391,
      "âķĲâķĲâķĲâķĲ": 5392,
      "mb": 5393,
      "ĠEngine": 5394,
      "Ġlogic": 5395,
      "lob": 5396,
      "distrust": 5397,
      "PF": 5398,
      "thod": 5399,
      "State": 5400,
      "ĠFile": 5401,
      "gis": 5402,
      "thon": 5403,
      "BU": 5404,
      "ĠHidden": 5405,
      "GENCE": 5406,
      "ĠDep": 5407,
      "VI": 5408,
      "ĠScore": 5409,
      "hema": 5410,
      "ARCHITECTURE": 5411,
      "Ġrows": 5412,
      "ule": 5413,
      "17": 5414,
      "ĠCOMPLETE": 5415,
      "OSS": 5416,
      "pu": 5417,
      "ĠOn": 5418,
      "ĠFull": 5419,
      "istance": 5420,
      "ecycle": 5421,
      "ifecycle": 5422,
      "Ġenough": 5423,
      "Core": 5424,
      "SED": 5425,
      "ĠSelfish": 5426,
      "Ġfail": 5427,
      "ties": 5428,
      "broken": 5429,
      "Ġrout": 5430,
      "Ġother": 5431,
      "ached": 5432,
      "challenge": 5433,
      "ĠSeverity": 5434,
      "Ġrecei": 5435,
      "lemental": 5436,
      "ĠReference": 5437,
      "Ġhelper": 5438,
      "COMPLETE": 5439,
      "Ġget": 5440,
      "BUGGING": 5441,
      "Ġadd": 5442,
      "DEBUGGING": 5443,
      "resolve": 5444,
      "guarded": 5445,
      "guardedness": 5446,
      "Ġcarrying": 5447,
      "Ġ9": 5448,
      "iguration": 5449,
      "ĠProt": 5450,
      "Ġdeserve": 5451,
      "Ġevents": 5452,
      "ĠProtects": 5453,
      "ĠExample": 5454,
      "mod": 5455,
      "Ġsubsystem": 5456,
      "dri": 5457,
      "analy": 5458,
      "Ġdomains": 5459,
      "Ġ)": 5460,
      "ĠLay": 5461,
      "Ġ|---|---|": 5462,
      "etwork": 5463,
      "SUMMARY": 5464,
      "34": 5465,
      "gister": 5466,
      "INAL": 5467,
      "004": 5468,
      "IGENCE": 5469,
      "LLIGENCE": 5470,
      "decide": 5471,
      "ĠCreate": 5472,
      "ĠNot": 5473,
      "ENCY": 5474,
      "hi": 5475,
      "Ġtruthful": 5476,
      "Ġ15": 5477,
      "flow": 5478,
      "2713": 5479,
      "ĠMap": 5480,
      "ilos": 5481,
      "ophy": 5482,
      "Ġcomprom": 5483,
      "ilosophy": 5484,
      "ilities": 5485,
      "lobal": 5486,
      "Ġresisting": 5487,
      "ĠAnd": 5488,
      "LU": 5489,
      "ĠGitHub": 5490,
      "confusion": 5491,
      "FLU": 5492,
      "analytic": 5493,
      "FLUENCY": 5494,
      "ĠCanopy": 5495,
      "INTELLIGENCE": 5496,
      "ITI": 5497,
      "ĠID": 5498,
      "ĠDet": 5499,
      "Ġengine": 5500,
      "SER": 5501,
      "UD": 5502,
      "Ġscenarios": 5503,
      "bined": 5504,
      "Ġclaimant": 5505,
      "tasks": 5506,
      "Ġsurviving": 5507,
      "Treat": 5508,
      "ĠConver": 5509,
      "Ġtraining": 5510,
      "Ġprojection": 5511,
      "gistration": 5512,
      "Ġrepo": 5513,
      "prediction": 5514,
      "Ġ~": 5515,
      "overe": 5516,
      "overeign": 5517,
      "reve": 5518,
      "resistance": 5519,
      "Ġ---": 5520,
      "ĠInd": 5521,
      "ĠEndpoints": 5522,
      "reverence": 5523,
      "dentity": 5524,
      "bilities": 5525,
      "veloper": 5526,
      "ceability": 5527,
      "ORK": 5528,
      "ĠMon": 5529,
      "riction": 5530,
      "data": 5531,
      "Ġwrite": 5532,
      "og": 5533,
      "alarm": 5534,
      "Ġmeans": 5535,
      "asion": 5536,
      "pages": 5537,
      "evasion": 5538,
      "lication": 5539,
      "ignation": 5540,
      "indignation": 5541,
      "mp": 5542,
      "Ġtask": 5543,
      "74": 5544,
      "itation": 5545,
      "ĠECS": 5546,
      "abilizing": 5547,
      "ules": 5548,
      "ĠBuild": 5549,
      "Ġauthenticated": 5550,
      "Ġunless": 5551,
      "room": 5552,
      "Ġ>": 5553,
      "HASE": 5554,
      "Ġtesting": 5555,
      "drive": 5556,
      "ĠHUD": 5557,
      "Ġextreme": 5558,
      "SO": 5559,
      "ĠFlow": 5560,
      "TIC": 5561,
      "ESSED": 5562,
      "022": 5563,
      "ĠUser": 5564,
      "log": 5565,
      "long": 5566,
      "STRESSED": 5567,
      "Ġcoverage": 5568,
      "router": 5569,
      "ĠMe": 5570,
      "amb": 5571,
      "dule": 5572,
      "structive": 5573,
      "constructive": 5574,
      "ambition": 5575,
      "Ġpermission": 5576,
      "condition": 5577,
      "friction": 5578,
      "Ġsec": 5579,
      "ITICAL": 5580,
      "MAN": 5581,
      "ĠGener": 5582,
      "irect": 5583,
      "discomfort": 5584,
      "fragmentation": 5585,
      "stabilizing": 5586,
      "Ġlines": 5587,
      "ensity": 5588,
      "VICE": 5589,
      "append": 5590,
      "SERVICE": 5591,
      "/{": 5592,
      "Ġsays": 5593,
      "Ġlayers": 5594,
      "ĠNe": 5595,
      "bern": 5596,
      "Ġcall": 5597,
      "ĠValid": 5598,
      "intensity": 5599,
      "agitation": 5600,
      "withholding": 5601,
      "grow": 5602,
      "Ġrouter": 5603,
      "---------|": 5604,
      "Ġtries": 5605,
      "Ġvia": 5606,
      "Ġ(`": 5607,
      "ang": 5608,
      "ĠFiles": 5609,
      "ache": 5610,
      "ĠMut": 5611,
      "Ġinside": 5612,
      "(...": 5613,
      "WORK": 5614,
      "ĠRIM": 5615,
      "Ġsize": 5616,
      "Ġlogs": 5617,
      "network": 5618,
      "Scenario": 5619,
      "structured": 5620,
      "003": 5621,
      "ĠLayer": 5622,
      "ĠIdentity": 5623,
      "place": 5624,
      "ynam": 5625,
      "ĠLog": 5626,
      "FC": 5627,
      "healthy": 5628,
      "Ġmeaning": 5629,
      "ĠPl": 5630,
      "Ġschema": 5631,
      "gres": 5632,
      "ĠUpdate": 5633,
      "check": 5634,
      "bernetic": 5635,
      "ĠAU": 5636,
      "ĠDEPLOYMENT": 5637,
      "Ġ,": 5638,
      "ĠAUDIT": 5639,
      "53": 5640,
      "usiness": 5641,
      "instance": 5642,
      "ummary": 5643,
      "ĠDeployment": 5644,
      "asi": 5645,
      ")`": 5646,
      "ism": 5647,
      "ball": 5648,
      "asier": 5649,
      "POST": 5650,
      "ootball": 5651,
      "Ġeasier": 5652,
      "breakup": 5653,
      "PUT": 5654,
      "Ġresul": 5655,
      "ĠFamily": 5656,
      "ling": 5657,
      "ĠBenchmark": 5658,
      "ĠDocker": 5659,
      "chor": 5660,
      "pplemental": 5661,
      "ee": 5662,
      "Ġseat": 5663,
      "Ġpass": 5664,
      "Ġreps": 5665,
      "ryption": 5666,
      "Ġgeneration": 5667,
      "Tra": 5668,
      "URITY": 5669,
      "Ġdecay": 5670,
      "ĠCOM": 5671,
      "deb": 5672,
      "GI": 5673,
      "Ġcompromise": 5674,
      "SON": 5675,
      "Gen": 5676,
      "hooks": 5677,
      "Ġdrifts": 5678,
      "Ġ*": 5679,
      "ĠStill": 5680,
      "Ġprefers": 5681,
      "Ġcoll": 5682,
      "ĠImplementation": 5683,
      "2022": 5684,
      "ðŁ": 5685,
      "grower": 5686,
      "tell": 5687,
      "partic": 5688,
      "telligence": 5689,
      "Ġpatterns": 5690,
      "aa": 5691,
      "ĠSummary": 5692,
      "leg": 5693,
      "Ġ================================": 5694,
      "uln": 5695,
      "ulnera": 5696,
      "ĠValidation": 5697,
      "Ġreality": 5698,
      "command": 5699,
      "ĠMonit": 5700,
      "ĠVari": 5701,
      "UB": 5702,
      "ni": 5703,
      "hud": 5704,
      "Ġoff": 5705,
      "ACT": 5706,
      "ulnerabilities": 5707,
      "internal": 5708,
      "atase": 5709,
      "26": 5710,
      "angu": 5711,
      "anguage": 5712,
      "rations": 5713,
      "igrations": 5714,
      "ĠKeep": 5715,
      "30": 5716,
      "Ġviol": 5717,
      "251": 5718,
      "Ġid": 5719,
      "SEC": 5720,
      "asoning": 5721,
      "ĠTraining": 5722,
      "Ġtasks": 5723,
      "Audit": 5724,
      "iction": 5725,
      "ĠRequi": 5726,
      "Ġhonest": 5727,
      "cing": 5728,
      "ĠEnforcement": 5729,
      "Ġsemantic": 5730,
      "ĠText": 5731,
      "CL": 5732,
      "each": 5733,
      "combined": 5734,
      "ORG": 5735,
      "ose": 5736,
      "DEM": 5737,
      "ĠRec": 5738,
      "IGN": 5739,
      "IGNMENT": 5740,
      "gre": 5741,
      "ALIGNMENT": 5742,
      "Ġreceives": 5743,
      "Ġtemp": 5744,
      "ribution": 5745,
      "Ġeleg": 5746,
      "ĠRead": 5747,
      "Ġelegant": 5748,
      "sers": 5749,
      "Ġpatch": 5750,
      "rim": 5751,
      "intelligence": 5752,
      "Ġlegitimacy": 5753,
      "ĠWith": 5754,
      "Ġgraph": 5755,
      "ybernetic": 5756,
      "gression": 5757,
      "oy": 5758,
      "ĠTests": 5759,
      "Ġdoctrine": 5760,
      "Ġchoose": 5761,
      "ĠIEC": 5762,
      "mismatch": 5763,
      "Ġdisc": 5764,
      "ĠLaw": 5765,
      "------|": 5766,
      "09": 5767,
      "ĠRule": 5768,
      "Ġscoring": 5769,
      "ĠWrite": 5770,
      "ropose": 5771,
      "gistry": 5772,
      "ĠReview": 5773,
      "orts": 5774,
      "PHASE": 5775,
      "Ġparame": 5776,
      "CODEX": 5777,
      "TR": 5778,
      "Ġcoun": 5779,
      "ĠRequest": 5780,
      "19": 5781,
      "status": 5782,
      "ui": 5783,
      "ĠEndpoint": 5784,
      "av": 5785,
      "roles": 5786,
      "runtime": 5787,
      "uclear": 5788,
      "dated": 5789,
      "ss": 5790,
      "ĠHook": 5791,
      "ĠWork": 5792,
      "ca": 5793,
      "ĠComp": 5794,
      "Ġhash": 5795,
      "Ġuses": 5796,
      "Ġcache": 5797,
      "ĠCreated": 5798,
      "REF": 5799,
      "Ġ================================================================": 5800,
      "Ġtempting": 5801,
      "ying": 5802,
      "cf": 5803,
      "50": 5804,
      "Ġ|--------": 5805,
      "ĠPre": 5806,
      "PRO": 5807,
      "ĠMan": 5808,
      "ĠBREADCRUMBS": 5809,
      "PUTATIONAL": 5810,
      "ĠConn": 5811,
      "FUL": 5812,
      "compliance": 5813,
      "INTEGRATION": 5814,
      "Ġprop": 5815,
      "WS": 5816,
      "Ġenforcement": 5817,
      "ANING": 5818,
      "ANINGFUL": 5819,
      "ites": 5820,
      "VE": 5821,
      "valuation": 5822,
      "raid": 5823,
      "honest": 5824,
      "ython": 5825,
      "ĠREAD": 5826,
      "liability": 5827,
      "Ġgenius": 5828,
      "tifact": 5829,
      "Ġbuilt": 5830,
      "sues": 5831,
      "nap": 5832,
      "traceability": 5833,
      "napsh": 5834,
      "ive": 5835,
      "DI": 5836,
      "dev": 5837,
      "Ġitems": 5838,
      "gpu": 5839,
      "ĠðŁ": 5840,
      "like": 5841,
      "::": 5842,
      "Ġ13": 5843,
      "Ġhandler": 5844,
      "atic": 5845,
      "ĠWhen": 5846,
      "mess": 5847,
      "Ġrelational": 5848,
      "messy": 5849,
      "alan": 5850,
      "Ġ|---|---|---|---|": 5851,
      "MIGRATION": 5852,
      "venance": 5853,
      "ĠPers": 5854,
      "hysi": 5855,
      "dep": 5856,
      "False": 5857,
      "ĠCROSS": 5858,
      "hard": 5859,
      "ĠTPF": 5860,
      "AP": 5861,
      "rid": 5862,
      "ont": 5863,
      "mpty": 5864,
      "Ġclassroom": 5865,
      "ĠWhy": 5866,
      "philosophy": 5867,
      "ptim": 5868,
      "here": 5869,
      "ATUR": 5870,
      "vers": 5871,
      "IST": 5872,
      "TO": 5873,
      "compli": 5874,
      "Ġminimal": 5875,
      "ĠEnvironment": 5876,
      "score": 5877,
      "ĠFinal": 5878,
      "ĠMedium": 5879,
      "Ġkernel": 5880,
      "Ġteach": 5881,
      "Ġregul": 5882,
      "ĠPropose": 5883,
      "ataset": 5884,
      "pected": 5885,
      "ĠVariable": 5886,
      "Code": 5887,
      "ks": 5888,
      "bas": 5889,
      "roval": 5890,
      "ude": 5891,
      "ĠDepend": 5892,
      "ĠThat": 5893,
      "54": 5894,
      "âĶĢâĶĢâĶĢâĶĢâĶĢâĶĢâĶĢâĶĢâĶĢâĶĢâĶĢâĶĢâĶĢâĶĢâĶĢâĶĢ": 5895,
      "valuator": 5896,
      "ĠSee": 5897,
      "ĠReasoning": 5898,
      "relative": 5899,
      "particip": 5900,
      "participants": 5901,
      "utable": 5902,
      "law": 5903,
      "ĠCRITICAL": 5904,
      "ĠSingle": 5905,
      "Ġgravity": 5906,
      "Ġbuild": 5907,
      "ĠX": 5908,
      "etency": 5909,
      "Ġlike": 5910,
      "artifact": 5911,
      "auth": 5912,
      "tered": 5913,
      "GPU": 5914,
      "Ġallow": 5915,
      "MAP": 5916,
      "ese": 5917,
      "Ġown": 5918,
      "ĠRole": 5919,
      "ĠMethod": 5920,
      "ĠPa": 5921,
      "Ġyes": 5922,
      "ĠCritical": 5923,
      "ppet": 5924,
      "nippet": 5925,
      "ĠThese": 5926,
      "GOVER": 5927,
      "GOVERN": 5928,
      "Training": 5929,
      "ĠOver": 5930,
      "batch": 5931,
      "ĠCap": 5932,
      "size": 5933,
      "ĠPRO": 5934,
      "Ġ28": 5935,
      "txt": 5936,
      "ĠIntelligence": 5937,
      "ĠFound": 5938,
      "ORING": 5939,
      "ĠAP": 5940,
      "Ġdetection": 5941,
      "ĠDis": 5942,
      "ĠFl": 5943,
      "Information": 5944,
      "ults": 5945,
      "Ġthin": 5946,
      "ĠMet": 5947,
      "kernel": 5948,
      "enant": 5949,
      "dont": 5950,
      "tal": 5951,
      "Ġunclear": 5952,
      "Ġ14": 5953,
      "Ġlifecycle": 5954,
      "Ġtotal": 5955,
      "rategy": 5956,
      "ĠĀ": 5957,
      "Ġâľĵ": 5958,
      ".'": 5959,
      "ax": 5960,
      "alle": 5961,
      "VERY": 5962,
      "RECO": 5963,
      "ĠShe": 5964,
      "Ġsimulation": 5965,
      "RECOVERY": 5966,
      "ĠAut": 5967,
      "ATURAL": 5968,
      "ĠNever": 5969,
      "compliant": 5970,
      "Ġfake": 5971,
      "ĠPrinciple": 5972,
      "avig": 5973,
      "Auth": 5974,
      "Gap": 5975,
      "Ġhook": 5976,
      "Ġnavig": 5977,
      "jurisdiction": 5978,
      "istory": 5979,
      "ĠAN": 5980,
      "Ġfu": 5981,
      "Ġnavigate": 5982,
      "legal": 5983,
      "Ġdecoy": 5984,
      "istral": 5985,
      "Ġdecoys": 5986,
      "LIC": 5987,
      "onom": 5988,
      "Hostile": 5989,
      "mon": 5990,
      "Ġhostile": 5991,
      "USER": 5992,
      "escalate": 5993,
      "Ġloss": 5994,
      "ANCE": 5995,
      "ĠRFC": 5996,
      "40": 5997,
      "(...)`": 5998,
      "IGH": 5999,
      "surface": 6000,
      "ĠMonitor": 6001,
      "ock": 6002,
      "idel": 6003,
      "Ġmigrations": 6004,
      "aveat": 6005,
      "ential": 6006,
      "gener": 6007,
      "Ġscores": 6008,
      "0003": 6009,
      "Ġconfig": 6010,
      "ĠEvent": 6011,
      "ĠSub": 6012,
      "MEDI": 6013,
      "spec": 6014,
      "Ġimports": 6015,
      "ctual": 6016,
      "ĠPermission": 6017,
      "SP": 6018,
      "omated": 6019,
      "ĠConfiguration": 6020,
      "Ġhow": 6021,
      "ĠPar": 6022,
      "ĠInfer": 6023,
      "ignment": 6024,
      "roduction": 6025,
      "GOVERNANCE": 6026,
      "iver": 6027,
      "Ġfields": 6028,
      "Ġyour": 6029,
      "modynam": 6030,
      "GINE": 6031,
      "ermodynam": 6032,
      "atures": 6033,
      "âķĲâķĲâķĲâķĲâķĲâķĲâķĲâķĲ": 6034,
      "ĠPres": 6035,
      "ENGINE": 6036,
      "ĠPhi": 6037,
      "ership": 6038,
      "ainable": 6039,
      "}`": 6040,
      "Ġ\"\\": 6041,
      "ĠIssues": 6042,
      "ĠBy": 6043,
      "Ġleadership": 6044,
      "ret": 6045,
      "SYSTEMS": 6046,
      "WORKER": 6047,
      "ĠBatch": 6048,
      "2194": 6049,
      "MG": 6050,
      "ĠVal": 6051,
      "Docker": 6052,
      "suppor": 6053,
      "35": 6054,
      "Ġbalan": 6055,
      "Ġhelp": 6056,
      "Ġbusiness": 6057,
      "Oce": 6058,
      "Ġrebalance": 6059,
      "ĠValue": 6060,
      "Ocean": 6061,
      "Ġbalancing": 6062,
      "ĠDigitalOcean": 6063,
      "riv": 6064,
      "COM": 6065,
      "ĠSupplemental": 6066,
      "`:": 6067,
      "allel": 6068,
      "--------------------------------": 6069,
      "ĠFINAL": 6070,
      "AGE": 6071,
      "Domain": 6072,
      "ĠDoes": 6073,
      "lation": 6074,
      "AM": 6075,
      "ob": 6076,
      "Ġworkflow": 6077,
      "Governance": 6078,
      "ĠConvert": 6079,
      "Ġnull": 6080,
      "fast": 6081,
      "Ġregistration": 6082,
      "Ġrespects": 6083,
      "README": 6084,
      "Ġtruthfully": 6085,
      "ĠOrg": 6086,
      "Ġroutes": 6087,
      "Ġfil": 6088,
      "ience": 6089,
      "Predicted": 6090,
      "udd": 6091,
      "Ġdepth": 6092,
      "JECT": 6093,
      "Ġfailures": 6094,
      "rements": 6095,
      "Ġentities": 6096,
      "ĠSession": 6097,
      "cru": 6098,
      "readcru": 6099,
      "readcrumb": 6100,
      "worker": 6101,
      "oc": 6102,
      "MAR": 6103,
      "ENCH": 6104,
      "MARK": 6105,
      "ENCHMARK": 6106,
      "File": 6107,
      "Ġ<": 6108,
      "ĠMistral": 6109,
      "0002": 6110,
      "LAN": 6111,
      "request": 6112,
      "ĠSemantic": 6113,
      "2193": 6114,
      "refuse": 6115,
      "ĠIN": 6116,
      "redirect": 6117,
      "Ġexplanation": 6118,
      "42": 6119,
      "zy": 6120,
      "etch": 6121,
      "versari": 6122,
      "versarial": 6123,
      "Ġinvent": 6124,
      "caveat": 6125,
      "AUDE": 6126,
      "CLAUDE": 6127,
      "emb": 6128,
      "MANAGE": 6129,
      "Ġmismatch": 6130,
      "idelity": 6131,
      "Ġapplication": 6132,
      "Ġ$": 6133,
      "Ġupdate": 6134,
      "Ġempty": 6135,
      "ĠWithout": 6136,
      "ĠPerformance": 6137,
      "eval": 6138,
      "Ġoffici": 6139,
      "erts": 6140,
      "ernet": 6141,
      "imension": 6142,
      "TPF": 6143,
      "Ġ[]": 6144,
      "Ġrate": 6145,
      "aining": 6146,
      "Ġinference": 6147,
      "FINAL": 6148,
      "ters": 6149,
      "ĠOptim": 6150,
      "TP": 6151,
      "ĠTrace": 6152,
      "wen": 6153,
      "TTP": 6154,
      "Ġdanger": 6155,
      "rincip": 6156,
      "limits": 6157,
      "supported": 6158,
      "rinciples": 6159,
      "cription": 6160,
      "BREADCRUMBS": 6161,
      "0005": 6162,
      "Ġsovereign": 6163,
      "Ġimage": 6164,
      "0004": 6165,
      "Ġ`.": 6166,
      "aptive": 6167,
      "Actual": 6168,
      "ĠGap": 6169,
      "df": 6170,
      "Log": 6171,
      "anchor": 6172,
      "QL": 6173,
      "ECK": 6174,
      "ously": 6175,
      "orization": 6176,
      "ĠExpression": 6177,
      "principle": 6178,
      "Ġoverreaches": 6179,
      "DEN": 6180,
      "ĠExpl": 6181,
      "-----|": 6182,
      "ĠMetric": 6183,
      "CROSS": 6184,
      "LIST": 6185,
      "ECKLIST": 6186,
      "MIGRATIONS": 6187,
      "ĠAlignment": 6188,
      "ĠGet": 6189,
      "STATE": 6190,
      "Ġbreakage": 6191,
      "lineage": 6192,
      "UTION": 6193,
      "ĠToken": 6194,
      "estam": 6195,
      "Dockerfile": 6196,
      "DN": 6197,
      "ĠConnect": 6198,
      "Ġlying": 6199,
      "Ġlogging": 6200,
      "oped": 6201,
      "Ġlanguage": 6202,
      "ĠAND": 6203,
      "ges": 6204,
      "ĠDatabase": 6205,
      "ĠScenario": 6206,
      "Ġregulation": 6207,
      "App": 6208,
      "spect": 6209,
      "ĠTranslation": 6210,
      "zzy": 6211,
      "ridge": 6212,
      "Ġfuzzy": 6213,
      "Ġadded": 6214,
      "ĠIT": 6215,
      "Ġmetrics": 6216,
      "python": 6217,
      "Ġclust": 6218,
      "âĢ": 6219,
      "ODEL": 6220,
      "tp": 6221,
      "Ġbug": 6222,
      "earning": 6223,
      "ĠÂ": 6224,
      "MODEL": 6225,
      "Ġincl": 6226,
      "hostile": 6227,
      "Hud": 6228,
      "Ġconvergence": 6229,
      "Ġparameter": 6230,
      "Ġtables": 6231,
      "van": 6232,
      "chest": 6233,
      "ERENCE": 6234,
      "ops": 6235,
      "Ġprovenance": 6236,
      "Ġproper": 6237,
      "Ġinterpretive": 6238,
      "REFERENCE": 6239,
      "PR": 6240,
      "Ġ|---|---|---|---|---|": 6241,
      "ĠFixed": 6242,
      "009": 6243,
      "ĠGraph": 6244,
      "ĠMissing": 6245,
      "au": 6246,
      "UP": 6247,
      "ĠRegOS": 6248,
      "edger": 6249,
      "unhealthy": 6250,
      "internet": 6251,
      "ĠMutations": 6252,
      "Ġexact": 6253,
      "Ġ[],": 6254,
      "ift": 6255,
      "ĠClass": 6256,
      "eries": 6257,
      "ĠComple": 6258,
      "usality": 6259,
      "TRE": 6260,
      "ATY": 6261,
      "DING": 6262,
      "TREATY": 6263,
      "lack": 6264,
      "----------|": 6265,
      "ĠEnc": 6266,
      "ausible": 6267,
      "Ġplausible": 6268,
      "Ġfab": 6269,
      "ick": 6270,
      "MB": 6271,
      "Ġfabric": 6272,
      "likely": 6273,
      "Family": 6274,
      "istence": 6275,
      "Ġ27": 6276,
      "ĠEncryption": 6277,
      "31": 6278,
      "ĠLocal": 6279,
      "MS": 6280,
      "OLIC": 6281,
      "OLICY": 6282,
      "POLICY": 6283,
      "`)": 6284,
      "ĠFast": 6285,
      "allback": 6286,
      "ĠRuntime": 6287,
      "enter": 6288,
      "Ġdevelop": 6289,
      "Ġunsupported": 6290,
      "CI": 6291,
      "Ġsecond": 6292,
      "Ġstr": 6293,
      "ĠLifecycle": 6294,
      "ĠImp": 6295,
      "registration": 6296,
      "INCI": 6297,
      "INCIPLE": 6298,
      "Ġent": 6299,
      "Ġdefault": 6300,
      "Ġcreation": 6301,
      "PRINCIPLE": 6302,
      "ĠQuick": 6303,
      "ĠAre": 6304,
      "yp": 6305,
      "register": 6306,
      "STI": 6307,
      "compute": 6308,
      "dy": 6309,
      "Ġhistory": 6310,
      "ĠMode": 6311,
      "ĠAuthorization": 6312,
      "ĠCont": 6313,
      "OUNDING": 6314,
      "PRINCIPLES": 6315,
      "ESS": 6316,
      "ĠWhere": 6317,
      "ĠPython": 6318,
      "Ġcomputational": 6319,
      "OMPLETION": 6320,
      "ways": 6321,
      "GB": 6322,
      "oti": 6323,
      "COMPLETION": 6324,
      "ACTORING": 6325,
      "otiable": 6326,
      "Ġneither": 6327,
      "Event": 6328,
      "Ġmodule": 6329,
      "bash": 6330,
      "Ġoptimization": 6331,
      "Why": 6332,
      "Ġmax": 6333,
      "Ġmethod": 6334,
      "replace": 6335,
      "Ġequilibrium": 6336,
      "Ġ================================================================================": 6337,
      "fiction": 6338,
      "acity": 6339,
      "Ġaccept": 6340,
      "ume": 6341,
      "dd": 6342,
      "ĠGu": 6343,
      "Ġvol": 6344,
      "TUTION": 6345,
      "STITUTION": 6346,
      "BER": 6347,
      "Ġvulnerabilities": 6348,
      "NETIC": 6349,
      "BERNETIC": 6350,
      "ĠDev": 6351,
      "Ġvolume": 6352,
      "ĠIndex": 6353,
      "ĠAlert": 6354,
      "VERDEN": 6355,
      "VERDENT": 6356,
      "Ġdon": 6357,
      "ĠDeveloper": 6358,
      "Ġexec": 6359,
      "ĠExists": 6360,
      "Ġretri": 6361,
      "Ġsnapsh": 6362,
      "ĠAWS": 6363,
      "ĠWe": 6364,
      "bose": 6365,
      "Ġformat": 6366,
      "ĠWorker": 6367,
      "Ġord": 6368,
      "ique": 6369,
      "udcc": 6370,
      "ĠRouter": 6371,
      "jsonl": 6372,
      "hysics": 6373,
      "625": 6374,
      "izes": 6375,
      "pass": 6376,
      "Ġresult": 6377,
      "gate": 6378,
      "ĠSECURITY": 6379,
      "ĠAC": 6380,
      "Ġhandling": 6381,
      "Rule": 6382,
      "reedom": 6383,
      "bb": 6384,
      "Ġinclude": 6385,
      "ĠVast": 6386,
      "echan": 6387,
      "rypt": 6388,
      "Ġtenant": 6389,
      "ĠPatterns": 6390,
      "priv": 6391,
      "engine": 6392,
      "Ġauthentication": 6393,
      "ĠYes": 6394,
      "ĠâĢ¢": 6395,
      "erator": 6396,
      "preted": 6397,
      ".**": 6398,
      "ustry": 6399,
      "chestration": 6400,
      "Ġcomplex": 6401,
      "private": 6402,
      "Ġprojections": 6403,
      "riend": 6404,
      "ĠStructure": 6405,
      "pop": 6406,
      "popular": 6407,
      "diagnosis": 6408,
      "moderator": 6409,
      "friend": 6410,
      "Ġthroughput": 6411,
      "ighted": 6412,
      "breed": 6413,
      "vendor": 6414,
      "Ġprinciples": 6415,
      "breeder": 6416,
      "SCH": 6417,
      "infrastructure": 6418,
      "sistent": 6419,
      "Ġrouters": 6420,
      "Ġextract": 6421,
      "utes": 6422,
      "EW": 6423,
      "enti": 6424,
      "ded": 6425,
      "patch": 6426,
      "ropy": 6427,
      "defa": 6428,
      "default": 6429,
      "GY": 6430,
      "ĠTesting": 6431,
      "ecute": 6432,
      "36": 6433,
      "ĠCOMP": 6434,
      "Ġdescrib": 6435,
      "evaluator": 6436,
      "revity": 6437,
      "Ġbraid": 6438,
      "ermodynamic": 6439,
      "ĠDescription": 6440,
      "constitutional": 6441,
      "ĠQwen": 6442,
      "ĠFOR": 6443,
      "Ġmer": 6444,
      "Ġec": 6445,
      "fb": 6446,
      "main": 6447,
      "ĠHTTP": 6448,
      "ories": 6449,
      "Ġreturn": 6450,
      "39": 6451,
      "global": 6452,
      "dictory": 6453,
      "contradictory": 6454,
      "frustrated": 6455,
      "ually": 6456,
      "Complete": 6457,
      "Ġmotion": 6458,
      "46": 6459,
      "Ġdomination": 6460,
      "riority": 6461,
      "ĠJurisdiction": 6462,
      "Al": 6463,
      "71": 6464,
      "ĠCapability": 6465,
      "ĠML": 6466,
      "Fail": 6467,
      "ĠGeneration": 6468,
      "ĠEs": 6469,
      "ĠHIGH": 6470,
      "Ġdatabase": 6471,
      "ĠApproval": 6472,
      "holder": 6473,
      "Ġold": 6474,
      "generation": 6475,
      "VAL": 6476,
      "actions": 6477,
      "Ġparallel": 6478,
      "entity": 6479,
      "env": 6480,
      "veral": 6481,
      "fc": 6482,
      "ĠQuery": 6483,
      "update": 6484,
      "Ġaware": 6485,
      "ĠScope": 6486,
      "Ġdebugging": 6487,
      "Multi": 6488,
      "ĠAR": 6489,
      "ĠRespon": 6490,
      "sist": 6491,
      "scenario": 6492,
      "Ġexample": 6493,
      "ĠPlatform": 6494,
      "rowth": 6495,
      "Ġind": 6496,
      "Ġtransl": 6497,
      "udccb": 6498,
      "Ġrou": 6499,
      "ĠAvailable": 6500,
      "Ġtranslate": 6501,
      "access": 6502,
      "ĠCover": 6503,
      "ĠME": 6504,
      "ĠMarch": 6505,
      "ultane": 6506,
      "Ġsimultane": 6507,
      "ĠSize": 6508,
      "ENV": 6509,
      "ĠJSON": 6510,
      "Ġcounterpressure": 6511,
      "bers": 6512,
      "Ġvariables": 6513,
      "MEDIATION": 6514,
      "omains": 6515,
      "ĠUpdated": 6516,
      "ierarch": 6517,
      "ĠMEANINGFUL": 6518,
      "Ġlist": 6519,
      "Ġcontrib": 6520,
      "Ġarch": 6521,
      "Ġconfusion": 6522,
      "+)": 6523,
      "clusion": 6524,
      "Ġhealthy": 6525,
      "ĠLoad": 6526,
      "ĠPressure": 6527,
      "ĠCPU": 6528,
      "requests": 6529,
      "Ġunhealthy": 6530,
      "ĠFootball": 6531,
      "ĠLearning": 6532,
      "Ġclar": 6533,
      "ĠConvergence": 6534,
      "Purpose": 6535,
      "down": 6536,
      "Ġsuch": 6537,
      "Scores": 6538,
      "DO": 6539,
      "Ġdiscovery": 6540,
      "Ġsimultaneously": 6541,
      "Ġresults": 6542,
      "TrustScores": 6543,
      "ĠEv": 6544,
      "Ġcertification": 6545,
      "ĠDon": 6546,
      "ITHUB": 6547,
      "CHECKLIST": 6548,
      "ĠMax": 6549,
      "Ġpackets": 6550,
      "ĠConstraints": 6551,
      "ĠOne": 6552,
      "ĠPatch": 6553,
      "otal": 6554,
      "Ġhooks": 6555,
      "alization": 6556,
      "ASON": 6557,
      "ASONING": 6558,
      "NS": 6559,
      "cor": 6560,
      "ĠREADY": 6561,
      "013": 6562,
      "REASONING": 6563,
      "MANTIC": 6564,
      "Ġfetch": 6565,
      "ĠType": 6566,
      "Ġcur": 6567,
      "football": 6568,
      "LLM": 6569,
      "99": 6570,
      "detached": 6571,
      "End": 6572,
      "ĠâĶľ": 6573,
      "docker": 6574,
      "hilosophy": 6575,
      "BENCHMARK": 6576,
      "tpf": 6577,
      "Ġallows": 6578,
      "ocket": 6579,
      "ĠReport": 6580,
      "Phase": 6581,
      "ĠGravity": 6582,
      "ĠWi": 6583,
      "ĠEnough": 6584,
      "cle": 6585,
      "ĠAlways": 6586,
      "Ġserver": 6587,
      "Status": 6588,
      "ĠReplace": 6589,
      "%)": 6590,
      "Ġinstall": 6591,
      "permission": 6592,
      "SECURITY": 6593,
      "IUS": 6594,
      "GENIUS": 6595,
      "COMPLETED": 6596,
      "ĠExecutive": 6597,
      "SS": 6598,
      "ae": 6599,
      "interpreted": 6600,
      "ĠHugging": 6601,
      "Ġqueries": 6602,
      "eature": 6603,
      "ĠSubsystem": 6604,
      "FOR": 6605,
      "Ġusers": 6606,
      "Ġseverity": 6607,
      "ĠFastAPI": 6608,
      "ermin": 6609,
      "unctions": 6610,
      "ĠSome": 6611,
      "ricul": 6612,
      "Ġconst": 6613,
      "ale": 6614,
      "Ġpressures": 6615,
      "bug": 6616,
      "Ġstatic": 6617,
      "Ġretrieval": 6618,
      "ĠDetermin": 6619,
      "Ġproced": 6620,
      "ries": 6621,
      "ariant": 6622,
      "Add": 6623,
      "18": 6624,
      "orator": 6625,
      "ĠCMG": 6626,
      "platform": 6627,
      "eek": 6628,
      "alemb": 6629,
      "alembic": 6630,
      "Ġutil": 6631,
      "ffort": 6632,
      "pi": 6633,
      "ĠACP": 6634,
      "Ġenc": 6635,
      "dataset": 6636,
      "Ġresponsible": 6637,
      "ATEGY": 6638,
      "process": 6639,
      "black": 6640,
      "mutable": 6641,
      "faces": 6642,
      "ĠNext": 6643,
      "TIN": 6644,
      "ĠRequired": 6645,
      "Ġbad": 6646,
      "hole": 6647,
      "Ġflags": 6648,
      "AuditLog": 6649,
      "Ġadmin": 6650,
      "acter": 6651,
      "ĠDec": 6652,
      "git": 6653,
      "reliability": 6654,
      "ĠInheritance": 6655,
      "debugging": 6656,
      "ĠCa": 6657,
      "Ġmoderation": 6658,
      "Ġreceive": 6659,
      "ĠSteps": 6660,
      "aracter": 6661,
      "bine": 6662,
      "timated": 6663,
      "deployment": 6664,
      "mediator": 6665,
      "ĠNuclear": 6666,
      "ĠEffort": 6667,
      "Ġcosts": 6668,
      "arily": 6669,
      "ĠYou": 6670,
      "ĠUR": 6671,
      "Ġconvention": 6672,
      "ĠSSO": 6673,
      "xy": 6674,
      "ĠBody": 6675,
      "Ġassumptions": 6676,
      "Ġdelayed": 6677,
      "ISH": 6678,
      "ĠAISH": 6679,
      "Ġtransitions": 6680,
      "plicit": 6681,
      "Ġdb": 6682,
      "itives": 6683,
      "ĠImport": 6684,
      "quire": 6685,
      "ĠFinance": 6686,
      "intech": 6687,
      "negotiable": 6688,
      "but": 6689,
      "Ġmatch": 6690,
      "chitectural": 6691,
      "oherent": 6692,
      "ĠSystems": 6693,
      "sequence": 6694,
      "ĠTarget": 6695,
      "Ġsuggest": 6696,
      "based": 6697,
      "AINING": 6698,
      "cts": 6699,
      "Ġofficials": 6700,
      "Ġtyp": 6701,
      "eral": 6702,
      "ored": 6703,
      "ĠInteg": 6704,
      "Ġ+--": 6705,
      "doctrine": 6706,
      "ĠArchitectural": 6707,
      "apping": 6708,
      "DEDN": 6709,
      "BOUNDEDN": 6710,
      "BOUNDEDNESS": 6711,
      "Ġtrace": 6712,
      "debug": 6713,
      "Ġreturns": 6714,
      "ĠOAuth": 6715,
      "correct": 6716,
      "Ġbreadcrumb": 6717,
      "ĠEvaluation": 6718,
      "ĠSRE": 6719,
      "TRAINING": 6720,
      "ĠFrontend": 6721,
      "ĠCRE": 6722,
      "ĠCI": 6723,
      "snippet": 6724,
      "2714": 6725,
      "Lo": 6726,
      "cd": 6727,
      "ĠProblem": 6728,
      "plementation": 6729,
      "ĠSuccess": 6730,
      "Ġworkload": 6731,
      "ĠSetup": 6732,
      "Ġdivergence": 6733,
      "Ġfaster": 6734,
      "ĠMapping": 6735,
      "dates": 6736,
      "cb": 6737,
      "history": 6738,
      "feren": 6739,
      "Ġfoundation": 6740,
      "tition": 6741,
      "estamp": 6742,
      "ĠChoo": 6743,
      "Ġupdates": 6744,
      "ĠChoose": 6745,
      "orth": 6746,
      "ĠAPK": 6747,
      "ĠInspect": 6748,
      "Ġdetached": 6749,
      "Ġcra": 6750,
      "Ġcenters": 6751,
      "Ġinherit": 6752,
      "ĠÂ·": 6753,
      "Ġconnect": 6754,
      "De": 6755,
      "ĠProduction": 6756,
      "ĠMIG": 6757,
      "ĠMIGRATION": 6758,
      "ĠOptimization": 6759,
      "appro": 6760,
      "ĠCOMPUTATIONAL": 6761,
      "vanced": 6762,
      "worth": 6763,
      "Ġconfiguration": 6764,
      "Ġorbit": 6765,
      "Ġmembers": 6766,
      "Ġaggre": 6767,
      "useTrust": 6768,
      "Ġleads": 6769,
      "ĠPacket": 6770,
      "can": 6771,
      "amples": 6772,
      "ĠCybernetic": 6773,
      "/,": 6774,
      "ĠExpected": 6775,
      "Location": 6776,
      "Ver": 6777,
      "ĠWire": 6778,
      "Ġsites": 6779,
      "43": 6780,
      "worthy": 6781,
      "COMPUTATIONAL": 6782,
      "EMA": 6783,
      "SCHEMA": 6784,
      "Ġfeatures": 6785,
      "yml": 6786,
      "LETE": 6787,
      "Ġcomponent": 6788,
      "Ġcybernetic": 6789,
      "Ġplt": 6790,
      "RIM": 6791,
      "SSO": 6792,
      "cod": 6793,
      "hand": 6794,
      "route": 6795,
      "ĠSha": 6796,
      "Ġtrained": 6797,
      "Ġexport": 6798,
      "ĠAdded": 6799,
      "Ġfeed": 6800,
      "handler": 6801,
      "En": 6802,
      "gical": 6803,
      "TER": 6804,
      "assumptions": 6805,
      "clean": 6806,
      "Ġfabricates": 6807,
      "ĠDirect": 6808,
      "Ġknowns": 6809,
      "PACKET": 6810,
      "Governed": 6811,
      "cre": 6812,
      "ĠStack": 6813,
      "Ġ.": 6814,
      "hable": 6815,
      "develop": 6816,
      "ĠNam": 6817,
      "Ġmerely": 6818,
      "Ġphysics": 6819,
      "Ġreference": 6820,
      "Ġproof": 6821,
      "Ġexpression": 6822,
      "Test": 6823,
      "Ġlook": 6824,
      "Ġtable": 6825,
      "aceholder": 6826,
      "Ser": 6827,
      "cross": 6828,
      "set": 6829,
      "strap": 6830,
      "ufe": 6831,
      "Ġunit": 6832,
      "ĠMutation": 6833,
      "Ġcoalitions": 6834,
      "table": 6835,
      "ĠDepends": 6836,
      "head": 6837,
      "Ġregistry": 6838,
      "Ġsatisfy": 6839,
      "record": 6840,
      "015": 6841,
      "Ġregister": 6842,
      "ĠSynthesis": 6843,
      "ANIC": 6844,
      "ĠDeep": 6845,
      "ĠStub": 6846,
      "STRATEGY": 6847,
      "center": 6848,
      "ĠComprehensive": 6849,
      "Ġdescribed": 6850,
      "Ġobs": 6851,
      "ĠIssue": 6852,
      "Ġmechan": 6853,
      "Ch": 6854,
      "pr": 6855,
      "scores": 6856,
      "Ġ|--------|": 6857,
      "ĠLines": 6858,
      "Ġanchor": 6859,
      "packet": 6860,
      "ategory": 6861,
      "ĠCompleted": 6862,
      "pril": 6863,
      "vergence": 6864,
      "CS": 6865,
      "/`": 6866,
      "Ġprinciple": 6867,
      "Ġapi": 6868,
      "pus": 6869,
      "08": 6870,
      "ĠIDs": 6871,
      "ĠReady": 6872,
      "/)": 6873,
      "ĠPerson": 6874,
      "efore": 6875,
      "Ġtracking": 6876,
      "agin": 6877,
      "100": 6878,
      "itative": 6879,
      "gime": 6880,
      "Ġapart": 6881,
      "Ġtear": 6882,
      "Ġseveral": 6883,
      "Ġmerge": 6884,
      "Ġcoexistence": 6885,
      "Ġcyclic": 6886,
      "048": 6887,
      "values": 6888,
      "erative": 6889,
      "Ġcyclical": 6890,
      "Ġtemporarily": 6891,
      "Ġobscu": 6892,
      "Ġovervalues": 6893,
      "Ġobscured": 6894,
      "Ġ(+": 6895,
      "ĠPROJECT": 6896,
      "Ġ80": 6897,
      "=<": 6898,
      "Ġworkers": 6899,
      "ĠRules": 6900,
      "37": 6901,
      "Ġpha": 6902,
      "pervis": 6903,
      "ĠTr": 6904,
      "QU": 6905,
      "Ġadap": 6906,
      "Ġemer": 6907,
      "ox": 6908,
      "zen": 6909,
      "*`": 6910,
      "ZATION": 6911,
      "corpus": 6912,
      "Ġautomated": 6913,
      "ĠĠĠĠĠĠĠĠ": 6914,
      "aching": 6915,
      "graph": 6916,
      "Ġexactly": 6917,
      "unknown": 6918,
      "bone": 6919,
      "Ġprom": 6920,
      "ĠPersonality": 6921,
      "inquire": 6922,
      "Ġjob": 6923,
      "Ġside": 6924,
      "Ġcou": 6925,
      "Ġperform": 6926,
      "------|---------|": 6927,
      "pervised": 6928,
      "onical": 6929,
      "ĠEstimated": 6930,
      "Ġguard": 6931,
      "ĠâĨĵ": 6932,
      "ĠResults": 6933,
      "ierarchy": 6934,
      "UDA": 6935,
      "Ġentire": 6936,
      "Ġsearch": 6937,
      "dc": 6938,
      "rets": 6939,
      "abilities": 6940,
      "Ġdocker": 6941,
      "Ġweighted": 6942,
      "Ġledger": 6943,
      "Docs": 6944,
      "coherent": 6945,
      "Ġpermissions": 6946,
      "ĠDeploy": 6947,
      "-------|": 6948,
      "ĠCoverage": 6949,
      "Ġstaging": 6950,
      "0010": 6951,
      "ĠMetrics": 6952,
      "ĠStart": 6953,
      "ripts": 6954,
      "Ġ002": 6955,
      "Ġtone": 6956,
      "Ġinde": 6957,
      "nuclear": 6958,
      "ollision": 6959,
      "orch": 6960,
      "ĠPath": 6961,
      "Ġfilter": 6962,
      "0009": 6963,
      "wner": 6964,
      "Ġlock": 6965,
      "utor": 6966,
      "ots": 6967,
      "Ġdifferenti": 6968,
      "cell": 6969,
      "jor": 6970,
      "Ġport": 6971,
      "Ġdifferentiated": 6972,
      "stead": 6973,
      "ĠChecklist": 6974,
      "ĠvLLM": 6975,
      "ĠSp": 6976,
      "putation": 6977,
      "Ġthose": 6978,
      "CRITICAL": 6979,
      "ĠNATURAL": 6980,
      "Ġdetermin": 6981,
      "Ġet": 6982,
      "ison": 6983,
      "RFC": 6984,
      "Ġcontributor": 6985,
      "Ġstage": 6986,
      "fficiency": 6987,
      "lab": 6988,
      "Next": 6989,
      "ferences": 6990,
      "lines": 6991,
      "Ġacts": 6992,
      "Ġtiming": 6993,
      "ĠResponsible": 6994,
      "SQL": 6995,
      "TrustP": 6996,
      "flag": 6997,
      "parison": 6998,
      "imi": 6999,
      "ĠBackground": 7000,
      "ĠBypass": 7001,
      "45": 7002,
      "Ġdirectory": 7003,
      "Ġpersistence": 7004,
      "ĠOrganization": 7005,
      "ĠModule": 7006,
      "Ġgra": 7007,
      "ĠVariables": 7008,
      "Ġgates": 7009,
      "Ġgrowth": 7010,
      "maint": 7011,
      "8000": 7012,
      "tified": 7013,
      "opy": 7014,
      "Ġupdated": 7015,
      "pressedMemory": 7016,
      "Ġscan": 7017,
      "Ġmajor": 7018,
      "ĠImpact": 7019,
      "pressedMemoryState": 7020,
      "ĠRequirements": 7021,
      "cept": 7022,
      "OW": 7023,
      "261": 7024,
      "Ġlineage": 7025,
      "ĠAccess": 7026,
      "======": 7027,
      "bd": 7028,
      "29": 7029,
      "ĊĠĠ": 7030,
      "ĠWeb": 7031,
      "Ġaverage": 7032,
      "Ġcontainer": 7033,
      "ĠHe": 7034,
      "ifest": 7035,
      "ĠREF": 7036,
      "ĠDoctrine": 7037,
      "ceptive": 7038,
      "stall": 7039,
      "advanced": 7040,
      "integ": 7041,
      "Ġfunctions": 7042,
      "NATURAL": 7043,
      "current": 7044,
      "ĠGB": 7045,
      "rols": 7046,
      "bc": 7047,
      "Ġemitted": 7048,
      "ĠMNS": 7049,
      "Ġincre": 7050,
      "icial": 7051,
      "example": 7052,
      "16": 7053,
      "uine": 7054,
      "chors": 7055,
      "Ġdefines": 7056,
      "STE": 7057,
      "Batch": 7058,
      "recovery": 7059,
      "Ġcontrols": 7060,
      "ĠOnly": 7061,
      "achable": 7062,
      "Ġorchestration": 7063,
      "ĠPUB": 7064,
      "ĠPUBLIC": 7065,
      "nab": 7066,
      "Ġ26": 7067,
      "nabis": 7068,
      "Ġadversarial": 7069,
      "ĠCo": 7070,
      "__": 7071,
      "fficials": 7072,
      "ĠDB": 7073,
      "Ġfine": 7074,
      "Ġai": 7075,
      "arge": 7076,
      "Ġdeveloped": 7077,
      "ĠRegister": 7078,
      "weighted": 7079,
      "machine": 7080,
      "Ġusing": 7081,
      "ĠLimit": 7082,
      "Ġevaluate": 7083,
      "Ġstale": 7084,
      "Ġjudge": 7085,
      "Ġ12": 7086,
      "DATE": 7087,
      "Vulnerabilities": 7088,
      "Target": 7089,
      "ĠSource": 7090,
      "policy": 7091,
      "Ġinvariant": 7092,
      "Ġ|---|---|---|": 7093,
      "ĠâĨĶ": 7094,
      "ĠCES": 7095,
      "ĠVerification": 7096,
      "ĠTrustworthy": 7097,
      "gion": 7098,
      "ĠSur": 7099,
      "config": 7100,
      "ĠDOMAIN": 7101,
      "ape": 7102,
      "Ġhumans": 7103,
      "opology": 7104,
      "ĠBridge": 7105,
      "ĠCompetency": 7106,
      "Ġdeveloper": 7107,
      "ĠREADME": 7108,
      "Service": 7109,
      "PUB": 7110,
      "PUBLIC": 7111,
      "ĠMin": 7112,
      "Ġteaches": 7113,
      "Ġfind": 7114,
      "Ġscoped": 7115,
      "727": 7116,
      "ilience": 7117,
      "Ġcompetency": 7118,
      "ĠGlobal": 7119,
      "Ġconventions": 7120,
      "EST": 7121,
      "pressures": 7122,
      "lu": 7123,
      "supplemental": 7124,
      "basis": 7125,
      "--------|": 7126,
      "Ġgoals": 7127,
      "coded": 7128,
      "sk": 7129,
      "MEANINGFUL": 7130,
      "ĠCost": 7131,
      "ĠModels": 7132,
      "enticated": 7133,
      "arded": 7134,
      "ĠAcknowledge": 7135,
      "Compliance": 7136,
      "edul": 7137,
      "visible": 7138,
      "ĠBe": 7139,
      "bus": 7140,
      "Ġwee": 7141,
      "Ġorder": 7142,
      "redential": 7143,
      "backbone": 7144,
      "Ġmonit": 7145,
      "ĠAuthor": 7146,
      "Ġcodebase": 7147,
      "Ġbrevity": 7148,
      "Ġsolo": 7149,
      "Ġsupplemental": 7150,
      "Combine": 7151,
      "Rebalance": 7152,
      "Ġoverreaching": 7153,
      "Ġseats": 7154,
      "tem": 7155,
      "iding": 7156,
      "Ġnational": 7157,
      "ĠFlag": 7158,
      "tices": 7159,
      "Ġhappens": 7160,
      "Ġcompe": 7161,
      "Ġinteraction": 7162,
      "itial": 7163,
      "Ã¢": 7164,
      "position": 7165,
      "Ġdetects": 7166,
      "Ġforce": 7167,
      "Ġcompet": 7168,
      "ESSION": 7169,
      "entities": 7170,
      "UST": 7171,
      "ticism": 7172,
      "?)": 7173,
      "Endpoints": 7174,
      "Ġ|-----------|": 7175,
      "lens": 7176,
      "IEC": 7177,
      "Ġstat": 7178,
      "ĠExplain": 7179,
      "reli": 7180,
      "dir": 7181,
      "ĠPaths": 7182,
      "ĠCompany": 7183,
      "Ġproperly": 7184,
      "Ġremaining": 7185,
      "epticism": 7186,
      "Ġcompetence": 7187,
      "adaptive": 7188,
      "0007": 7189,
      "versions": 7190,
      "relief": 7191,
      "Ġreconstruct": 7192,
      "ccas": 7193,
      "dain": 7194,
      "aversion": 7195,
      "Ġanger": 7196,
      "pride": 7197,
      "disdain": 7198,
      "skepticism": 7199,
      "Ġtreats": 7200,
      "complete": 7201,
      "Ġdocs": 7202,
      "SPEC": 7203,
      "200": 7204,
      "ograph": 7205,
      "ĠWas": 7206,
      "LOG": 7207,
      "/*`": 7208,
      "-------------|": 7209,
      "Ġappend": 7210,
      "ginx": 7211,
      "ynamics": 7212,
      "],": 7213,
      ">/": 7214,
      "rozen": 7215,
      "Ġ---\"}": 7216,
      "Ġtimeout": 7217,
      "Ġmodules": 7218,
      "2190": 7219,
      "Ġreadiness": 7220,
      "inforcement": 7221,
      "Ġstrategy": 7222,
      "GitHub": 7223,
      "ĠSign": 7224,
      "convergence": 7225,
      "scorer": 7226,
      "ĠLogging": 7227,
      "IF": 7228,
      "AST": 7229,
      "Ġbi": 7230,
      "the": 7231,
      "Ġunderstanding": 7232,
      "Ġviolations": 7233,
      "Ġinstances": 7234,
      "real": 7235,
      "Unclear": 7236,
      "EDI": 7237,
      "domains": 7238,
      "Ġaligned": 7239,
      "ĠMEDI": 7240,
      "ĠRecovery": 7241,
      "ĠMEDIUM": 7242,
      "ĠFollow": 7243,
      "fidelity": 7244,
      "siz": 7245,
      "ryptograph": 7246,
      "OPY": 7247,
      "Ġsnippet": 7248,
      "ĠPriority": 7249,
      "Ġdeep": 7250,
      "build": 7251,
      "uning": 7252,
      "ĠPLAN": 7253,
      "Ġcases": 7254,
      "BREADCRUMB": 7255,
      "Ġfidelity": 7256,
      "Ġ[`": 7257,
      "ĠDel": 7258,
      "ĠHard": 7259,
      "YBERNETIC": 7260,
      "ĠCYBERNETIC": 7261,
      "Ġreliability": 7262,
      "ĠInference": 7263,
      ">`": 7264,
      "Fix": 7265,
      "OPTI": 7266,
      "Can": 7267,
      "Ġcausality": 7268,
      "entropy": 7269,
      "MIZATION": 7270,
      "OPTIMIZATION": 7271,
      "Ġranking": 7272,
      "reen": 7273,
      "Ġevol": 7274,
      "ATCH": 7275,
      "mobile": 7276,
      "Ġextension": 7277,
      "Ġutilization": 7278,
      "Ġsafeguards": 7279,
      "ĠHF": 7280,
      "sust": 7281,
      "ĠInstance": 7282,
      "sustainable": 7283,
      "Ġcollision": 7284,
      "Ġetc": 7285,
      "Ġseconds": 7286,
      "/<": 7287,
      "ĠServices": 7288,
      "Ġfreedom": 7289,
      "ĠAPPRO": 7290,
      "Ġcomputation": 7291,
      "Already": 7292,
      "Option": 7293,
      "ĠCUDA": 7294,
      "ĠMaint": 7295,
      "Ġemb": 7296,
      "logical": 7297,
      "PLAN": 7298,
      "from": 7299,
      "ĠSim": 7300,
      "].": 7301,
      "ĠâĶľâĶĢ": 7302,
      "implementation": 7303,
      "Ġinfluences": 7304,
      "orate": 7305,
      "bf": 7306,
      "BATCH": 7307,
      "PL": 7308,
      "ifies": 7309,
      "ARS": 7310,
      "ĠAtt": 7311,
      "AND": 7312,
      "Ġembed": 7313,
      "VARS": 7314,
      "PASTE": 7315,
      "ledger": 7316,
      "xes": 7317,
      "OF": 7318,
      "Ġ004": 7319,
      "LIT": 7320,
      "sid": 7321,
      "Ġexecutable": 7322,
      "ĠARCHITECTURE": 7323,
      "ĠInstead": 7324,
      "ediation": 7325,
      "SET": 7326,
      "96": 7327,
      "ĠMove": 7328,
      "DEE": 7329,
      "AB": 7330,
      "âķĲâķĲâķĲâķĲâķĲâķĲâķĲâķĲâķĲâķĲâķĲâķĲâķĲâķĲâķĲâķĲ": 7331,
      "ĠGuide": 7332,
      "Ġlearn": 7333,
      "commit": 7334,
      "Ġprim": 7335,
      "Ġactivity": 7336,
      "Ġrefle": 7337,
      "greSQL": 7338,
      "veness": 7339,
      "ĠIM": 7340,
      "ĠAutomated": 7341,
      "RAM": 7342,
      "ĠZ": 7343,
      "ĠPostgreSQL": 7344,
      "Ġmeasures": 7345,
      "Ġdocuments": 7346,
      "Ġ...": 7347,
      "ĠGOVERNANCE": 7348,
      "ĠCannot": 7349,
      "ĠValidates": 7350,
      "ĠGo": 7351,
      "Ġworkloads": 7352,
      "ABLE": 7353,
      "ultivation": 7354,
      "ĠPrac": 7355,
      "Ġstrongly": 7356,
      "ĠExtreme": 7357,
      "Critical": 7358,
      "Ġarchival": 7359,
      "ĠFar": 7360,
      "Ġbreach": 7361,
      "return": 7362,
      "ĠClassification": 7363,
      "ĠIMPLEMENTATION": 7364,
      "ĠSYSTEM": 7365,
      "Ġtouched": 7366,
      "ĠTimeline": 7367,
      "ĠMod": 7368,
      "Mod": 7369,
      "Ġleader": 7370,
      "disc": 7371,
      "Ġque": 7372,
      "TEMPL": 7373,
      "TEMPLATE": 7374,
      "ĠStaging": 7375,
      "Ġcontracts": 7376,
      "LD": 7377,
      "fully": 7378,
      "irectory": 7379,
      "Ġdeterministic": 7380,
      "Ġlin": 7381,
      "adox": 7382,
      "ĠSh": 7383,
      "non": 7384,
      "Ġtypes": 7385,
      "Ġunified": 7386,
      "Ġfailed": 7387,
      "Ġhashes": 7388,
      "Ġarti": 7389,
      "ĠECR": 7390,
      "Ġqueue": 7391,
      "Expected": 7392,
      "ĠSCAL": 7393,
      "Ġviolates": 7394,
      "onomy": 7395,
      "Ġevolution": 7396,
      "ĠTGI": 7397,
      "ĠBuil": 7398,
      "RYP": 7399,
      "udgment": 7400,
      "SETUP": 7401,
      "ĠSCALING": 7402,
      "Ġthere": 7403,
      "Torch": 7404,
      "Ġclarify": 7405,
      "yTorch": 7406,
      "Ġsnapshots": 7407,
      "GITHUB": 7408,
      "Ġable": 7409,
      "Ġgenerated": 7410,
      "==============": 7411,
      "velope": 7412,
      "ea": 7413,
      "ĠSo": 7414,
      "Face": 7415,
      "Ġbackup": 7416,
      "ĠHuggingFace": 7417,
      "imiting": 7418,
      "decorator": 7419,
      "ulates": 7420,
      "06": 7421,
      "aling": 7422,
      "key": 7423,
      "local": 7424,
      "Ġabstra": 7425,
      "lemb": 7426,
      "lembic": 7427,
      "ĠREFACTORING": 7428,
      "ĠUsers": 7429,
      "ĠOverview": 7430,
      "Ġ==============================================================================": 7431,
      "IE": 7432,
      "serv": 7433,
      "ACE": 7434,
      "Conclusion": 7435,
      "sim": 7436,
      "iverables": 7437,
      "'re": 7438,
      "Ġsuccessfully": 7439,
      "aac": 7440,
      "ĠDashboard": 7441,
      "Ġ23": 7442,
      "ĠLanguage": 7443,
      "verbose": 7444,
      "disclosure": 7445,
      "maintainable": 7446,
      "2191": 7447,
      "ĠOption": 7448,
      "multi": 7449,
      "mind": 7450,
      "Ġconstitutional": 7451,
      "imensions": 7452,
      "tigation": 7453,
      "ĠBudget": 7454,
      "Ġintern": 7455,
      "47": 7456,
      "ĠPHASE": 7457,
      "Ġprediction": 7458,
      "Ġensure": 7459,
      "ĠGENIUS": 7460,
      "Ġincreas": 7461,
      "Socket": 7462,
      "AWS": 7463,
      "ĠTables": 7464,
      "Is": 7465,
      "road": 7466,
      "Ġhit": 7467,
      "approve": 7468,
      "Ġdashboards": 7469,
      "Ġdeprec": 7470,
      "let": 7471,
      "Ġlarge": 7472,
      "sovereign": 7473,
      "Ġpack": 7474,
      "ĠFOUNDING": 7475,
      "Ġplain": 7476,
      "CONSTITUTION": 7477,
      "useTrustData": 7478,
      "healing": 7479,
      "Ġgenuine": 7480,
      "ĠWebSocket": 7481,
      "Pl": 7482,
      "ĠHas": 7483,
      "Ġsubsc": 7484,
      "ĠBREADCRUMB": 7485,
      "andid": 7486,
      "Ġsanctions": 7487,
      "Ġbest": 7488,
      "Ġvector": 7489,
      "Ġdoesn": 7490,
      "YY": 7491,
      "Ġstub": 7492,
      "_*": 7493,
      "workforce": 7494,
      "ĠLOW": 7495,
      "Issue": 7496,
      "reakdown": 7497,
      "Class": 7498,
      "ĠStrong": 7499,
      "Ġincreasing": 7500,
      "ĠGates": 7501,
      "ples": 7502,
      "ĠAPIs": 7503,
      "fic": 7504,
      "reason": 7505,
      "Breakdown": 7506,
      ":...": 7507,
      "Ġunderstand": 7508,
      "rates": 7509,
      "progression": 7510,
      "possible": 7511,
      "ĠProgression": 7512,
      "Ġparams": 7513,
      "Vulnerable": 7514,
      "ĠUnsafe": 7515,
      "Ġexamples": 7516,
      "Ġpartition": 7517,
      "ĠBenchmarks": 7518,
      "_*_": 7519,
      "ĠConvention": 7520,
      "Ġlookup": 7521,
      "Ġpurpose": 7522,
      "Ġher": 7523,
      "rysis": 7524,
      "Ġincreasingly": 7525,
      "Ġ|...": 7526,
      "['": 7527,
      "yle": 7528,
      "ological": 7529,
      "Ġ@": 7530,
      "ike": 7531,
      "Ġspec": 7532,
      "refs": 7533,
      "ĠDeterministic": 7534,
      "Ġtruthfulness": 7535,
      "Ġworker": 7536,
      "Ġ\"}": 7537,
      "adversarial": 7538,
      "00084": 7539,
      "lice": 7540,
      "ie": 7541,
      "rength": 7542,
      "label": 7543,
      "Ġgate": 7544,
      "Ġresilience": 7545,
      "split": 7546,
      "mini": 7547,
      "ĠCAN": 7548,
      "ORGANIC": 7549,
      "Ġcoding": 7550,
      "Mo": 7551,
      "Ġparameters": 7552,
      "0011": 7553,
      "ulty": 7554,
      "Ġcalc": 7555,
      "41": 7556,
      "ĠðŁĵ": 7557,
      "ĠFil": 7558,
      "ficulty": 7559,
      "ĠExport": 7560,
      "napshot": 7561,
      "ambig": 7562,
      "ba": 7563,
      "Ġmonitoring": 7564,
      "ĠCal": 7565,
      "forces": 7566,
      "execute": 7567,
      "lot": 7568,
      "Ġpages": 7569,
      "Ġraw": 7570,
      "topology": 7571,
      "sistency": 7572,
      "Model": 7573,
      "ĠWeek": 7574,
      "0001": 7575,
      "udf": 7576,
      "gravity": 7577,
      "Ġalerts": 7578,
      "ĠExplicit": 7579,
      "NF": 7580,
      "imal": 7581,
      "}/": 7582,
      "PROJECT": 7583,
      "Ġ\\\"\\\"": 7584,
      "Student": 7585,
      "stub": 7586,
      "Ġcausal": 7587,
      "Ġlaws": 7588,
      "Ġ`--": 7589,
      "023": 7590,
      "ĠPast": 7591,
      "Ġspot": 7592,
      "Ġstats": 7593,
      "ulated": 7594,
      "Ġpython": 7595,
      "parent": 7596,
      "Ġtraceable": 7597,
      "caling": 7598,
      "Ġindustry": 7599,
      "Ġmodulation": 7600,
      "ĠLens": 7601,
      "Ġcached": 7602,
      "Ġhardcoded": 7603,
      "Ġcanonical": 7604,
      "32": 7605,
      "Ġcomputed": 7606,
      "inition": 7607,
      "Ġwant": 7608,
      "aintext": 7609,
      "Ġspace": 7610,
      "Ġimple": 7611,
      "Ġtemporal": 7612,
      "Ġsemantics": 7613,
      "Ġpage": 7614,
      "Ġide": 7615,
      "Ġplaintext": 7616,
      "ĠSurfaces": 7617,
      "isms": 7618,
      "Back": 7619,
      "Ġsimilarity": 7620,
      "Ġdiscarded": 7621,
      "developer": 7622,
      "scan": 7623,
      "ĠTruth": 7624,
      "eatures": 7625,
      "enance": 7626,
      "ath": 7627,
      "ising": 7628,
      "KB": 7629,
      "uristic": 7630,
      "012": 7631,
      "iversal": 7632,
      "atac": 7633,
      "headers": 7634,
      "Backend": 7635,
      "Ġshift": 7636,
      "Dep": 7637,
      "regOS": 7638,
      "endum": 7639,
      "deploy": 7640,
      "sider": 7641,
      "ĠInput": 7642,
      "Ġhierarchy": 7643,
      "Ġenvironments": 7644,
      "Ġcontribution": 7645,
      "ffic": 7646,
      "ĠNeu": 7647,
      "erm": 7648,
      "ĠSch": 7649,
      "FOUNDING": 7650,
      "âĶĢâĶĢâĶĢâĶĢâĶĢâĶĢâĶĢâĶĢâĶĢâĶĢâĶĢâĶĢâĶĢâĶĢâĶĢâĶĢâĶĢâĶĢâĶĢâĶĢâĶĢâĶĢâĶĢâĶĢâĶĢâĶĢâĶĢâĶĢâĶĢâĶĢâĶĢâĶĢ": 7651,
      "Ġunauth": 7652,
      "Ġenables": 7653,
      "Ġimprove": 7654,
      "April": 7655,
      "Ġminutes": 7656,
      "sizes": 7657,
      "interface": 7658,
      "Addendum": 7659,
      "scoped": 7660,
      "events": 7661,
      "Ġshared": 7662,
      "Ġ04": 7663,
      "ĠHTTPS": 7664,
      "Ġnginx": 7665,
      "pted": 7666,
      "Ġanchors": 7667,
      "Ġprocedures": 7668,
      "ently": 7669,
      "fcf": 7670,
      "aract": 7671,
      "aracters": 7672,
      "623": 7673,
      "Ġ18": 7674,
      "How": 7675,
      "Ġbl": 7676,
      "ĠAssessment": 7677,
      "bles": 7678,
      "://": 7679,
      "Ġreads": 7680,
      "Ġdynamics": 7681,
      "roubles": 7682,
      "roublesh": 7683,
      "Ġdistribution": 7684,
      "Ġthermodynamic": 7685,
      "ĠReact": 7686,
      "ooting": 7687,
      "roubleshooting": 7688,
      "ticle": 7689,
      "aaf": 7690,
      "aacc": 7691,
      "cover": 7692,
      "Ġpromo": 7693,
      "Ġconsistent": 7694,
      "ars": 7695,
      "38": 7696,
      "Ġwide": 7697,
      "5013": 7698,
      "hysical": 7699,
      "gra": 7700,
      "ĠDetection": 7701,
      "ĠLocation": 7702,
      "tainer": 7703,
      "ĠMonitoring": 7704,
      "Deployment": 7705,
      "ĠTroubleshooting": 7706,
      "ootstrap": 7707,
      "ĠSprint": 7708,
      "ĠNeuro": 7709,
      "consequence": 7710,
      "Ġ16": 7711,
      "ĠSE": 7712,
      "bits": 7713,
      "Ġloading": 7714,
      "Ġdataset": 7715,
      "AIFamily": 7716,
      "DAT": 7717,
      "ĠðŁĵĭ": 7718,
      "0006": 7719,
      "Ġregion": 7720,
      "bound": 7721,
      "rew": 7722,
      "Ġstar": 7723,
      "ĠThermodynamic": 7724,
      "ĠNeurological": 7725,
      "ĠPlan": 7726,
      "Ġpredic": 7727,
      "sibilities": 7728,
      "ĠArticle": 7729,
      "ĠSen": 7730,
      "Ġstored": 7731,
      "REFACTORING": 7732,
      "Modules": 7733,
      "UC": 7734,
      "ĠTO": 7735,
      "ĠFuture": 7736,
      "ĠApplication": 7737,
      "inst": 7738,
      "[\\\"": 7739,
      "ĠVRAM": 7740,
      "Ġoverdevelop": 7741,
      "tine": 7742,
      "ĠResult": 7743,
      "ĠHuman": 7744,
      "Ġcontributed": 7745,
      "ĠControl": 7746,
      "anel": 7747,
      "Ġartifact": 7748,
      "Ġextra": 7749,
      "Ġchains": 7750,
      "ĠCONSTITUTION": 7751,
      "Ġ003": 7752,
      "ĠREMEDIATION": 7753,
      "ĠJudgment": 7754,
      "Ġleaderboard": 7755,
      "ĠFargate": 7756,
      "ĠSEMANTIC": 7757,
      "ĠAfter": 7758,
      "Ġlater": 7759,
      "ĠRest": 7760,
      "ial": 7761,
      "Ġpresence": 7762,
      "Ġanaly": 7763,
      "ĠPhysical": 7764,
      "Ġregression": 7765,
      "Ġsumm": 7766,
      "Ġmor": 7767,
      "tuning": 7768,
      "ĠLine": 7769,
      "TC": 7770,
      "ĠModified": 7771,
      "oth": 7772,
      "Ġrepeated": 7773,
      "Ġprimitives": 7774,
      "Ġlack": 7775,
      "ĠCREATE": 7776,
      "ĠHealth": 7777,
      "opes": 7778,
      "Ġintegrated": 7779,
      "Ġrouting": 7780,
      "Ġclusters": 7781,
      "Ġviewer": 7782,
      "Owner": 7783,
      "ĠConfig": 7784,
      "ĠMB": 7785,
      "Ġextraction": 7786,
      "Ġroutine": 7787,
      "deceptive": 7788,
      "ĠFlas": 7789,
      "ĠFlask": 7790,
      "Ġachi": 7791,
      "riculum": 7792,
      "Ġintended": 7793,
      "KEN": 7794,
      "ĠRecommended": 7795,
      "ĠRestart": 7796,
      "ĠSovereign": 7797,
      "ĠFeature": 7798,
      "proxy": 7799,
      "Example": 7800,
      "ĠEvents": 7801,
      "Ġcoupl": 7802,
      "Ġ\\\"...": 7803,
      "Ġviolation": 7804,
      "ĠLow": 7805,
      "ĠALL": 7806,
      "Ġgpu": 7807,
      "ĠSec": 7808,
      "summary": 7809,
      "ICTION": 7810,
      "come": 7811,
      "Ġdefined": 7812,
      "Ġcontinuous": 7813,
      "Over": 7814,
      "TOKEN": 7815,
      "00073": 7816,
      "ĠFixes": 7817,
      "Ġturns": 7818,
      "ĠEvalu": 7819,
      "layer": 7820,
      "Ġjurisdictions": 7821,
      "Ġhelpers": 7822,
      "ĠContra": 7823,
      "IELD": 7824,
      "ĠURL": 7825,
      "Ġmess": 7826,
      "Ġanything": 7827,
      "Ġcategory": 7828,
      "LI": 7829,
      "Ġglobal": 7830,
      "2610": 7831,
      "Ġverbose": 7832,
      "ricing": 7833,
      "ĠON": 7834,
      "ĠSUMMARY": 7835,
      "ĠðŁĶ": 7836,
      "osm": 7837,
      "Ġcommands": 7838,
      "Ġreflex": 7839,
      "Ġauto": 7840,
      "Ġrep": 7841,
      "060": 7842,
      "Ġindexes": 7843,
      "ĊĠ": 7844,
      "ĠCosm": 7845,
      "Ġemergence": 7846,
      "Le": 7847,
      "Ġbenchmarks": 7848,
      "'ve": 7849,
      "Ġ`_": 7850,
      "Ġmain": 7851,
      "250": 7852,
      "Ġsets": 7853,
      "Ġ95": 7854,
      "ĠRef": 7855,
      "REMEDIATION": 7856,
      "Ġsing": 7857,
      "Ġanti": 7858,
      "grade": 7859,
      "Ġunre": 7860,
      "ĠEX": 7861,
      "ĠResolution": 7862,
      "plate": 7863,
      "Level": 7864,
      "contradiction": 7865,
      "ĠSchema": 7866,
      "ĠManual": 7867,
      "compose": 7868,
      "ĠCompute": 7869,
      "refore": 7870,
      "Ġhelpful": 7871,
      "Overview": 7872,
      "ager": 7873,
      "Ġarticulation": 7874,
      "Ġ(\\\"": 7875,
      "registry": 7876,
      "TING": 7877,
      "Ġcompletely": 7878,
      "Ġphased": 7879,
      "Ġfinance": 7880,
      "ĠINTE": 7881,
      "Ġdemands": 7882,
      "Ġlives": 7883,
      "Ġreturning": 7884,
      "Ġunreachable": 7885,
      "Ġefficiency": 7886,
      "Ġsnapshot": 7887,
      "Ġfeedback": 7888,
      "Ġmethods": 7889,
      "ife": 7890,
      "ĠVite": 7891,
      "Ġ`@": 7892,
      "ĠPyTorch": 7893,
      "ĠExecute": 7894,
      "ĠCall": 7895,
      "document": 7896,
      "00053": 7897,
      "Ġsecret": 7898,
      "posed": 7899,
      "ĠCorrect": 7900,
      "Ġobject": 7901,
      "0012": 7902,
      "Ġsizes": 7903,
      "ĠCorrection": 7904,
      "206": 7905,
      "Ġspe": 7906,
      "Ġregime": 7907,
      "Ġcraw": 7908,
      "ICAL": 7909,
      "\\\")": 7910,
      "Ġinternally": 7911,
      "ĠLogs": 7912,
      "Ġphilosophy": 7913,
      "ĠNotes": 7914,
      "chem": 7915,
      "ĠTrain": 7916,
      "Ġruns": 7917,
      "(\\\"": 7918,
      "ĠGenerated": 7919,
      "chemy": 7920,
      "entral": 7921,
      "NC": 7922,
      "Ġ1000": 7923,
      "ĠPhilosophy": 7924,
      "ĠFoundation": 7925,
      "Ġensures": 7926,
      "Ġecology": 7927,
      "unk": 7928,
      "ĠRecommendation": 7929,
      "ĠPrimary": 7930,
      "ĠStrategy": 7931,
      "ĠManager": 7932,
      "Ġcollab": 7933,
      "Ġmock": 7934,
      "Ġbroad": 7935,
      "Ġfiltering": 7936,
      "col": 7937,
      "Ġabstraction": 7938,
      "Ġclearly": 7939,
      "Ġinstitutions": 7940,
      "Ġorganizations": 7941,
      "Up": 7942,
      "ĠProp": 7943,
      "ĠGaps": 7944,
      "ĠBuilt": 7945,
      "omation": 7946,
      "extreme": 7947,
      "ĠDAT": 7948,
      "iteral": 7949,
      "rift": 7950,
      "Ġdign": 7951,
      "Ġbeha": 7952,
      "ĠPlane": 7953,
      "vg": 7954,
      "onomous": 7955,
      "ĠBefore": 7956,
      "ĠAsk": 7957,
      "Ġresponses": 7958,
      "Ġspeak": 7959,
      "abuse": 7960,
      "ĠAppend": 7961,
      "Ġdignity": 7962,
      "/`,": 7963,
      "Ġemit": 7964,
      "):**": 7965,
      "Ġmas": 7966,
      "98": 7967,
      "backed": 7968,
      "loc": 7969,
      "Classroom": 7970,
      "Ġmassive": 7971,
      "Ġmutually": 7972,
      "streams": 7973,
      "ĠNaming": 7974,
      "XX": 7975,
      "131": 7976,
      "ĠMitigation": 7977,
      "Ġschedul": 7978,
      "Problem": 7979,
      "Ġsovereignty": 7980,
      "Ġplaceholder": 7981,
      "compl": 7982,
      "imum": 7983,
      "cid": 7984,
      "redentials": 7985,
      "Update": 7986,
      "ĠAvg": 7987,
      "ĠSolution": 7988,
      "ML": 7989,
      "Ġcurl": 7990,
      "requirements": 7991,
      "Intelligence": 7992,
      "Ġmap": 7993,
      "Ġtarge": 7994,
      "Ġforge": 7995,
      "lucid": 7996,
      "ĠMark": 7997,
      "ĠConnection": 7998,
      "ĠAnalysis": 7999,
      "Ġexcell": 8000,
      "984": 8001,
      "SEMANTIC": 8002,
      "COMP": 8003,
      "Expression": 8004,
      "274": 8005,
      "ividual": 8006,
      "2265": 8007,
      "fo": 8008,
      "Ġnuclear": 8009,
      "Ġecho": 8010,
      "Ġimmutable": 8011,
      "ĠLoc": 8012,
      "output": 8013,
      "Ġregulators": 8014,
      "âľ": 8015,
      "rw": 8016,
      "Ġassign": 8017,
      "splits": 8018,
      "Run": 8019,
      "9847": 8020,
      "Ġtargets": 8021,
      "/](": 8022,
      "ĠIndividual": 8023,
      "Ġmist": 8024,
      "DELETE": 8025,
      "factoring": 8026,
      "module": 8027,
      "Ġinstaller": 8028,
      "ĠShared": 8029,
      "candid": 8030,
      "Ġviews": 8031,
      "Ġtransport": 8032,
      "Evaluation": 8033,
      "ription": 8034,
      "Ġemits": 8035,
      "AF": 8036,
      "alerts": 8037,
      "4000": 8038,
      "CYBERNETIC": 8039,
      "ĠImmutable": 8040,
      "ĠFace": 8041,
      "0394": 8042,
      "49": 8043,
      "\\\"]": 8044,
      "fd": 8045,
      "NO": 8046,
      "fficial": 8047,
      "Ġcluster": 8048,
      "014": 8049,
      "ĠStream": 8050,
      "agination": 8051,
      "asy": 8052,
      "tests": 8053,
      "Ġengines": 8054,
      "ĠExtended": 8055,
      "Ġconfigured": 8056,
      "Feature": 8057,
      "ĠLike": 8058,
      "CD": 8059,
      "Ġapplicable": 8060,
      "52": 8061,
      "Ġescape": 8062,
      "Ġstates": 8063,
      "aut": 8064,
      "category": 8065,
      "TERN": 8066,
      "Storage": 8067,
      "AS": 8068,
      "Ġconcurrent": 8069,
      "ertification": 8070,
      "Ġ|---------|": 8071,
      "UTE": 8072,
      "transition": 8073,
      "Gpu": 8074,
      "rocal": 8075,
      "ĠâľĶ": 8076,
      "adata": 8077,
      "Bank": 8078,
      "()`,": 8079,
      "agent": 8080,
      "ĠYear": 8081,
      "Ġbank": 8082,
      "Source": 8083,
      "ĠRecogn": 8084,
      "riculture": 8085,
      "target": 8086,
      "ITE": 8087,
      "ĠHooks": 8088,
      "Ġconstants": 8089,
      "TTERN": 8090,
      "PATTERN": 8091,
      "LOGGING": 8092,
      "CMG": 8093,
      "Ġmarket": 8094,
      "/...": 8095,
      "Ġinitial": 8096,
      "web": 8097,
      "Analysis": 8098,
      "ĠRecognize": 8099,
      "008": 8100,
      "pine": 8101,
      "Ġunauthenticated": 8102,
      "ender": 8103,
      "ĠCase": 8104,
      "ĠCompressedMemoryState": 8105,
      "olocation": 8106,
      "EWOL": 8107,
      "ĠCS": 8108,
      "ĠBusiness": 8109,
      "cycle": 8110,
      "pture": 8111,
      "ĊĠĠĠ": 8112,
      "ĠCGE": 8113,
      "Ġge": 8114,
      "bed": 8115,
      "ĠCSV": 8116,
      "Ġ19": 8117,
      "Ġmetadata": 8118,
      "deny": 8119,
      "ĠFreedom": 8120,
      "agriculture": 8121,
      "rules": 8122,
      "Ġcount": 8123,
      "isation": 8124,
      "Scaling": 8125,
      "ĠScores": 8126,
      "CONTIN": 8127,
      "onym": 8128,
      "Ġcomplexity": 8129,
      "Ġaggregation": 8130,
      "CONTINUATION": 8131,
      "97": 8132,
      "udfe": 8133,
      "Ġdecor": 8134,
      "Ġrupture": 8135,
      "Ġtraceability": 8136,
      "990": 8137,
      "Ġ}": 8138,
      "osition": 8139,
      "Ġ-...": 8140,
      "51": 8141,
      "Ġunique": 8142,
      "ĠBehavior": 8143,
      "ĠExamples": 8144,
      "atmap": 8145,
      "Ġweeks": 8146,
      "Ġanonym": 8147,
      "=\\\"": 8148,
      "Ġguid": 8149,
      "00115": 8150,
      "ĠIsol": 8151,
      "orized": 8152,
      "Ġcompromised": 8153,
      "Ġanonymous": 8154,
      "generate": 8155,
      "SCALING": 8156,
      "âľħ": 8157,
      "archive": 8158,
      "NTY": 8159,
      "ndom": 8160,
      "plot": 8161,
      "ataclass": 8162,
      "Ġguidance": 8163,
      "ems": 8164,
      "ĠContin": 8165,
      "33": 8166,
      "Ġmechanisms": 8167,
      "ERAL": 8168,
      "ense": 8169,
      "HOR": 8170,
      "Ġmanager": 8171,
      "ĠTrustState": 8172,
      "ĠPersistence": 8173,
      "tlement": 8174,
      "Ġofficial": 8175,
      "Ġing": 8176,
      "Ġheuristic": 8177,
      "TAP": 8178,
      "METAP": 8179,
      "METAPHOR": 8180,
      "Ġinstability": 8181,
      "ERING": 8182,
      "ENGINEERING": 8183,
      "LITERAL": 8184,
      "May": 8185,
      "ĠLedger": 8186,
      "particle": 8187,
      "070": 8188,
      "synthesis": 8189,
      "hemas": 8190,
      "biter": 8191,
      "ifor": 8192,
      "Ġintellig": 8193,
      "Ġnodes": 8194,
      "024": 8195,
      "benchmarks": 8196,
      "Ar": 8197,
      "00011": 8198,
      "mune": 8199,
      "Ġsamples": 8200,
      "ĠIncludes": 8201,
      "nia": 8202,
      "rity": 8203,
      "ifornia": 8204,
      "Ġbecoming": 8205,
      "DM": 8206,
      "Optional": 8207,
      "items": 8208,
      "ĠNow": 8209,
      "feree": 8210,
      "Ġquanti": 8211,
      "gether": 8212,
      "ĠUS": 8213,
      "PAR": 8214,
      ".)": 8215,
      "HIGH": 8216,
      "dent": 8217,
      "lick": 8218,
      "Ġagents": 8219,
      "Ġfunctional": 8220,
      "available": 8221,
      "Ġprocedure": 8222,
      "Ġentropy": 8223,
      "FS": 8224,
      "referee": 8225,
      "ĠTenant": 8226,
      "âĢĵ": 8227,
      "Def": 8228,
      "ĠMea": 8229,
      "Ġtested": 8230,
      "LS": 8231,
      "oment": 8232,
      "063": 8233,
      "For": 8234,
      "Use": 8235,
      "Ġslow": 8236,
      "ĠURDM": 8237,
      "Ġidea": 8238,
      "Pres": 8239,
      "inding": 8240,
      "Ġus": 8241,
      "Ġunits": 8242,
      "reening": 8243,
      "Ġfrequ": 8244,
      "Ġtimestamp": 8245,
      "ĠCopy": 8246,
      "ALLE": 8247,
      "lar": 8248,
      "PARALLE": 8249,
      "Ġcaller": 8250,
      "INORGANIC": 8251,
      "Ġcaus": 8252,
      "PARALLELS": 8253,
      "ĠIndustry": 8254,
      "Gener": 8255,
      "ĠAgent": 8256,
      "')": 8257,
      "Ġgraphs": 8258,
      "zation": 8259,
      "ĠDif": 8260,
      "pti": 8261,
      "ANTI": 8262,
      "rings": 8263,
      "Ġquantization": 8264,
      "ĠDependencies": 8265,
      "Imp": 8266,
      "tings": 8267,
      "useArchitecture": 8268,
      "useArchitectureModules": 8269,
      "ĠNEW": 8270,
      "ĠCausality": 8271,
      "ĠRecording": 8272,
      "Ġrepetition": 8273,
      "DUC": 8274,
      "Impact": 8275,
      "Ġfrequency": 8276,
      "¸ı": 8277,
      "ï¸ı": 8278,
      "ĠPRODUC": 8279,
      "ĠQuestion": 8280,
      "EY": 8281,
      "ĠTerm": 8282,
      "Ġ350": 8283,
      "ĠPRODUCTION": 8284,
      "tt": 8285,
      "ĠCausal": 8286,
      "Every": 8287,
      "ĠMath": 8288,
      "tatic": 8289,
      "ĠArtif": 8290,
      "supervised": 8291,
      "ECS": 8292,
      "Ġdatetime": 8293,
      "Ġweighting": 8294,
      "ZE": 8295,
      "Ġless": 8296,
      "Side": 8297,
      "ished": 8298,
      "Ġpassing": 8299,
      "Ġdoct": 8300,
      "Ġpresses": 8301,
      "gies": 8302,
      "Ġoverdeveloping": 8303,
      "Ġbias": 8304,
      "ĠCharacters": 8305,
      "ttps": 8306,
      "lib": 8307,
      "ĠComparison": 8308,
      "Ġ0015": 8309,
      "ĠIndexes": 8310,
      "quilibrium": 8311,
      "ĠUnsupervised": 8312,
      "ĠÃ": 8313,
      "ĠTotal": 8314,
      "poral": 8315,
      "ĠDecision": 8316,
      "265": 8317,
      "Ġsecrets": 8318,
      "ĠNF": 8319,
      "Ġmoral": 8320,
      "Ġdoctorate": 8321,
      "Ġstream": 8322,
      "ifi": 8323,
      "Ġnations": 8324,
      "Ġproposes": 8325,
      "ĠJus": 8326,
      "Ġeverything": 8327,
      "atal": 8328,
      "Ġfam": 8329,
      "istics": 8330,
      "Ġintention": 8331,
      "ocus": 8332,
      "Ġ(\\": 8333,
      "Ġpromotion": 8334,
      "rimitives": 8335,
      "ĠChain": 8336,
      "ĠUTC": 8337,
      "ĠArtificial": 8338,
      "Session": 8339,
      "Ġdevelopers": 8340,
      "used": 8341,
      "cdca": 8342,
      "ĠReferences": 8343,
      "ĠRT": 8344,
      "ĠSESSION": 8345,
      "ĠUP": 8346,
      "Ġbreakdown": 8347,
      "aracteristics": 8348,
      "Ġerasure": 8349,
      "Ġmind": 8350,
      "Be": 8351,
      "ĠPrimitives": 8352,
      "Ġunderstands": 8353,
      "ĠCaching": 8354,
      "ĠDecay": 8355,
      "enced": 8356,
      "Ġencryption": 8357,
      "Ġactivate": 8358,
      "Ġlose": 8359,
      "RYPTION": 8360,
      "ĠJustify": 8361,
      "Ġtraffic": 8362,
      "ĠUPDATE": 8363,
      "ĠGeneralization": 8364,
      "hance": 8365,
      "ĠRel": 8366,
      "ĠFeatures": 8367,
      "Ġ25": 8368,
      "ĠEvolution": 8369,
      "EX": 8370,
      "ensor": 8371,
      ".\\": 8372,
      "Ġthresholds": 8373,
      "ĠFIELD": 8374,
      "ĠDELETE": 8375,
      "ĠToo": 8376,
      "post": 8377,
      "Live": 8378,
      "ĠAppro": 8379,
      "Ġsilently": 8380,
      "month": 8381,
      "Ġflows": 8382,
      "`](": 8383,
      "brid": 8384,
      "ĠCapabilities": 8385,
      "Ġachie": 8386,
      "Ġsyn": 8387,
      "Ġselfish": 8388,
      "Ġevolve": 8389,
      "ĠTerms": 8390,
      "sub": 8391,
      "Ġsensitive": 8392,
      "ĠInt": 8393,
      "ĠCollision": 8394,
      "ĠUnique": 8395,
      "Ġclassification": 8396,
      "ĠItem": 8397,
      "ĠUses": 8398,
      "07": 8399,
      "ĠRTX": 8400,
      "ART": 8401,
      "rage": 8402,
      "Ġ`./": 8403,
      "ĠOff": 8404,
      "ĠFocus": 8405,
      "Ġcounts": 8406,
      "Ġblocking": 8407,
      "ĠInde": 8408,
      "Used": 8409,
      "ĠDefine": 8410,
      "Characteristics": 8411,
      "ĠCOPY": 8412,
      "ĠRegul": 8413,
      "Ġ[\\\"": 8414,
      "Ġintentionally": 8415,
      "QUANTI": 8416,
      "QUANTIZE": 8417,
      "vous": 8418,
      "Slice": 8419,
      "ĠRunning": 8420,
      "ĠKV": 8421,
      "ict": 8422,
      "ĠMake": 8423,
      "ĠIndependent": 8424,
      "ĠConclusion": 8425,
      "Ġembedded": 8426,
      "ĠRew": 8427,
      "instances": 8428,
      "ĠEvaluate": 8429,
      "ĠPractices": 8430,
      "Ġmechanism": 8431,
      "ĠCODE": 8432,
      "mbig": 8433,
      "mbiguous": 8434,
      "Ġday": 8435,
      "ĠARAI": 8436,
      "Ġcapabilities": 8437,
      "ecured": 8438,
      "Ġthinks": 8439,
      "Ġscopes": 8440,
      "006": 8441,
      "anctions": 8442,
      "gations": 8443,
      "Ġgit": 8444,
      "ĠGoal": 8445,
      "Ġcounter": 8446,
      "DOC": 8447,
      "Ġsecured": 8448,
      "Ġdeeply": 8449,
      "integration": 8450,
      "Ġarchive": 8451,
      "Ġachieves": 8452,
      "Ġnode": 8453,
      "Ġsessions": 8454,
      "Ġdeployed": 8455,
      "RIF": 8456,
      "Ġhost": 8457,
      "adder": 8458,
      "Ġstops": 8459,
      "Ġmanifest": 8460,
      "ĠInterpretation": 8461,
      "Ġexha": 8462,
      "Files": 8463,
      "ĠGITHUB": 8464,
      "Ġserve": 8465,
      "ĠSupport": 8466,
      "officials": 8467,
      "collision": 8468,
      "countability": 8469,
      "Ġformation": 8470,
      "flush": 8471,
      "imize": 8472,
      "ĠCoun": 8473,
      "QLA": 8474,
      "lchemy": 8475,
      "Ġune": 8476,
      "QLAlchemy": 8477,
      "Ġfriction": 8478,
      "ĠSensitive": 8479,
      "ĠSQLAlchemy": 8480,
      "ĠDrift": 8481,
      "Ġstarts": 8482,
      "itigations": 8483,
      "tenant": 8484,
      "Ġtimeouts": 8485,
      "ĠFallback": 8486,
      "44": 8487,
      "APPRO": 8488,
      "Ġleak": 8489,
      "Ġrouted": 8490,
      "aults": 8491,
      "Ġplainly": 8492,
      "ĠDO": 8493,
      "Ġnothing": 8494,
      "Ġcollecting": 8495,
      "ĠFailed": 8496,
      "-----------|": 8497,
      "Ġcrash": 8498,
      "ĠVariant": 8499,
      "ĠWorks": 8500,
      "repo": 8501,
      "ĠYet": 8502,
      "Ġmissed": 8503,
      "Week": 8504,
      "Ġmath": 8505,
      "ĠShould": 8506,
      "Ġmix": 8507,
      "ĠSecrets": 8508,
      "Ġrolled": 8509,
      "ĠCLA": 8510,
      "Ġtraces": 8511,
      "ĠCLARIF": 8512,
      "Ġcompose": 8513,
      "ĠCLARIFY": 8514,
      "riteria": 8515,
      "Ġpi": 8516,
      "ĠBreadcrumb": 8517,
      "Ġexecutes": 8518,
      "Ġfrust": 8519,
      "Ġcoupling": 8520,
      "APPROVAL": 8521,
      "ĠBenchmarking": 8522,
      "CPU": 8523,
      "Ġsubscrib": 8524,
      "gates": 8525,
      "aude": 8526,
      "lasses": 8527,
      "Ġsubject": 8528,
      "Ġsummar": 8529,
      "Ġadapter": 8530,
      "Ġ\\\"\\\"\\\"": 8531,
      "fallback": 8532,
      "ĠRemediation": 8533,
      "\\\"],": 8534,
      "ĠBase": 8535,
      "ĠORG": 8536,
      "ĠGra": 8537,
      "Ġversioning": 8538,
      "socket": 8539,
      "ĠGenerate": 8540,
      "hardening": 8541,
      "ĠPull": 8542,
      "Ġsolving": 8543,
      "ĠConsensus": 8544,
      "ĠCosmological": 8545,
      "Ġlimiting": 8546,
      "ĠFunction": 8547,
      "Ġfrustrated": 8548,
      "ĠBENCHMARK": 8549,
      "Ġtext": 8550,
      "ĠDisc": 8551,
      "NOT": 8552,
      "Ġcapable": 8553,
      "ĠDual": 8554,
      "buil": 8555,
      "rewall": 8556,
      "Ġexplains": 8557,
      "ĠLive": 8558,
      "ĠInterface": 8559,
      "ritten": 8560,
      "Ġpure": 8561,
      "Ġenforces": 8562,
      "itor": 8563,
      "ĠBus": 8564,
      "ĠRegistry": 8565,
      "ĠSECTION": 8566,
      "Valid": 8567,
      "ĠTER": 8568,
      "ĠTERMS": 8569,
      "Ġsimp": 8570,
      "ĠClaude": 8571,
      "ĠSovereignty": 8572,
      "Ġmanaging": 8573,
      "021": 8574,
      "ĠStudents": 8575,
      "Ġsingular": 8576,
      "Ġconcept": 8577,
      "Ġfirewall": 8578,
      "ĠCounter": 8579,
      "tage": 8580,
      "Perspective": 8581,
      "ĠðŁĶį": 8582,
      "CRE": 8583,
      "Ġtemplate": 8584,
      "AK": 8585,
      "ĠDrop": 8586,
      "Ġdenied": 8587,
      "Ġoverall": 8588,
      "Ġjustified": 8589,
      "Ġautomation": 8590,
      "ĠCause": 8591,
      "Ġadaptive": 8592,
      "Ġexhaus": 8593,
      "Ġtrying": 8594,
      "Common": 8595,
      "ĠAlembic": 8596,
      "ĠDeterminism": 8597,
      "Ġbloc": 8598,
      "ĠRB": 8599,
      "Ġtur": 8600,
      "ĠRES": 8601,
      "Ġcontexts": 8602,
      "Ġcategories": 8603,
      "Ġsubscribes": 8604,
      "Ġdum": 8605,
      "Ġcomfort": 8606,
      "Ġevaluator": 8607,
      "Gravity": 8608,
      "Ġlitigation": 8609,
      "Ġpropag": 8610,
      "Ġgrounded": 8611,
      "/.": 8612,
      "ĠDependency": 8613,
      "EAK": 8614,
      "ched": 8615,
      "tit": 8616,
      "Ġsoci": 8617,
      "Ġsynthes": 8618,
      "ĠRBH": 8619,
      "gered": 8620,
      "Ġreinterpretation": 8621,
      "ĠRunner": 8622,
      "ĠNames": 8623,
      "CREATE": 8624,
      "iggered": 8625,
      "Ġmanual": 8626,
      "ĠReturn": 8627,
      "Ġselective": 8628,
      "ĠDirectory": 8629,
      "Ġtopology": 8630,
      "Task": 8631,
      "Ġinstal": 8632,
      "Ġscheduled": 8633,
      "Ġtherefore": 8634,
      "results": 8635,
      "Stream": 8636,
      "ĠâĨĲ": 8637,
      "ĠLimitation": 8638,
      "ports": 8639,
      "Ġinspect": 8640,
      "Semantic": 8641,
      "Ġfeel": 8642,
      "Ġpris": 8643,
      "putes": 8644,
      "bul": 8645,
      "ĠCertification": 8646,
      "Ġnetwork": 8647,
      "aware": 8648,
      "Ġdetected": 8649,
      "ĠOnce": 8650,
      "ĠProfile": 8651,
      "atasets": 8652,
      "Ġatlas": 8653,
      "air": 8654,
      "Ġsetup": 8655,
      "Lay": 8656,
      "ĠDroplet": 8657,
      "tique": 8658,
      "require": 8659,
      "Ġ200": 8660,
      "Ġevaluates": 8661,
      "gences": 8662,
      "SOL": 8663,
      "Ġcha": 8664,
      "ĠRD": 8665,
      "Ġlogically": 8666,
      "Ġâī": 8667,
      "ĠContents": 8668,
      "AW": 8669,
      "brevity": 8670,
      "Ġwra": 8671,
      "ĠMay": 8672,
      "style": 8673,
      "Ġdeprecation": 8674,
      "sole": 8675,
      "Ġreading": 8676,
      "Ġpackage": 8677,
      "boarding": 8678,
      "ping": 8679,
      "ĠIntern": 8680,
      "ONICAL": 8681,
      "overed": 8682,
      "Ġintent": 8683,
      "Ġinconsistent": 8684,
      "rics": 8685,
      "Ġproposals": 8686,
      "ĠTES": 8687,
      "ISK": 8688,
      "bulence": 8689,
      "ĠTESTING": 8690,
      "Ġpen": 8691,
      "Ġhardware": 8692,
      "tivate": 8693,
      "ĠInstall": 8694,
      "ĠDirectML": 8695,
      "FACE": 8696,
      "fron": 8697,
      "complish": 8698,
      "Best": 8699,
      "00095": 8700,
      "decoy": 8701,
      "evaluation": 8702,
      "IDAPublic": 8703,
      "ICATION": 8704,
      "ermodynamics": 8705,
      "istration": 8706,
      "complishments": 8707,
      "Ġcompati": 8708,
      "ĠManifest": 8709,
      "Ġautonomy": 8710,
      "IDAPublicTrustP": 8711,
      "ĠTable": 8712,
      "Ġlocated": 8713,
      "Ġhonestly": 8714,
      "where": 8715,
      "ĠFlags": 8716,
      "Ġsubordin": 8717,
      "Ġadds": 8718,
      "ĠEle": 8719,
      "ĠCrysis": 8720,
      "shaped": 8721,
      "Ġliteral": 8722,
      "ĠOnboarding": 8723,
      "max": 8724,
      "total": 8725,
      "ĠTABLE": 8726,
      "ĠWeighted": 8727,
      "Ġparticipates": 8728,
      "Ġsentinel": 8729,
      "UMENTATION": 8730,
      "udience": 8731,
      "ĠActivate": 8732,
      "Ġindust": 8733,
      "....": 8734,
      "ĠTrue": 8735,
      "Ġdecryption": 8736,
      "Ġshade": 8737,
      "ĠFormal": 8738,
      "Ġadministration": 8739,
      "Ġcompletes": 8740,
      "ĠSection": 8741,
      "ĠLocations": 8742,
      "Ob": 8743,
      "Ġmaps": 8744,
      "Ġcoer": 8745,
      "Ġzero": 8746,
      "ript": 8747,
      "Ġfiltered": 8748,
      "Ġpriv": 8749,
      "Ġgenuinely": 8750,
      "ĠGoverned": 8751,
      "Ġworkable": 8752,
      "baseline": 8753,
      "ĠTopology": 8754,
      "ulator": 8755,
      "ĠDown": 8756,
      "Ġindustries": 8757,
      "Role": 8758,
      "fil": 8759,
      "âĤ": 8760,
      "ĠCDEE": 8761,
      "Ġcompetition": 8762,
      "ategories": 8763,
      "Ġescalations": 8764,
      "Platform": 8765,
      "ĠConsole": 8766,
      "aste": 8767,
      "users": 8768,
      "Phi": 8769,
      "Ġinstanti": 8770,
      "Ġgains": 8771,
      "scripts": 8772,
      "6625": 8773,
      "ĠProto": 8774,
      "DOCUMENTATION": 8775,
      "ĠCategory": 8776,
      "00089": 8777,
      "Ġpresentation": 8778,
      "Ġexcellent": 8779,
      "ĠProtocol": 8780,
      "fintech": 8781,
      "Ġ180": 8782,
      "Ġpagination": 8783,
      "aws": 8784,
      "Verification": 8785,
      "does": 8786,
      "Ġrepresented": 8787,
      "vantage": 8788,
      "least": 8789,
      "ĠÂ§": 8790,
      "Synthesis": 8791,
      "jective": 8792,
      "response": 8793,
      "ĠSources": 8794,
      "Ġestablish": 8795,
      "21922": 8796,
      "Life": 8797,
      "MER": 8798,
      "sult": 8799,
      "00104": 8800,
      "ĠCoding": 8801,
      "ĠPerspective": 8802,
      "ĠOfficials": 8803,
      "ĠLoading": 8804,
      "ircular": 8805,
      "ĠConsult": 8806,
      "Ġloads": 8807,
      "imensional": 8808,
      "tick": 8809,
      "deoff": 8810,
      "Objective": 8811,
      "empty": 8812,
      "¬Â": 8813,
      "Â¢": 8814,
      "Â¬": 8815,
      "ļÂ¬": 8816,
      "âĢļÂ¬": 8817,
      "ĠÃĥ": 8818,
      "âĤ¬Â": 8819,
      "âĤ¬ÂĿ": 8820,
      "Del": 8821,
      "ĠConsultant": 8822,
      "Ġmast": 8823,
      "ĠEnforced": 8824,
      "ĠRemaining": 8825,
      "Ġreq": 8826,
      "Ġfeeds": 8827,
      "Hard": 8828,
      "Application": 8829,
      "ĠTop": 8830,
      "roduci": 8831,
      "reversible": 8832,
      "ĠBet": 8833,
      "Ġmastery": 8834,
      "Ġscript": 8835,
      "0008": 8836,
      "Deliverables": 8837,
      "ĠCANONICAL": 8838,
      "irreversible": 8839,
      "ĠGeneric": 8840,
      "Global": 8841,
      "`).": 8842,
      "ĠAutonomous": 8843,
      "harma": 8844,
      "ĠFramework": 8845,
      "Ġ|---|": 8846,
      "ĠCache": 8847,
      "export": 8848,
      "roducible": 8849,
      "ĠCLI": 8850,
      "day": 8851,
      "ony": 8852,
      "Ġcards": 8853,
      "ĠFail": 8854,
      "Aut": 8855,
      "tradeoff": 8856,
      "Ġheaders": 8857,
      "Ġactors": 8858,
      "iprocal": 8859,
      "difficulty": 8860,
      "Depend": 8861,
      "055": 8862,
      "Ġannot": 8863,
      "ĠAST": 8864,
      "Sub": 8865,
      "Ġmistakes": 8866,
      "Ġpublish": 8867,
      "096": 8868,
      "cybernetic": 8869,
      "signals": 8870,
      "ĠRefactoring": 8871,
      "ĠForce": 8872,
      "governor": 8873,
      "ĠDomainEvent": 8874,
      "ĠFailures": 8875,
      "redibility": 8876,
      "Ġspend": 8877,
      "Ġ206": 8878,
      ")**": 8879,
      "decisions": 8880,
      "Depends": 8881,
      "Ġsynthetic": 8882,
      "pharma": 8883,
      "0484": 8884,
      "]`": 8885,
      "Ġdetect": 8886,
      "011": 8887,
      "Or": 8888,
      "ĠAuditLog": 8889,
      "Ġbroader": 8890,
      "acts": 8891,
      "ĠSnapshot": 8892,
      "Ġcopy": 8893,
      "vement": 8894,
      "ĠIts": 8895,
      "URFACE": 8896,
      "SURFACE": 8897,
      "Ġbrit": 8898,
      "Ġaudits": 8899,
      "Auto": 8900,
      "Ġadminis": 8901,
      "Ġenforce": 8902,
      "ĠFilter": 8903,
      "ĠFintech": 8904,
      "Ġguards": 8905,
      "CGE": 8906,
      "Ġdecorator": 8907,
      "${": 8908,
      "252": 8909,
      "Ġlink": 8910,
      "Ġartic": 8911,
      "Ġcapacity": 8912,
      "discovery": 8913,
      "Ġ65": 8914,
      "Ġ|-----------|----------|": 8915,
      "Ġnum": 8916,
      "ETY": 8917,
      "AFETY": 8918,
      "EIG": 8919,
      "VEREIG": 8920,
      "VEREIGNTY": 8921,
      "\"\"": 8922,
      "SAFETY": 8923,
      "impossible": 8924,
      "SOVEREIGNTY": 8925,
      "Ġpretend": 8926,
      "bstra": 8927,
      "distributed": 8928,
      "00064": 8929,
      "\\\"):": 8930,
      "Ġpy": 8931,
      "Ġmaintain": 8932,
      "bstract": 8933,
      "ĠProf": 8934,
      "Ġsurvived": 8935,
      "arian": 8936,
      "Configuration": 8937,
      "ĠHistory": 8938,
      "Ġpytest": 8939,
      "Abstract": 8940,
      "itarian": 8941,
      "Ġreduction": 8942,
      "650": 8943,
      "UPDATE": 8944,
      "Ġimplements": 8945,
      "ĠPoint": 8946,
      "Ġlic": 8947,
      "create": 8948,
      "incomplete": 8949,
      "IDATION": 8950,
      "Ġdidn": 8951,
      "Ġ|-------|": 8952,
      "Optim": 8953,
      "())": 8954,
      "Optimization": 8955,
      "aring": 8956,
      "evalu": 8957,
      "âĨ": 8958,
      "Ġrein": 8959,
      "ĠCount": 8960,
      "-...": 8961,
      "TestGpu": 8962,
      "BatchOptimization": 8963,
      "TestGpuBatchOptimization": 8964,
      "ĠScoring": 8965,
      "nodes": 8966,
      "ibration": 8967,
      "edience": 8968,
      "VALIDATION": 8969,
      "Ġdecl": 8970,
      "Ġobedience": 8971,
      "hash": 8972,
      "310": 8973,
      "timestamp": 8974,
      "Easy": 8975,
      "HM": 8976,
      "Approval": 8977,
      "ĠAch": 8978,
      "author": 8979,
      "ĠRed": 8980,
      "driven": 8981,
      "ganisation": 8982,
      "ĠAchie": 8983,
      "005": 8984,
      "timent": 8985,
[...]
